{
  "version": "1.0",
  "truncation": null,
  "padding": null,
  "added_tokens": [
    {
      "id": 0,
      "content": "[PAD]",
      "single_word": false,
      "lstrip": false,
      "rstrip": false,
      "normalized": false,
      "special": true
    },
    {
      "id": 1,
      "content": "[UNK]",
      "single_word": false,
      "lstrip": false,
      "rstrip": false,
      "normalized": false,
      "special": true
    },
    {
      "id": 2,
      "content": "[CLS]",
      "single_word": false,
      "lstrip": false,
      "rstrip": false,
      "normalized": false,
      "special": true
    },
    {
      "id": 3,
      "content": "[SEP]",
      "single_word": false,
      "lstrip": false,
      "rstrip": false,
      "normalized": false,
      "special": true
    },
    {
      "id": 4,
      "content": "[MASK]",
      "single_word": false,
      "lstrip": false,
      "rstrip": false,
      "normalized": false,
      "special": true
    }
  ],
  "normalizer": {
    "type": "BertNormalizer",
    "clean_text": true,
    "handle_chinese_chars": true,
    "strip_accents": null,
    "lowercase": false
  },
  "pre_tokenizer": {
    "type": "BertPreTokenizer"
  },
  "post_processor": {
    "type": "TemplateProcessing",
    "single": [
      {
        "SpecialToken": {
          "id": "[CLS]",
          "type_id": 0
        }
      },
      {
        "Sequence": {
          "id": "A",
          "type_id": 0
        }
      },
      {
        "SpecialToken": {
          "id": "[SEP]",
          "type_id": 0
        }
      }
    ],
    "pair": [
      {
        "SpecialToken": {
          "id": "[CLS]",
          "type_id": 0
        }
      },
      {
        "Sequence": {
          "id": "A",
          "type_id": 0
        }
      },
      {
        "SpecialToken": {
          "id": "[SEP]",
          "type_id": 0
        }
      },
      {
        "Sequence": {
          "id": "B",
          "type_id": 1
        }
      },
      {
        "SpecialToken": {
          "id": "[SEP]",
          "type_id": 1
        }
      }
    ],
    "special_tokens": {
      "[CLS]": {
        "id": "[CLS]",
        "ids": [
          2
        ],
        "tokens": [
          "[CLS]"
        ]
      },
      "[SEP]": {
        "id": "[SEP]",
        "ids": [
          3
        ],
        "tokens": [
          "[SEP]"
        ]
      }
    }
  },
  "decoder": {
    "type": "WordPiece",
    "prefix": "##",
    "cleanup": true
  },
  "model": {
    "type": "WordPiece",
    "unk_token": "[UNK]",
    "continuing_subword_prefix": "##",
    "max_input_chars_per_word": 100,
    "vocab": {
      "[PAD]": 0,
      "[UNK]": 1,
      "[CLS]": 2,
      "[SEP]": 3,
      "[MASK]": 4,
      "!": 5,
      "\"": 6,
      "#": 7,
      "$": 8,
      "%": 9,
      "&": 10,
      "'": 11,
      "(": 12,
      ")": 13,
      "*": 14,
      "+": 15,
      ",": 16,
      "-": 17,
      ".": 18,
      "/": 19,
      "0": 20,
      "1": 21,
      "2": 22,
      "3": 23,
      "4": 24,
      "5": 25,
      "6": 26,
      "7": 27,
      "8": 28,
      "9": 29,
      ":": 30,
      ";": 31,
      "<": 32,
      "=": 33,
      ">": 34,
      "?": 35,
      "@": 36,
      "A": 37,
      "B": 38,
      "C": 39,
      "D": 40,
      "E": 41,
      "F": 42,
      "G": 43,
      "H": 44,
      "I": 45,
      "J": 46,
      "K": 47,
      "L": 48,
      "M": 49,
      "N": 50,
      "O": 51,
      "P": 52,
      "Q": 53,
      "R": 54,
      "S": 55,
      "T": 56,
      "U": 57,
      "V": 58,
      "W": 59,
      "X": 60,
      "Y": 61,
      "Z": 62,
      "[": 63,
      "\\": 64,
      "]": 65,
      "_": 66,
      "`": 67,
      "a": 68,
      "b": 69,
      "c": 70,
      "d": 71,
      "e": 72,
      "f": 73,
      "g": 74,
      "h": 75,
      "i": 76,
      "j": 77,
      "k": 78,
      "l": 79,
      "m": 80,
      "n": 81,
      "o": 82,
      "p": 83,
      "q": 84,
      "r": 85,
      "s": 86,
      "t": 87,
      "u": 88,
      "v": 89,
      "w": 90,
      "x": 91,
      "y": 92,
      "z": 93,
      "{": 94,
      "|": 95,
      "}": 96,
      "~": 97,
      "¡": 98,
      "£": 99,
      "§": 100,
      "©": 101,
      "®": 102,
      "°": 103,
      "²": 104,
      "´": 105,
      "·": 106,
      "»": 107,
      "½": 108,
      "¿": 109,
      "Â": 110,
      "Ç": 111,
      "Ø": 112,
      "à": 113,
      "á": 114,
      "â": 115,
      "ç": 116,
      "è": 117,
      "é": 118,
      "í": 119,
      "ñ": 120,
      "ó": 121,
      "ô": 122,
      "ú": 123,
      "ü": 124,
      "ÿ": 125,
      "ē": 126,
      "œ": 127,
      "Γ": 128,
      "‐": 129,
      "‑": 130,
      "–": 131,
      "—": 132,
      "‘": 133,
      "’": 134,
      "“": 135,
      "”": 136,
      "•": 137,
      "…": 138,
      "€": 139,
      "™": 140,
      "⅔": 141,
      "▪": 142,
      "●": 143,
      "✅": 144,
      "【": 145,
      "】": 146,
      "ﬁ": 147,
      "ﬃ": 148,
      "️": 149,
      "##a": 150,
      "##r": 151,
      "##i": 152,
      "##s": 153,
      "##c": 154,
      "##o": 155,
      "##m": 156,
      "##f": 157,
      "##t": 158,
      "##h": 159,
      "##k": 160,
      "##e": 161,
      "##l": 162,
      "##d": 163,
      "##H": 164,
      "##N": 165,
      "##u": 166,
      "##n": 167,
      "##g": 168,
      "##®": 169,
      "##p": 170,
      "##y": 171,
      "##7": 172,
      "##b": 173,
      "##x": 174,
      "##3": 175,
      "##v": 176,
      "##5": 177,
      "##1": 178,
      "##0": 179,
      "##6": 180,
      "##W": 181,
      "##P": 182,
      "##8": 183,
      "##9": 184,
      "##w": 185,
      "##I": 186,
      "##R": 187,
      "##E": 188,
      "##2": 189,
      "##T": 190,
      "##z": 191,
      "##O": 192,
      "##D": 193,
      "##B": 194,
      "##q": 195,
      "##U": 196,
      "##J": 197,
      "##G": 198,
      "##Y": 199,
      "##S": 200,
      "##C": 201,
      "##L": 202,
      "##Q": 203,
      "##X": 204,
      "##M": 205,
      "##4": 206,
      "##A": 207,
      "##F": 208,
      "##í": 209,
      "##K": 210,
      "##™": 211,
      "##€": 212,
      "##œ": 213,
      "##Z": 214,
      "##j": 215,
      "##é": 216,
      "##V": 217,
      "##ﬁ": 218,
      "##á": 219,
      "##ñ": 220,
      "##â": 221,
      "##ó": 222,
      "##°": 223,
      "##ç": 224,
      "##´": 225,
      "##ú": 226,
      "##²": 227,
      "##Ç": 228,
      "##ô": 229,
      "##ﬃ": 230,
      "##ē": 231,
      "##è": 232,
      "##️": 233,
      "##ÿ": 234,
      "##ti": 235,
      "##er": 236,
      "##nd": 237,
      "##on": 238,
      "##in": 239,
      "##es": 240,
      "##en": 241,
      "##or": 242,
      "and": 243,
      "##al": 244,
      "##at": 245,
      "##it": 246,
      "##tion": 247,
      "##ing": 248,
      "th": 249,
      "##re": 250,
      "##ro": 251,
      "in": 252,
      "to": 253,
      "##an": 254,
      "##ed": 255,
      "##ent": 256,
      "##ar": 257,
      "##el": 258,
      "##ation": 259,
      "##il": 260,
      "##ic": 261,
      "the": 262,
      "##ec": 263,
      "##ou": 264,
      "##st": 265,
      "##ce": 266,
      "##om": 267,
      "of": 268,
      "##le": 269,
      "pro": 270,
      "##si": 271,
      "##ment": 272,
      "##ol": 273,
      "##ith": 274,
      "##ur": 275,
      "with": 276,
      "##ng": 277,
      "##ve": 278,
      "##ac": 279,
      "##pl": 280,
      "##is": 281,
      "or": 282,
      "##per": 283,
      "##ity": 284,
      "re": 285,
      "##ess": 286,
      "##ien": 287,
      "##ge": 288,
      "for": 289,
      "com": 290,
      "##ers": 291,
      "ex": 292,
      "##am": 293,
      "##ata": 294,
      "##th": 295,
      "##ig": 296,
      "##as": 297,
      "##ork": 298,
      "st": 299,
      "an": 300,
      "##ate": 301,
      "##id": 302,
      "##ab": 303,
      "##et": 304,
      "##ience": 305,
      "##ting": 306,
      "##uc": 307,
      "##us": 308,
      "##ill": 309,
      "##ts": 310,
      "data": 311,
      "##ev": 312,
      "##qu": 313,
      "##perience": 314,
      "is": 315,
      "##ri": 316,
      "##for": 317,
      "you": 318,
      "##por": 319,
      "as": 320,
      "##tu": 321,
      "##ear": 322,
      "work": 323,
      "##ul": 324,
      "con": 325,
      "##em": 326,
      "##tic": 327,
      "##ir": 328,
      "##op": 329,
      "##ow": 330,
      "##ine": 331,
      "on": 332,
      "##ter": 333,
      "##form": 334,
      "##ations": 335,
      "##ay": 336,
      "##ly": 337,
      "comp": 338,
      "ac": 339,
      "##oc": 340,
      "##ire": 341,
      "##eam": 342,
      "our": 343,
      "##ech": 344,
      "##ual": 345,
      "##evel": 346,
      "be": 347,
      "##ance": 348,
      "ap": 349,
      "##are": 350,
      "##od": 351,
      "team": 352,
      "##ust": 353,
      "##im": 354,
      "##sion": 355,
      "##ot": 356,
      "en": 357,
      "##ad": 358,
      "##echn": 359,
      "##if": 360,
      "##iti": 361,
      "##and": 362,
      "##age": 363,
      "##aly": 364,
      "##ppor": 365,
      "##oy": 366,
      "will": 367,
      "##ain": 368,
      "are": 369,
      "##ility": 370,
      "experience": 371,
      "##ploy": 372,
      "##iv": 373,
      "##duc": 374,
      "##iz": 375,
      "Ex": 376,
      "##ch": 377,
      "inc": 378,
      "##ud": 379,
      "##ect": 380,
      "that": 381,
      "techn": 382,
      "##og": 383,
      "em": 384,
      "##iness": 385,
      "us": 386,
      "##evelop": 387,
      "##usiness": 388,
      "##un": 389,
      "##ut": 390,
      "appl": 391,
      "##cess": 392,
      "##ies": 393,
      "Th": 394,
      "we": 395,
      "##tive": 396,
      "cl": 397,
      "incl": 398,
      "##ical": 399,
      "##quire": 400,
      "de": 401,
      "res": 402,
      "ne": 403,
      "##ities": 404,
      "rel": 405,
      "##ob": 406,
      "##ngine": 407,
      "##ap": 408,
      "su": 409,
      "al": 410,
      "##gr": 411,
      "We": 412,
      "##able": 413,
      "##tions": 414,
      "##ble": 415,
      "##ments": 416,
      "##est": 417,
      "##ke": 418,
      "im": 419,
      "analy": 420,
      "wh": 421,
      "##ip": 422,
      "business": 423,
      "##os": 424,
      "man": 425,
      "produc": 426,
      "pl": 427,
      "develop": 428,
      "includ": 429,
      "applic": 430,
      "##ach": 431,
      "##ated": 432,
      "##end": 433,
      "##ard": 434,
      "employ": 435,
      "comm": 436,
      "at": 437,
      "##yst": 438,
      "##ystem": 439,
      "##ver": 440,
      "##olog": 441,
      "##ngineer": 442,
      "##our": 443,
      "##fer": 444,
      "tr": 445,
      "##ther": 446,
      "In": 447,
      "imp": 448,
      "##ild": 449,
      "##ture": 450,
      "##ell": 451,
      "##ign": 452,
      "Experience": 453,
      "year": 454,
      "sol": 455,
      "##rou": 456,
      "le": 457,
      "##erv": 458,
      "##uild": 459,
      "sc": 460,
      "##fic": 461,
      "##rom": 462,
      "##kill": 463,
      "##ient": 464,
      "dis": 465,
      "require": 466,
      "int": 467,
      "##vid": 468,
      "##tiv": 469,
      "Pro": 470,
      "##ave": 471,
      "your": 472,
      "ch": 473,
      "##bility": 474,
      "##um": 475,
      "##ag": 476,
      "##art": 477,
      "system": 478,
      "##igh": 479,
      "##eal": 480,
      "##ast": 481,
      "##kills": 482,
      "by": 483,
      "build": 484,
      "ind": 485,
      "process": 486,
      "##00": 487,
      "rec": 488,
      "##ary": 489,
      "##oll": 490,
      "St": 491,
      "po": 492,
      "##tun": 493,
      "##of": 494,
      "per": 495,
      "##ates": 496,
      "including": 497,
      "##enti": 498,
      "years": 499,
      "##ans": 500,
      "##ervic": 501,
      "other": 502,
      "##ase": 503,
      "##pon": 504,
      "##esign": 505,
      "##now": 506,
      "##gh": 507,
      "##ack": 508,
      "##pportun": 509,
      "##ure": 510,
      "##agement": 511,
      "##ware": 512,
      "You": 513,
      "The": 514,
      "ad": 515,
      "##ely": 516,
      "##out": 517,
      "from": 518,
      "technolog": 519,
      "##oft": 520,
      "suppor": 521,
      "Com": 522,
      "##ealth": 523,
      "provid": 524,
      "##earn": 525,
      "##ene": 526,
      "str": 527,
      "skills": 528,
      "##ustom": 529,
      "##ore": 530,
      "##ong": 531,
      "##ss": 532,
      "##ew": 533,
      "##act": 534,
      "this": 535,
      "tim": 536,
      "##ee": 537,
      "acc": 538,
      "##ant": 539,
      "##ous": 540,
      "##ational": 541,
      "have": 542,
      "##ake": 543,
      "##formation": 544,
      "##tics": 545,
      "##king": 546,
      "##anc": 547,
      "##led": 548,
      "##ial": 549,
      "ro": 550,
      "##gram": 551,
      "custom": 552,
      "##ital": 553,
      "##ilities": 554,
      "inter": 555,
      "##nder": 556,
      "solu": 557,
      "##ability": 558,
      "##sition": 559,
      "##ific": 560,
      "suc": 561,
      "commun": 562,
      "##ision": 563,
      "Data": 564,
      "all": 565,
      "pre": 566,
      "##ens": 567,
      "##elp": 568,
      "need": 569,
      "cont": 570,
      "##ative": 571,
      "mod": 572,
      "development": 573,
      "##ace": 574,
      "An": 575,
      "proj": 576,
      "##its": 577,
      "pr": 578,
      "##ail": 579,
      "not": 580,
      "qual": 581,
      "lead": 582,
      "Re": 583,
      "##nowled": 584,
      "opportun": 585,
      "##oftware": 586,
      "##atus": 587,
      "product": 588,
      "##nowledge": 589,
      "design": 590,
      "##hip": 591,
      "status": 592,
      "##ating": 593,
      "time": 594,
      "support": 595,
      "##sis": 596,
      "role": 597,
      "##ange": 598,
      "##ld": 599,
      "##ree": 600,
      "systems": 601,
      "##ngineering": 602,
      "help": 603,
      "compan": 604,
      "id": 605,
      "##enef": 606,
      "##ps": 607,
      "technical": 608,
      "me": 609,
      "##ross": 610,
      "##ponsi": 611,
      "solutions": 612,
      "##tional": 613,
      "sh": 614,
      "##stand": 615,
      "##ist": 616,
      "sp": 617,
      "co": 618,
      "##ff": 619,
      "their": 620,
      "teams": 621,
      "servic": 622,
      "perform": 623,
      "##ienc": 624,
      "cre": 625,
      "##tical": 626,
      "##ization": 627,
      "##ote": 628,
      "##lex": 629,
      "learn": 630,
      "##sur": 631,
      "##ry": 632,
      "program": 633,
      "##ere": 634,
      "##ors": 635,
      "env": 636,
      "Sc": 637,
      "under": 638,
      "position": 639,
      "##enefits": 640,
      "Comp": 641,
      "##ru": 642,
      "##iron": 643,
      "##row": 644,
      "management": 645,
      "Work": 646,
      "##alu": 647,
      "##abor": 648,
      "exper": 649,
      "ab": 650,
      "environ": 651,
      "part": 652,
      "tool": 653,
      "software": 654,
      "##eliv": 655,
      "bas": 656,
      "##ex": 657,
      "information": 658,
      "more": 659,
      "##ven": 660,
      "new": 661,
      "high": 662,
      "##ollabor": 663,
      "##tain": 664,
      "requirements": 665,
      "##eliver": 666,
      "ll": 667,
      "Analy": 668,
      "##all": 669,
      "communic": 670,
      "##tis": 671,
      "model": 672,
      "##omm": 673,
      "fi": 674,
      "##gree": 675,
      "loc": 676,
      "##ov": 677,
      "working": 678,
      "related": 679,
      "any": 680,
      "equ": 681,
      "##ited": 682,
      "##red": 683,
      "##ia": 684,
      "##ects": 685,
      "##igi": 686,
      "deliver": 687,
      "un": 688,
      "identi": 689,
      "##ession": 690,
      "##oo": 691,
      "##gan": 692,
      "##vi": 693,
      "client": 694,
      "##ep": 695,
      "imple": 696,
      "reg": 697,
      "op": 698,
      "dri": 699,
      "Res": 700,
      "##ruc": 701,
      "health": 702,
      "based": 703,
      "##rough": 704,
      "##ateg": 705,
      "##eop": 706,
      "##egr": 707,
      "##eter": 708,
      "##ang": 709,
      "Our": 710,
      "##oud": 711,
      "tools": 712,
      "##unc": 713,
      "This": 714,
      "##ence": 715,
      "##pr": 716,
      "company": 717,
      "repor": 718,
      "##oun": 719,
      "##eople": 720,
      "consi": 721,
      "##itt": 722,
      "##andid": 723,
      "Wh": 724,
      "do": 725,
      "technology": 726,
      "organ": 727,
      "knowledge": 728,
      "analysis": 729,
      "environment": 730,
      "li": 731,
      "##der": 732,
      "go": 733,
      "##ied": 734,
      "Ac": 735,
      "trans": 736,
      "understand": 737,
      "##ines": 738,
      "As": 739,
      "##ected": 740,
      "sex": 741,
      "##min": 742,
      "Man": 743,
      "across": 744,
      "##ferred": 745,
      "##ifications": 746,
      "##blem": 747,
      "##ving": 748,
      "care": 749,
      "through": 750,
      "##surance": 751,
      "best": 752,
      "mar": 753,
      "##ile": 754,
      "employment": 755,
      "indust": 756,
      "##tim": 757,
      "AI": 758,
      "building": 759,
      "may": 760,
      "##cri": 761,
      "##oin": 762,
      "##ues": 763,
      "##alent": 764,
      "func": 765,
      "##uter": 766,
      "problem": 767,
      "benefits": 768,
      "##enc": 769,
      "##mentation": 770,
      "##sive": 771,
      "##earch": 772,
      "grow": 773,
      "provide": 774,
      "##atform": 775,
      "fu": 776,
      "##iting": 777,
      "processes": 778,
      "well": 779,
      "##achine": 780,
      "ar": 781,
      "##eral": 782,
      "people": 783,
      "##arge": 784,
      "##fr": 785,
      "##ful": 786,
      "prot": 787,
      "##ees": 788,
      "integr": 789,
      "engineering": 790,
      "candid": 791,
      "##atch": 792,
      "Con": 793,
      "oper": 794,
      "can": 795,
      "##pro": 796,
      "services": 797,
      "learning": 798,
      "##apital": 799,
      "impro": 800,
      "##ocu": 801,
      "##ructure": 802,
      "##lease": 803,
      "such": 804,
      "customers": 805,
      "strateg": 806,
      "##ne": 807,
      "into": 808,
      "000": 809,
      "##ple": 810,
      "disability": 811,
      "##aw": 812,
      "##ivers": 813,
      "Require": 814,
      "opportunity": 815,
      "required": 816,
      "##ks": 817,
      "##eld": 818,
      "Ability": 819,
      "##orld": 820,
      "industry": 821,
      "using": 822,
      "out": 823,
      "##nal": 824,
      "##ecur": 825,
      "##ome": 826,
      "Develop": 827,
      "Pre": 828,
      "about": 829,
      "##ord": 830,
      "Em": 831,
      "##alary": 832,
      "scal": 833,
      "main": 834,
      "##ub": 835,
      "##ender": 836,
      "##ower": 837,
      "##nov": 838,
      "quality": 839,
      "up": 840,
      "##ecurity": 841,
      "##aid": 842,
      "##ivid": 843,
      "##ost": 844,
      "pri": 845,
      "##ividual": 846,
      "##ures": 847,
      "world": 848,
      "##rib": 849,
      "##bilities": 850,
      "application": 851,
      "##ari": 852,
      "##one": 853,
      "degree": 854,
      "gender": 855,
      "performance": 856,
      "##ards": 857,
      "platform": 858,
      "inv": 859,
      "within": 860,
      "employees": 861,
      "collabor": 862,
      "##ose": 863,
      "##ants": 864,
      "##ound": 865,
      "##ite": 866,
      "##ruiting": 867,
      "valu": 868,
      "products": 869,
      "job": 870,
      "##ty": 871,
      "##ership": 872,
      "##fl": 873,
      "Qual": 874,
      "##old": 875,
      "responsi": 876,
      "##cep": 877,
      "##frast": 878,
      "##very": 879,
      "projects": 880,
      "##ize": 881,
      "Ap": 882,
      "##view": 883,
      "Capital": 884,
      "##yp": 885,
      "rem": 886,
      "##ocus": 887,
      "##ulti": 888,
      "docu": 889,
      "##ffic": 890,
      "##frastructure": 891,
      "complex": 892,
      "##sure": 893,
      "##tives": 894,
      "technologies": 895,
      "spec": 896,
      "project": 897,
      "##irec": 898,
      "prac": 899,
      "par": 900,
      "pers": 901,
      "##round": 902,
      "##QL": 903,
      "##ental": 904,
      "needs": 905,
      "ability": 906,
      "##ull": 907,
      "innov": 908,
      "##tively": 909,
      "multi": 910,
      "field": 911,
      "level": 912,
      "Job": 913,
      "range": 914,
      "##fy": 915,
      "Str": 916,
      "improve": 917,
      "ma": 918,
      "##ise": 919,
      "who": 920,
      "individual": 921,
      "Py": 922,
      "consider": 923,
      "focus": 924,
      "insurance": 925,
      "appro": 926,
      "vari": 927,
      "At": 928,
      "Un": 929,
      "ag": 930,
      "Employ": 931,
      "##aining": 932,
      "applications": 933,
      "Rem": 934,
      "Engineer": 935,
      "cloud": 936,
      "col": 937,
      "##utom": 938,
      "##fession": 939,
      "##br": 940,
      "customer": 941,
      "##av": 942,
      "opportunities": 943,
      "##fessional": 944,
      "communication": 945,
      "##ond": 946,
      "##lob": 947,
      "##ays": 948,
      "sub": 949,
      "adv": 950,
      "maintain": 951,
      "Remote": 952,
      "##str": 953,
      "##ffec": 954,
      "pay": 955,
      "##ory": 956,
      "##abilities": 957,
      "If": 958,
      "assi": 959,
      "##hold": 960,
      "##so": 961,
      "##etw": 962,
      "##ead": 963,
      "rob": 964,
      "##ommod": 965,
      "##tin": 966,
      "like": 967,
      "##ount": 968,
      "Ad": 969,
      "##ath": 970,
      "orient": 971,
      "functional": 972,
      "it": 973,
      "##irm": 974,
      "national": 975,
      "For": 976,
      "infrastructure": 977,
      "also": 978,
      "One": 979,
      "##tific": 980,
      "Health": 981,
      "Business": 982,
      "##ner": 983,
      "fin": 984,
      "use": 985,
      "Cl": 986,
      "manag": 987,
      "disc": 988,
      "##iqu": 989,
      "##lobal": 990,
      "dec": 991,
      "ass": 992,
      "##ll": 993,
      "##ide": 994,
      "##ue": 995,
      "success": 996,
      "Science": 997,
      "models": 998,
      "divers": 999,
      "##emb": 1000,
      "Qualifications": 1001,
      "##ics": 1002,
      "law": 1003,
      "end": 1004,
      "##edical": 1005,
      "Strong": 1006,
      "##chit": 1007,
      "##olic": 1008,
      "lif": 1009,
      "Responsi": 1010,
      "##sigh": 1011,
      "stake": 1012,
      "##achel": 1013,
      "ensure": 1014,
      "##ior": 1015,
      "##ets": 1016,
      "every": 1017,
      "##cell": 1018,
      "##ized": 1019,
      "direc": 1020,
      "research": 1021,
      "person": 1022,
      "##ission": 1023,
      "ev": 1024,
      "##amil": 1025,
      "effec": 1026,
      "##ified": 1027,
      "offer": 1028,
      "apply": 1029,
      "##di": 1030,
      "##itted": 1031,
      "one": 1032,
      "##ensation": 1033,
      "ML": 1034,
      "Met": 1035,
      "##thon": 1036,
      "##ould": 1037,
      "protected": 1038,
      "machine": 1039,
      "training": 1040,
      "accommod": 1041,
      "##ents": 1042,
      "##ten": 1043,
      "##emon": 1044,
      "##atis": 1045,
      "##iency": 1046,
      "Bachel": 1047,
      "sim": 1048,
      "fe": 1049,
      "##ode": 1050,
      "optim": 1051,
      "back": 1052,
      "qu": 1053,
      "SQL": 1054,
      "Python": 1055,
      "US": 1056,
      "##emonstr": 1057,
      "decision": 1058,
      "clients": 1059,
      "Servic": 1060,
      "##holders": 1061,
      "loo": 1062,
      "autom": 1063,
      "plan": 1064,
      "memb": 1065,
      "dep": 1066,
      "##01": 1067,
      "el": 1068,
      "talent": 1069,
      "analytics": 1070,
      "##tices": 1071,
      "large": 1072,
      "Analyst": 1073,
      "##ning": 1074,
      "cap": 1075,
      "##les": 1076,
      "cul": 1077,
      "##ourc": 1078,
      "tes": 1079,
      "##ential": 1080,
      "sexual": 1081,
      "Engineering": 1082,
      "##ish": 1083,
      "make": 1084,
      "ow": 1085,
      "religi": 1086,
      "stand": 1087,
      "applicants": 1088,
      "practices": 1089,
      "stakeholders": 1090,
      "Bachelor": 1091,
      "##crip": 1092,
      "applicable": 1093,
      "##ducation": 1094,
      "Rec": 1095,
      "security": 1096,
      "##ratch": 1097,
      "##ey": 1098,
      "veter": 1099,
      "off": 1100,
      "Appl": 1101,
      "relev": 1102,
      "##gn": 1103,
      "exp": 1104,
      "##ederal": 1105,
      "professional": 1106,
      "br": 1107,
      "multiple": 1108,
      "how": 1109,
      "##ticip": 1110,
      "Preferred": 1111,
      "Computer": 1112,
      "##eng": 1113,
      "##igin": 1114,
      "remote": 1115,
      "##ancial": 1116,
      "What": 1117,
      "race": 1118,
      "##ight": 1119,
      "##inim": 1120,
      "##ie": 1121,
      "Responsibilities": 1122,
      "origin": 1123,
      "understanding": 1124,
      "##ribut": 1125,
      "regard": 1126,
      "Pl": 1127,
      "effic": 1128,
      "see": 1129,
      "Management": 1130,
      "vis": 1131,
      "##ass": 1132,
      "##ich": 1133,
      "##ution": 1134,
      "organization": 1135,
      "salary": 1136,
      "##PI": 1137,
      "relevant": 1138,
      "def": 1139,
      "insigh": 1140,
      "strong": 1141,
      "cons": 1142,
      "##ash": 1143,
      "##thod": 1144,
      "color": 1145,
      "ob": 1146,
      "##lexi": 1147,
      "looking": 1148,
      "Meta": 1149,
      "IT": 1150,
      "science": 1151,
      "orientation": 1152,
      "Learn": 1153,
      "##WS": 1154,
      "iss": 1155,
      "implement": 1156,
      "but": 1157,
      "##ection": 1158,
      "##tise": 1159,
      "United": 1160,
      "##ources": 1161,
      "experienc": 1162,
      "AWS": 1163,
      "identity": 1164,
      "religion": 1165,
      "##ever": 1166,
      "##ject": 1167,
      "problems": 1168,
      "please": 1169,
      "##itiz": 1170,
      "Techn": 1171,
      "committed": 1172,
      "##ive": 1173,
      "conn": 1174,
      "identify": 1175,
      "##ion": 1176,
      "create": 1177,
      "##ases": 1178,
      "method": 1179,
      "state": 1180,
      "##enior": 1181,
      "De": 1182,
      "candidate": 1183,
      "Knowledge": 1184,
      "join": 1185,
      "archit": 1186,
      "robo": 1187,
      "##etail": 1188,
      "Lead": 1189,
      "them": 1190,
      "culture": 1191,
      "impact": 1192,
      "ph": 1193,
      "##ety": 1194,
      "over": 1195,
      "requ": 1196,
      "##ource": 1197,
      "##care": 1198,
      "age": 1199,
      "hour": 1200,
      "##nds": 1201,
      "##erm": 1202,
      "programs": 1203,
      "internal": 1204,
      "##tc": 1205,
      "include": 1206,
      "clos": 1207,
      "prior": 1208,
      "##ener": 1209,
      "##als": 1210,
      "star": 1211,
      "##ipel": 1212,
      "qualified": 1213,
      "cri": 1214,
      "cur": 1215,
      "##cellent": 1216,
      "##Ops": 1217,
      "##reat": 1218,
      "veteran": 1219,
      "##tt": 1220,
      "fr": 1221,
      "Su": 1222,
      "##ness": 1223,
      "##ove": 1224,
      "vision": 1225,
      "etc": 1226,
      "future": 1227,
      "deploy": 1228,
      "has": 1229,
      "leading": 1230,
      "compensation": 1231,
      "##ency": 1232,
      "employer": 1233,
      "inclu": 1234,
      "meet": 1235,
      "gu": 1236,
      "ver": 1237,
      "##angu": 1238,
      "analytical": 1239,
      "issues": 1240,
      "htt": 1241,
      "##ocation": 1242,
      "insights": 1243,
      "En": 1244,
      "real": 1245,
      "##etwork": 1246,
      "pos": 1247,
      "without": 1248,
      "##ern": 1249,
      "##af": 1250,
      "regul": 1251,
      "mark": 1252,
      "##ubl": 1253,
      "reports": 1254,
      "All": 1255,
      "contin": 1256,
      "##ently": 1257,
      "full": 1258,
      "growth": 1259,
      "##vern": 1260,
      "Equ": 1261,
      "service": 1262,
      "##ngineers": 1263,
      "polic": 1264,
      "##ipl": 1265,
      "documentation": 1266,
      "cond": 1267,
      "##ason": 1268,
      "##inimum": 1269,
      "am": 1270,
      "pipel": 1271,
      "##ages": 1272,
      "States": 1273,
      "https": 1274,
      "##itor": 1275,
      "##ties": 1276,
      "what": 1277,
      "bo": 1278,
      "##ings": 1279,
      "datab": 1280,
      "ww": 1281,
      "www": 1282,
      "user": 1283,
      "wr": 1284,
      "##rol": 1285,
      "equal": 1286,
      "driven": 1287,
      "conf": 1288,
      "location": 1289,
      "medical": 1290,
      "Required": 1291,
      "engineer": 1292,
      "which": 1293,
      "recruiting": 1294,
      "##ners": 1295,
      "hard": 1296,
      "mon": 1297,
      "##ellig": 1298,
      "set": 1299,
      "found": 1300,
      "##igital": 1301,
      "##par": 1302,
      "##ertific": 1303,
      "100": 1304,
      "analyz": 1305,
      "Dev": 1306,
      "developing": 1307,
      "direct": 1308,
      "Ab": 1309,
      "preferred": 1310,
      "##tr": 1311,
      "##ales": 1312,
      "expertise": 1313,
      "eligi": 1314,
      "scale": 1315,
      "##ys": 1316,
      "##lear": 1317,
      "reporting": 1318,
      "exec": 1319,
      "Tr": 1320,
      "##ublic": 1321,
      "Design": 1322,
      "##ick": 1323,
      "##ollow": 1324,
      "chall": 1325,
      "##se": 1326,
      "companies": 1327,
      "organiz": 1328,
      "life": 1329,
      "various": 1330,
      "##ology": 1331,
      "##ieve": 1332,
      "must": 1333,
      "API": 1334,
      "key": 1335,
      "##ched": 1336,
      "##sts": 1337,
      "drive": 1338,
      "00": 1339,
      "hire": 1340,
      "Collabor": 1341,
      "##ommend": 1342,
      "##tual": 1343,
      "sel": 1344,
      "To": 1345,
      "federal": 1346,
      "they": 1347,
      "##ground": 1348,
      "##eti": 1349,
      "financial": 1350,
      "closely": 1351,
      "401": 1352,
      "where": 1353,
      "##pec": 1354,
      "leadership": 1355,
      "testing": 1356,
      "About": 1357,
      "pres": 1358,
      "value": 1359,
      "au": 1360,
      "detail": 1361,
      "bel": 1362,
      "##acy": 1363,
      "Location": 1364,
      "review": 1365,
      "Opportun": 1366,
      "Requirements": 1367,
      "code": 1368,
      "##terpr": 1369,
      "mat": 1370,
      "paid": 1371,
      "##ilit": 1372,
      "des": 1373,
      "##oci": 1374,
      "##irst": 1375,
      "mission": 1376,
      "##itment": 1377,
      "pur": 1378,
      "##anced": 1379,
      "innovative": 1380,
      "candidates": 1381,
      "global": 1382,
      "initi": 1383,
      "Ph": 1384,
      "comple": 1385,
      "employee": 1386,
      "access": 1387,
      "##ock": 1388,
      "compl": 1389,
      "market": 1390,
      "##te": 1391,
      "##iques": 1392,
      "##ming": 1393,
      "follow": 1394,
      "##ese": 1395,
      "Comm": 1396,
      "assist": 1397,
      "dif": 1398,
      "most": 1399,
      "rece": 1400,
      "recommend": 1401,
      "base": 1402,
      "Cre": 1403,
      "computer": 1404,
      "techniques": 1405,
      "##lexible": 1406,
      "resul": 1407,
      "##ensive": 1408,
      "network": 1409,
      "Az": 1410,
      "Go": 1411,
      "##terprise": 1412,
      "Fr": 1413,
      "Per": 1414,
      "##ands": 1415,
      "Opportunity": 1416,
      "Ch": 1417,
      "capabilities": 1418,
      "Azure": 1419,
      "reason": 1420,
      "cross": 1421,
      "##ward": 1422,
      "Provid": 1423,
      "providing": 1424,
      "##ilar": 1425,
      "invest": 1426,
      "engineers": 1427,
      "highly": 1428,
      "similar": 1429,
      "##elligence": 1430,
      "Dis": 1431,
      "Excellent": 1432,
      "both": 1433,
      "term": 1434,
      "DevOps": 1435,
      "##ditional": 1436,
      "background": 1437,
      "chang": 1438,
      "##itten": 1439,
      "own": 1440,
      "get": 1441,
      "implementation": 1442,
      "##icro": 1443,
      "diverse": 1444,
      "control": 1445,
      "local": 1446,
      "differ": 1447,
      "plans": 1448,
      "enh": 1449,
      "##less": 1450,
      "members": 1451,
      "written": 1452,
      "##etitive": 1453,
      "##sible": 1454,
      "Acc": 1455,
      "curr": 1456,
      "Applic": 1457,
      "web": 1458,
      "##ework": 1459,
      "fast": 1460,
      "Int": 1461,
      "Compan": 1462,
      "Please": 1463,
      "##cle": 1464,
      "##ally": 1465,
      "##uct": 1466,
      "##TI": 1467,
      "langu": 1468,
      "healthcare": 1469,
      "Learning": 1470,
      "lim": 1471,
      "Information": 1472,
      "##vail": 1473,
      "ann": 1474,
      "digital": 1475,
      "##place": 1476,
      "while": 1477,
      "firm": 1478,
      "##iar": 1479,
      "career": 1480,
      "Benefits": 1481,
      "pack": 1482,
      "##ogn": 1483,
      "Ar": 1484,
      "platforms": 1485,
      "decisions": 1486,
      "##assion": 1487,
      "##ify": 1488,
      "able": 1489,
      "##amiliar": 1490,
      "fund": 1491,
      "challeng": 1492,
      "##enting": 1493,
      "##pri": 1494,
      "##rap": 1495,
      "Recruiting": 1496,
      "10": 1497,
      "statis": 1498,
      "##iance": 1499,
      "deep": 1500,
      "Demonstr": 1501,
      "plus": 1502,
      "##yn": 1503,
      "pipelines": 1504,
      "successful": 1505,
      "##reh": 1506,
      "##ration": 1507,
      "met": 1508,
      "##aries": 1509,
      "startu": 1510,
      "##til": 1511,
      "##ienti": 1512,
      "enc": 1513,
      "govern": 1514,
      "Your": 1515,
      "Produc": 1516,
      "##cription": 1517,
      "change": 1518,
      "tre": 1519,
      "non": 1520,
      "bring": 1521,
      "##ak": 1522,
      "##iring": 1523,
      "##sc": 1524,
      "individuals": 1525,
      "responsible": 1526,
      "##amework": 1527,
      "avail": 1528,
      "##epend": 1529,
      "programming": 1530,
      "##EO": 1531,
      "solving": 1532,
      "Equal": 1533,
      "evalu": 1534,
      "education": 1535,
      "##ficiency": 1536,
      "##ivalent": 1537,
      "experiences": 1538,
      "automation": 1539,
      "dist": 1540,
      "##ows": 1541,
      "public": 1542,
      "##rehensive": 1543,
      "auth": 1544,
      "##etter": 1545,
      "find": 1546,
      "offic": 1547,
      "Cloud": 1548,
      "core": 1549,
      "##uring": 1550,
      "Des": 1551,
      "fac": 1552,
      "specific": 1553,
      "these": 1554,
      "needed": 1555,
      "##ype": 1556,
      "form": 1557,
      "particip": 1558,
      "##izing": 1559,
      "20": 1560,
      "integration": 1561,
      "Senior": 1562,
      "some": 1563,
      "New": 1564,
      "emp": 1565,
      "equivalent": 1566,
      "##ternal": 1567,
      "Ag": 1568,
      "each": 1569,
      "seeking": 1570,
      "Pay": 1571,
      "operations": 1572,
      "##ecture": 1573,
      "##bo": 1574,
      "Suppor": 1575,
      "eligible": 1576,
      "tas": 1577,
      "approach": 1578,
      "effectively": 1579,
      "Inc": 1580,
      "cost": 1581,
      "##de": 1582,
      "making": 1583,
      "results": 1584,
      "Machine": 1585,
      "subject": 1586,
      "standards": 1587,
      "Service": 1588,
      "Collaborate": 1589,
      "accommodations": 1590,
      "##ycle": 1591,
      "##ort": 1592,
      "Company": 1593,
      "##atives": 1594,
      "##thers": 1595,
      "reasonable": 1596,
      "##co": 1597,
      "##abl": 1598,
      "##ition": 1599,
      "##uous": 1600,
      "least": 1601,
      "areas": 1602,
      "visual": 1603,
      "framework": 1604,
      "Salary": 1605,
      "sm": 1606,
      "##keting": 1607,
      "following": 1608,
      "##inc": 1609,
      "take": 1610,
      "##ift": 1611,
      "delivery": 1612,
      "annual": 1613,
      "System": 1614,
      "if": 1615,
      "transform": 1616,
      "##ind": 1617,
      "should": 1618,
      "way": 1619,
      "modeling": 1620,
      "others": 1621,
      "concep": 1622,
      "##port": 1623,
      "encour": 1624,
      "long": 1625,
      "manage": 1626,
      "users": 1627,
      "##amiliarity": 1628,
      "##olid": 1629,
      "##pers": 1630,
      "day": 1631,
      "email": 1632,
      "open": 1633,
      "lever": 1634,
      "char": 1635,
      "##erg": 1636,
      "play": 1637,
      "strategy": 1638,
      "Software": 1639,
      "Perform": 1640,
      "##isting": 1641,
      "being": 1642,
      "Analytics": 1643,
      "first": 1644,
      "ris": 1645,
      "##uties": 1646,
      "receive": 1647,
      "strategic": 1648,
      "deter": 1649,
      "comprehensive": 1650,
      "Am": 1651,
      "guid": 1652,
      "class": 1653,
      "Create": 1654,
      "##illion": 1655,
      "test": 1656,
      "Care": 1657,
      "clear": 1658,
      "Power": 1659,
      "action": 1660,
      "passion": 1661,
      "##ink": 1662,
      "partners": 1663,
      "##pose": 1664,
      "inclusive": 1665,
      "hardware": 1666,
      "##icros": 1667,
      "when": 1668,
      "##rive": 1669,
      "##raph": 1670,
      "##standing": 1671,
      "list": 1672,
      "eng": 1673,
      "##ffor": 1674,
      "compliance": 1675,
      "##crimin": 1676,
      "Id": 1677,
      "startup": 1678,
      "trends": 1679,
      "##ologies": 1680,
      "expr": 1681,
      "communicate": 1682,
      "activ": 1683,
      "consist": 1684,
      "##eed": 1685,
      "goals": 1686,
      "Degree": 1687,
      "external": 1688,
      "##uman": 1689,
      "Range": 1690,
      "gener": 1691,
      "##ule": 1692,
      "Skills": 1693,
      "architecture": 1694,
      "##onus": 1695,
      "##ves": 1696,
      "ach": 1697,
      "independ": 1698,
      "great": 1699,
      "##ON": 1700,
      "operational": 1701,
      "enhance": 1702,
      "##tern": 1703,
      "Minimum": 1704,
      "##ape": 1705,
      "depend": 1706,
      "Or": 1707,
      "##onom": 1708,
      "leg": 1709,
      "accommodation": 1710,
      "##ries": 1711,
      "##ber": 1712,
      "know": 1713,
      "##ati": 1714,
      "existing": 1715,
      "Services": 1716,
      "package": 1717,
      "enterprise": 1718,
      "##ier": 1719,
      "appropri": 1720,
      "author": 1721,
      "Product": 1722,
      "Team": 1723,
      "phys": 1724,
      "assign": 1725,
      "present": 1726,
      "Fin": 1727,
      "workplace": 1728,
      "monitor": 1729,
      "Jav": 1730,
      "expression": 1731,
      "Paid": 1732,
      "##olution": 1733,
      "Im": 1734,
      "power": 1735,
      "available": 1736,
      "##artment": 1737,
      "##ice": 1738,
      "ser": 1739,
      "assistance": 1740,
      "critical": 1741,
      "Full": 1742,
      "stor": 1743,
      "initiatives": 1744,
      "##gin": 1745,
      "accur": 1746,
      "fact": 1747,
      "gene": 1748,
      "diversity": 1749,
      "production": 1750,
      "hours": 1751,
      "record": 1752,
      "current": 1753,
      "##ced": 1754,
      "limited": 1755,
      "creating": 1756,
      "##ult": 1757,
      "Micros": 1758,
      "locations": 1759,
      "Manag": 1760,
      "##ationship": 1761,
      "account": 1762,
      "Program": 1763,
      "add": 1764,
      "consideration": 1765,
      "##chedule": 1766,
      "managers": 1767,
      "##ering": 1768,
      "Must": 1769,
      "marital": 1770,
      "ensur": 1771,
      "than": 1772,
      "post": 1773,
      "##asis": 1774,
      "##from": 1775,
      "##ade": 1776,
      "Mod": 1777,
      "Scratch": 1778,
      "efficiency": 1779,
      "recruitingfrom": 1780,
      "##scratch": 1781,
      "recruitingfromscratch": 1782,
      "##force": 1783,
      "right": 1784,
      "##evelo": 1785,
      "discrimin": 1786,
      "coll": 1787,
      "Java": 1788,
      "around": 1789,
      "##omes": 1790,
      "supporting": 1791,
      "variety": 1792,
      "ques": 1793,
      "##aff": 1794,
      "posi": 1795,
      "statistical": 1796,
      "so": 1797,
      "##aster": 1798,
      "competitive": 1799,
      "uniqu": 1800,
      "ec": 1801,
      "its": 1802,
      "##ancy": 1803,
      "solution": 1804,
      "Familiarity": 1805,
      "personal": 1806,
      "offers": 1807,
      "Sh": 1808,
      "##olve": 1809,
      "recogn": 1810,
      "relationship": 1811,
      "##ali": 1812,
      "analyze": 1813,
      "Microsoft": 1814,
      "##ables": 1815,
      "solve": 1816,
      "Exper": 1817,
      "appropriate": 1818,
      "Par": 1819,
      "##mary": 1820,
      "##edic": 1821,
      "##pons": 1822,
      "##ynam": 1823,
      "only": 1824,
      "Build": 1825,
      "obj": 1826,
      "certific": 1827,
      "##ES": 1828,
      "activities": 1829,
      "aud": 1830,
      "Description": 1831,
      "tasks": 1832,
      "##brid": 1833,
      "##roup": 1834,
      "contr": 1835,
      "does": 1836,
      "##utions": 1837,
      "no": 1838,
      "top": 1839,
      "align": 1840,
      "demonstr": 1841,
      "strategies": 1842,
      "Identi": 1843,
      "prom": 1844,
      "Global": 1845,
      "Vision": 1846,
      "##ress": 1847,
      "##itions": 1848,
      "LI": 1849,
      "Under": 1850,
      "##hous": 1851,
      "exc": 1852,
      "contact": 1853,
      "values": 1854,
      "verb": 1855,
      "##een": 1856,
      "Assi": 1857,
      "Technology": 1858,
      "better": 1859,
      "efficient": 1860,
      "read": 1861,
      "Be": 1862,
      "##titu": 1863,
      "associ": 1864,
      "investors": 1865,
      "##ypes": 1866,
      "processing": 1867,
      "assess": 1868,
      "util": 1869,
      "##site": 1870,
      "##minal": 1871,
      "##ybrid": 1872,
      "purpose": 1873,
      "##isco": 1874,
      "##ural": 1875,
      "collaboration": 1876,
      "sources": 1877,
      "##minist": 1878,
      "office": 1879,
      "Type": 1880,
      "upon": 1881,
      "##aging": 1882,
      "effective": 1883,
      "fl": 1884,
      "##day": 1885,
      "##oles": 1886,
      "##ordin": 1887,
      "Provide": 1888,
      "##air": 1889,
      "##alid": 1890,
      "##aces": 1891,
      "##eep": 1892,
      "policy": 1893,
      "##cedures": 1894,
      "##ime": 1895,
      "environments": 1896,
      "here": 1897,
      "objec": 1898,
      "Proficiency": 1899,
      "challenges": 1900,
      "##ests": 1901,
      "##encies": 1902,
      "share": 1903,
      "##tract": 1904,
      "##atory": 1905,
      "factors": 1906,
      "questions": 1907,
      "No": 1908,
      "##ulting": 1909,
      "intelligence": 1910,
      "##io": 1911,
      "designing": 1912,
      "##bles": 1913,
      "feat": 1914,
      "verbal": 1915,
      "Education": 1916,
      "famil": 1917,
      "##oint": 1918,
      "concepts": 1919,
      "##app": 1920,
      "achieve": 1921,
      "big": 1922,
      "##uting": 1923,
      "subm": 1924,
      "improvement": 1925,
      "Employment": 1926,
      "genetic": 1927,
      "ensuring": 1928,
      "BI": 1929,
      "San": 1930,
      "track": 1931,
      "Support": 1932,
      "inform": 1933,
      "conc": 1934,
      "businesses": 1935,
      "##ense": 1936,
      "##IS": 1937,
      "funded": 1938,
      "##acter": 1939,
      "equity": 1940,
      "El": 1941,
      "##rics": 1942,
      "##roubles": 1943,
      "##roublesh": 1944,
      "match": 1945,
      "staff": 1946,
      "innovation": 1947,
      "Time": 1948,
      "cent": 1949,
      "databases": 1950,
      "Oper": 1951,
      "##ribute": 1952,
      "flexible": 1953,
      "continuous": 1954,
      "##gether": 1955,
      "recommendations": 1956,
      "Dental": 1957,
      "hiring": 1958,
      "##ema": 1959,
      "##cept": 1960,
      "ful": 1961,
      "community": 1962,
      "basis": 1963,
      "##ires": 1964,
      "##tire": 1965,
      "those": 1966,
      "responsibilities": 1967,
      "##gnancy": 1968,
      "directly": 1969,
      "##stabl": 1970,
      "character": 1971,
      "##stablish": 1972,
      "##back": 1973,
      "workfl": 1974,
      "feed": 1975,
      "##arehous": 1976,
      "frameworks": 1977,
      "prem": 1978,
      "database": 1979,
      "sales": 1980,
      "##aced": 1981,
      "Working": 1982,
      "methodologies": 1983,
      "##ough": 1984,
      "pregnancy": 1985,
      "organizational": 1986,
      "##ream": 1987,
      "policies": 1988,
      "small": 1989,
      "serv": 1990,
      "leave": 1991,
      "shape": 1992,
      "different": 1993,
      "Are": 1994,
      "es": 1995,
      "##arly": 1996,
      "advanced": 1997,
      "roles": 1998,
      "optimization": 1999,
      "##avel": 2000,
      "effor": 2001,
      "procedures": 2002,
      "Employer": 2003,
      "##ributed": 2004,
      "##ashbo": 2005,
      "bonus": 2006,
      "##rip": 2007,
      "outc": 2008,
      "CD": 2009,
      "enable": 2010,
      "disabilities": 2011,
      "planning": 2012,
      "valid": 2013,
      "cover": 2014,
      "managing": 2015,
      "resources": 2016,
      "Cali": 2017,
      "##eg": 2018,
      "growing": 2019,
      "connect": 2020,
      "Development": 2021,
      "Systems": 2022,
      "communities": 2023,
      "##ically": 2024,
      "delivering": 2025,
      "Pri": 2026,
      "SA": 2027,
      "##forn": 2028,
      "##otential": 2029,
      "##fornia": 2030,
      "Ver": 2031,
      "wide": 2032,
      "Lif": 2033,
      "betw": 2034,
      "between": 2035,
      "##ining": 2036,
      "California": 2037,
      "LL": 2038,
      "##TL": 2039,
      "ext": 2040,
      "Pw": 2041,
      "##aving": 2042,
      "Ind": 2043,
      "##ses": 2044,
      "PwC": 2045,
      "##erc": 2046,
      "provides": 2047,
      "spons": 2048,
      "scienti": 2049,
      "##ucture": 2050,
      "structure": 2051,
      "cor": 2052,
      "marketing": 2053,
      "note": 2054,
      "methods": 2055,
      "distributed": 2056,
      "includes": 2057,
      "Who": 2058,
      "dynam": 2059,
      "Additional": 2060,
      "characteris": 2061,
      "focused": 2062,
      "Agile": 2063,
      "York": 2064,
      "##tice": 2065,
      "self": 2066,
      "Pr": 2067,
      "##ights": 2068,
      "Cond": 2069,
      "saf": 2070,
      "##riting": 2071,
      "used": 2072,
      "empower": 2073,
      "##iew": 2074,
      "##ssential": 2075,
      "potential": 2076,
      "##inical": 2077,
      "202": 2078,
      "address": 2079,
      "there": 2080,
      "##ancisco": 2081,
      "Francisco": 2082,
      "unique": 2083,
      "ge": 2084,
      "Op": 2085,
      "relationships": 2086,
      "dashbo": 2087,
      "State": 2088,
      "modern": 2089,
      "complete": 2090,
      "consum": 2091,
      "Employee": 2092,
      "Model": 2093,
      "discipl": 2094,
      "proud": 2095,
      "##qui": 2096,
      "##olidays": 2097,
      "##omain": 2098,
      "robotics": 2099,
      "metrics": 2100,
      "consistent": 2101,
      "special": 2102,
      "independently": 2103,
      "paced": 2104,
      "##eeting": 2105,
      "objectives": 2106,
      "##yond": 2107,
      "beyond": 2108,
      "ETL": 2109,
      "##iter": 2110,
      "feedback": 2111,
      "##ograph": 2112,
      "member": 2113,
      "##vers": 2114,
      "##use": 2115,
      "ide": 2116,
      "languages": 2117,
      "robotic": 2118,
      "##ms": 2119,
      "resp": 2120,
      "transl": 2121,
      "##ecess": 2122,
      "Gener": 2123,
      "##ules": 2124,
      "contrib": 2125,
      "responsibility": 2126,
      "expl": 2127,
      "With": 2128,
      "incen": 2129,
      "criminal": 2130,
      "##sess": 2131,
      "##tor": 2132,
      "Technical": 2133,
      "conditions": 2134,
      "assigned": 2135,
      "##au": 2136,
      "prioritiz": 2137,
      "stack": 2138,
      "##itizens": 2139,
      "dynamic": 2140,
      "free": 2141,
      "hear": 2142,
      "upd": 2143,
      "Manager": 2144,
      "document": 2145,
      "possible": 2146,
      "On": 2147,
      "considered": 2148,
      "quick": 2149,
      "Assist": 2150,
      "##athema": 2151,
      "Mon": 2152,
      "##eric": 2153,
      "##eneral": 2154,
      "been": 2155,
      "##tivity": 2156,
      "develo": 2157,
      "CO": 2158,
      "trust": 2159,
      "nex": 2160,
      "leader": 2161,
      "necess": 2162,
      "stud": 2163,
      "helping": 2164,
      "config": 2165,
      "meeting": 2166,
      "vac": 2167,
      "applying": 2168,
      "15": 2169,
      "12": 2170,
      "vir": 2171,
      "compon": 2172,
      "define": 2173,
      "Co": 2174,
      "Demonstrated": 2175,
      "laws": 2176,
      "next": 2177,
      "Offic": 2178,
      "##pos": 2179,
      "Vir": 2180,
      "duties": 2181,
      "ed": 2182,
      "scalable": 2183,
      "Cons": 2184,
      "deployment": 2185,
      "Medical": 2186,
      "tech": 2187,
      "Part": 2188,
      "source": 2189,
      "recru": 2190,
      "gr": 2191,
      "Exc": 2192,
      "wee": 2193,
      "Cor": 2194,
      "domain": 2195,
      "##menting": 2196,
      "priv": 2197,
      "contract": 2198,
      "pati": 2199,
      "##ha": 2200,
      "commitment": 2201,
      "dental": 2202,
      "sign": 2203,
      "##ginia": 2204,
      "Certific": 2205,
      "outcomes": 2206,
      "##pre": 2207,
      "##ives": 2208,
      "founding": 2209,
      "##osition": 2210,
      "risk": 2211,
      "Adv": 2212,
      "##acing": 2213,
      "reli": 2214,
      "functions": 2215,
      "Cont": 2216,
      "hist": 2217,
      "home": 2218,
      "accord": 2219,
      "CA": 2220,
      "##fied": 2221,
      "sets": 2222,
      "##tal": 2223,
      "monitoring": 2224,
      "ins": 2225,
      "ment": 2226,
      "Life": 2227,
      "government": 2228,
      "Master": 2229,
      "necessary": 2230,
      "collaborate": 2231,
      "request": 2232,
      "believe": 2233,
      "Commun": 2234,
      "Sr": 2235,
      "Sales": 2236,
      "human": 2237,
      "organizations": 2238,
      "eth": 2239,
      "today": 2240,
      "quickly": 2241,
      "##side": 2242,
      "##ffirm": 2243,
      "##ilitary": 2244,
      "##ecycle": 2245,
      "ve": 2246,
      "total": 2247,
      "Security": 2248,
      "partner": 2249,
      "##Ms": 2250,
      "Excel": 2251,
      "Ass": 2252,
      "##pt": 2253,
      "experienced": 2254,
      "##PA": 2255,
      "Found": 2256,
      "Veter": 2257,
      "during": 2258,
      "implementing": 2259,
      "Insurance": 2260,
      "advance": 2261,
      "expect": 2262,
      "super": 2263,
      "gath": 2264,
      "warehous": 2265,
      "##wards": 2266,
      "##ffirmative": 2267,
      "meas": 2268,
      "##arg": 2269,
      "It": 2270,
      "maintaining": 2271,
      "CI": 2272,
      "mo": 2273,
      "##uce": 2274,
      "works": 2275,
      "establish": 2276,
      "mak": 2277,
      "optimize": 2278,
      "site": 2279,
      "##flu": 2280,
      "serve": 2281,
      "Ro": 2282,
      "amb": 2283,
      "##ax": 2284,
      "Do": 2285,
      "poin": 2286,
      "Act": 2287,
      "good": 2288,
      "##dition": 2289,
      "bec": 2290,
      "##equ": 2291,
      "##TE": 2292,
      "standard": 2293,
      "cer": 2294,
      "##cript": 2295,
      "##action": 2296,
      "addition": 2297,
      "19": 2298,
      "resum": 2299,
      "collaborative": 2300,
      "##ately": 2301,
      "##assi": 2302,
      "##ute": 2303,
      "##ceptional": 2304,
      "child": 2305,
      "##ope": 2306,
      "resource": 2307,
      "Process": 2308,
      "Americ": 2309,
      "want": 2310,
      "##orith": 2311,
      "##ocial": 2312,
      "Identify": 2313,
      "geograph": 2314,
      "Bas": 2315,
      "##gorith": 2316,
      "##line": 2317,
      "date": 2318,
      "minimum": 2319,
      "##tention": 2320,
      "colle": 2321,
      "200": 2322,
      "##iversity": 2323,
      "matter": 2324,
      "dashboards": 2325,
      "Schedule": 2326,
      "car": 2327,
      "##ook": 2328,
      "##pecial": 2329,
      "##CA": 2330,
      "Crow": 2331,
      "days": 2332,
      "senior": 2333,
      "##RE": 2334,
      "leverage": 2335,
      "##itizenship": 2336,
      "##illions": 2337,
      "manner": 2338,
      "shift": 2339,
      "move": 2340,
      "##edi": 2341,
      "quer": 2342,
      "direction": 2343,
      "visualization": 2344,
      "##ply": 2345,
      "interview": 2346,
      "clinical": 2347,
      "##kend": 2348,
      "##TION": 2349,
      "holidays": 2350,
      "princ": 2351,
      "connection": 2352,
      "Office": 2353,
      "algorith": 2354,
      "##pres": 2355,
      "qualifications": 2356,
      "import": 2357,
      "ownership": 2358,
      "scrip": 2359,
      "##ause": 2360,
      "additional": 2361,
      "listed": 2362,
      "together": 2363,
      "accept": 2364,
      "chec": 2365,
      "changing": 2366,
      "Mar": 2367,
      "ideas": 2368,
      "##ric": 2369,
      "##ib": 2370,
      "family": 2371,
      "APIs": 2372,
      "just": 2373,
      "##ra": 2374,
      "focuses": 2375,
      "Flexible": 2376,
      "military": 2377,
      "Integr": 2378,
      "Can": 2379,
      "##ame": 2380,
      "efforts": 2381,
      "##illing": 2382,
      "Plan": 2383,
      "report": 2384,
      "would": 2385,
      "##anti": 2386,
      "Vent": 2387,
      "Cent": 2388,
      "Dep": 2389,
      "via": 2390,
      "skill": 2391,
      "area": 2392,
      "tests": 2393,
      "progr": 2394,
      "posted": 2395,
      "features": 2396,
      "CEO": 2397,
      "##havi": 2398,
      "regarding": 2399,
      "Table": 2400,
      "sev": 2401,
      "careers": 2402,
      "language": 2403,
      "writing": 2404,
      "##inking": 2405,
      "##orship": 2406,
      "bu": 2407,
      "now": 2408,
      "##here": 2409,
      "pred": 2410,
      "##ences": 2411,
      "targe": 2412,
      "Crowe": 2413,
      "comb": 2414,
      "love": 2415,
      "##uity": 2416,
      "bro": 2417,
      "workflows": 2418,
      "motiv": 2419,
      "even": 2420,
      "inclusion": 2421,
      "Trans": 2422,
      "##aim": 2423,
      "##aning": 2424,
      "Reg": 2425,
      "coordin": 2426,
      "Inter": 2427,
      "contribute": 2428,
      "lifecycle": 2429,
      "determin": 2430,
      "road": 2431,
      "abilities": 2432,
      "##ackend": 2433,
      "specifications": 2434,
      "Tableau": 2435,
      "##uration": 2436,
      "refer": 2437,
      "##ved": 2438,
      "emerg": 2439,
      "Proven": 2440,
      "Virginia": 2441,
      "MS": 2442,
      "dev": 2443,
      "##onal": 2444,
      "Professional": 2445,
      "##ired": 2446,
      "sec": 2447,
      "50": 2448,
      "Join": 2449,
      "talented": 2450,
      "Conduct": 2451,
      "social": 2452,
      "inst": 2453,
      "everyone": 2454,
      "EEO": 2455,
      "execution": 2456,
      "18": 2457,
      "Al": 2458,
      "architect": 2459,
      "Ventures": 2460,
      "changes": 2461,
      "##cc": 2462,
      "start": 2463,
      "##oad": 2464,
      "##Now": 2465,
      "##iples": 2466,
      "website": 2467,
      "Operations": 2468,
      "virtual": 2469,
      "evaluate": 2470,
      "pat": 2471,
      "ServiceNow": 2472,
      "##oot": 2473,
      "ret": 2474,
      "##ercial": 2475,
      "##oring": 2476,
      "sit": 2477,
      "Rel": 2478,
      "reven": 2479,
      "11": 2480,
      "##ges": 2481,
      "several": 2482,
      "Main": 2483,
      "larg": 2484,
      "##lu": 2485,
      "travel": 2486,
      "month": 2487,
      "analyzing": 2488,
      "refl": 2489,
      "confid": 2490,
      "encourage": 2491,
      "Position": 2492,
      "##edia": 2493,
      "mi": 2494,
      "call": 2495,
      "##joy": 2496,
      "priorities": 2497,
      "approaches": 2498,
      "red": 2499,
      "Application": 2500,
      "mach": 2501,
      "##vision": 2502,
      "##tig": 2503,
      "levels": 2504,
      "dem": 2505,
      "again": 2506,
      "Role": 2507,
      "essential": 2508,
      "Ser": 2509,
      "search": 2510,
      "reim": 2511,
      "##porate": 2512,
      "##ticul": 2513,
      "##vious": 2514,
      "##thing": 2515,
      "Communic": 2516,
      "Over": 2517,
      "##ination": 2518,
      "scre": 2519,
      "dedic": 2520,
      "##mine": 2521,
      "##ories": 2522,
      "regulations": 2523,
      "##ton": 2524,
      "cho": 2525,
      "##ices": 2526,
      "physical": 2527,
      "##az": 2528,
      "const": 2529,
      "##ificant": 2530,
      "Intelligence": 2531,
      "algorithms": 2532,
      "##apid": 2533,
      "visit": 2534,
      "Eng": 2535,
      "discriminate": 2536,
      "City": 2537,
      "##SQL": 2538,
      "requires": 2539,
      "##bur": 2540,
      "place": 2541,
      "consulting": 2542,
      "##CP": 2543,
      "thinking": 2544,
      "participate": 2545,
      "guidance": 2546,
      "Department": 2547,
      "num": 2548,
      "structured": 2549,
      "discipline": 2550,
      "edge": 2551,
      "##xim": 2552,
      "##osystem": 2553,
      "##ounts": 2554,
      "passionate": 2555,
      "content": 2556,
      "##ministration": 2557,
      "safety": 2558,
      "components": 2559,
      "Particip": 2560,
      "count": 2561,
      "##EN": 2562,
      "setting": 2563,
      "Apply": 2564,
      "revenue": 2565,
      "##fine": 2566,
      "Candid": 2567,
      "citizenship": 2568,
      "principles": 2569,
      "Custom": 2570,
      "important": 2571,
      "machines": 2572,
      "##16": 2573,
      "regulatory": 2574,
      "repres": 2575,
      "makes": 2576,
      "##atively": 2577,
      "lay": 2578,
      "Monitor": 2579,
      "prefer": 2580,
      "discre": 2581,
      "##etes": 2582,
      "##fort": 2583,
      "inves": 2584,
      "legally": 2585,
      "Sol": 2586,
      "mental": 2587,
      "##sel": 2588,
      "many": 2589,
      "ecosystem": 2590,
      "DF": 2591,
      "##ecting": 2592,
      "willing": 2593,
      "##ectr": 2594,
      "applied": 2595,
      "obtain": 2596,
      "ban": 2597,
      "hand": 2598,
      "premier": 2599,
      "##fore": 2600,
      "analyses": 2601,
      "driving": 2602,
      "cy": 2603,
      "##mar": 2604,
      "spend": 2605,
      "fully": 2606,
      "##eness": 2607,
      "##TO": 2608,
      "##iger": 2609,
      "cases": 2610,
      "operating": 2611,
      "rapid": 2612,
      "##peed": 2613,
      "bi": 2614,
      "##VI": 2615,
      "##SS": 2616,
      "libr": 2617,
      "bal": 2618,
      "##amp": 2619,
      "Compensation": 2620,
      "Research": 2621,
      "transformation": 2622,
      "##ensor": 2623,
      "positions": 2624,
      "associated": 2625,
      "Analyz": 2626,
      "agency": 2627,
      "run": 2628,
      "oriented": 2629,
      "Accel": 2630,
      "imm": 2631,
      "##tirement": 2632,
      "##raf": 2633,
      "##urther": 2634,
      "##tificial": 2635,
      "Platform": 2636,
      "##roups": 2637,
      "throughout": 2638,
      "quanti": 2639,
      "Tiger": 2640,
      "governance": 2641,
      "##athematics": 2642,
      "800": 2643,
      "leaders": 2644,
      "broad": 2645,
      "performing": 2646,
      "bre": 2647,
      "##ted": 2648,
      "pattern": 2649,
      "emerging": 2650,
      "Sequ": 2651,
      "har": 2652,
      "##ector": 2653,
      "predic": 2654,
      "Bl": 2655,
      "integrity": 2656,
      "##sw": 2657,
      "Verify": 2658,
      "Basic": 2659,
      "##AL": 2660,
      "##irth": 2661,
      "##ada": 2662,
      "Federal": 2663,
      "made": 2664,
      "##ators": 2665,
      "log": 2666,
      "##ont": 2667,
      "##ily": 2668,
      "Maintain": 2669,
      "placing": 2670,
      "proven": 2671,
      "##cellence": 2672,
      "##acts": 2673,
      "expert": 2674,
      "Hybrid": 2675,
      "##nel": 2676,
      "datas": 2677,
      "Action": 2678,
      "Archit": 2679,
      "##map": 2680,
      "troublesh": 2681,
      "scope": 2682,
      "##enefit": 2683,
      "offered": 2684,
      "automated": 2685,
      "##oia": 2686,
      "##BI": 2687,
      "Eligi": 2688,
      "Sequoia": 2689,
      "Project": 2690,
      "expand": 2691,
      "fost": 2692,
      "attention": 2693,
      "deliverables": 2694,
      "general": 2695,
      "Lights": 2696,
      "provided": 2697,
      "Well": 2698,
      "##utting": 2699,
      "Applicants": 2700,
      "actionable": 2701,
      "Lightspeed": 2702,
      "25": 2703,
      "Us": 2704,
      "storage": 2705,
      "14": 2706,
      "Statis": 2707,
      "significant": 2708,
      "##ogle": 2709,
      "determine": 2710,
      "ambig": 2711,
      "##burse": 2712,
      "A16": 2713,
      "##hib": 2714,
      "DFJ": 2715,
      "A16Z": 2716,
      "##AR": 2717,
      "##iences": 2718,
      "##ney": 2719,
      "Disability": 2720,
      "High": 2721,
      "ent": 2722,
      "perspec": 2723,
      "Google": 2724,
      "Code": 2725,
      "##ably": 2726,
      "live": 2727,
      "along": 2728,
      "Scienti": 2729,
      "Advanced": 2730,
      "Kub": 2731,
      "##oing": 2732,
      "Analysis": 2733,
      "##Script": 2734,
      "progress": 2735,
      "roadmap": 2736,
      "Pur": 2737,
      "influ": 2738,
      "##otypes": 2739,
      "##lexibility": 2740,
      "serving": 2741,
      "Git": 2742,
      "exceptional": 2743,
      "##agues": 2744,
      "incentive": 2745,
      "##arter": 2746,
      "hands": 2747,
      "intern": 2748,
      "interpre": 2749,
      "developers": 2750,
      "CV": 2751,
      "##akes": 2752,
      "Polic": 2753,
      "meaning": 2754,
      "scientists": 2755,
      "Financial": 2756,
      "##ceed": 2757,
      "overall": 2758,
      "meetings": 2759,
      "People": 2760,
      "RE": 2761,
      "thrive": 2762,
      "agile": 2763,
      "SD": 2764,
      "##ature": 2765,
      "##sions": 2766,
      "depending": 2767,
      "accuracy": 2768,
      "certifications": 2769,
      "##ER": 2770,
      "##ernetes": 2771,
      "Phil": 2772,
      "Careers": 2773,
      "Imple": 2774,
      "Clear": 2775,
      "##aun": 2776,
      "##SA": 2777,
      "##tenance": 2778,
      "agencies": 2779,
      "Sum": 2780,
      "dedicated": 2781,
      "discretion": 2782,
      "30": 2783,
      "Direc": 2784,
      "lives": 2785,
      "asp": 2786,
      "applicant": 2787,
      "##ances": 2788,
      "behavi": 2789,
      "##jor": 2790,
      "##orth": 2791,
      "analysts": 2792,
      "feel": 2793,
      "USD": 2794,
      "commercial": 2795,
      "ideal": 2796,
      "department": 2797,
      "week": 2798,
      "motivated": 2799,
      "patterns": 2800,
      "port": 2801,
      "send": 2802,
      "incre": 2803,
      "Use": 2804,
      "##ik": 2805,
      "##ancing": 2806,
      "facilit": 2807,
      "Kubernetes": 2808,
      "##ficient": 2809,
      "identifying": 2810,
      "colleagues": 2811,
      "order": 2812,
      "functionality": 2813,
      "reviews": 2814,
      "##tative": 2815,
      "documents": 2816,
      "datasets": 2817,
      "##ways": 2818,
      "stream": 2819,
      "answ": 2820,
      "requests": 2821,
      "Ensure": 2822,
      "##aking": 2823,
      "authorized": 2824,
      "less": 2825,
      "##ird": 2826,
      "##bed": 2827,
      "vend": 2828,
      "##urn": 2829,
      "forward": 2830,
      "investig": 2831,
      "further": 2832,
      "##ling": 2833,
      "##ulation": 2834,
      "possess": 2835,
      "##SI": 2836,
      "Rev": 2837,
      "defin": 2838,
      "Fair": 2839,
      "dead": 2840,
      "Contract": 2841,
      "Autom": 2842,
      "Boo": 2843,
      "##ator": 2844,
      "minds": 2845,
      "##fulness": 2846,
      "##park": 2847,
      "Group": 2848,
      "integrate": 2849,
      "Finance": 2850,
      "backend": 2851,
      "##birth": 2852,
      "prof": 2853,
      "claim": 2854,
      "Repor": 2855,
      "coverage": 2856,
      "Have": 2857,
      "Allen": 2858,
      "laun": 2859,
      "##elines": 2860,
      "robust": 2861,
      "childbirth": 2862,
      "integrated": 2863,
      "##personal": 2864,
      "##up": 2865,
      "deploying": 2866,
      "Booz": 2867,
      "Tensor": 2868,
      "##otely": 2869,
      "##estry": 2870,
      "##ourney": 2871,
      "##aged": 2872,
      "experts": 2873,
      "party": 2874,
      "##ength": 2875,
      "could": 2876,
      "##ood": 2877,
      "##elling": 2878,
      "above": 2879,
      "conduct": 2880,
      "capital": 2881,
      "##ral": 2882,
      "maintenance": 2883,
      "detailed": 2884,
      "quantitative": 2885,
      "##low": 2886,
      "reach": 2887,
      "##ification": 2888,
      "maxim": 2889,
      "Manage": 2890,
      "Col": 2891,
      "Understanding": 2892,
      "cutting": 2893,
      "Sp": 2894,
      "##tified": 2895,
      "basic": 2896,
      "against": 2897,
      "##bursement": 2898,
      "think": 2899,
      "enjoy": 2900,
      "##pare": 2901,
      "##olving": 2902,
      "timely": 2903,
      "major": 2904,
      "From": 2905,
      "##cestry": 2906,
      "fields": 2907,
      "##lines": 2908,
      "meaningful": 2909,
      "##empt": 2910,
      "resolve": 2911,
      "recruitment": 2912,
      "cod": 2913,
      "ways": 2914,
      "500": 2915,
      "##BA": 2916,
      "##ado": 2917,
      "Out": 2918,
      "vary": 2919,
      "exten": 2920,
      "characteristic": 2921,
      "groups": 2922,
      "recognized": 2923,
      "check": 2924,
      "Post": 2925,
      "America": 2926,
      "49": 2927,
      "##point": 2928,
      "often": 2929,
      "Govern": 2930,
      "creation": 2931,
      "remotely": 2932,
      "estim": 2933,
      "respect": 2934,
      "13": 2935,
      "Affirmative": 2936,
      "##igration": 2937,
      "interpersonal": 2938,
      "execute": 2939,
      "libraries": 2940,
      "vol": 2941,
      "##uch": 2942,
      "Customer": 2943,
      "benefit": 2944,
      "secure": 2945,
      "provider": 2946,
      "hired": 2947,
      "mind": 2948,
      "##eler": 2949,
      "interest": 2950,
      "improving": 2951,
      "eligibility": 2952,
      "successfully": 2953,
      "Langu": 2954,
      "challenging": 2955,
      "##icity": 2956,
      "##osp": 2957,
      "creative": 2958,
      "educ": 2959,
      "##iod": 2960,
      "workforce": 2961,
      "interf": 2962,
      "updates": 2963,
      "professionals": 2964,
      "##parency": 2965,
      "Solutions": 2966,
      "CVS": 2967,
      "Summary": 2968,
      "Red": 2969,
      "##duce": 2970,
      "##udge": 2971,
      "contain": 2972,
      "##rug": 2973,
      "ele": 2974,
      "##nership": 2975,
      "come": 2976,
      "third": 2977,
      "excellent": 2978,
      "continue": 2979,
      "And": 2980,
      "analytic": 2981,
      "##ounting": 2982,
      "improvements": 2983,
      "Veterans": 2984,
      "##sh": 2985,
      "##titude": 2986,
      "##OR": 2987,
      "##ither": 2988,
      "risks": 2989,
      "typ": 2990,
      "##esting": 2991,
      "##itle": 2992,
      "Sec": 2993,
      "rules": 2994,
      "authorization": 2995,
      "AD": 2996,
      "##izes": 2997,
      "sup": 2998,
      "Infrastructure": 2999,
      "let": 3000,
      "##ists": 3001,
      "ancestry": 3002,
      "fit": 3003,
      "line": 3004,
      "##fact": 3005,
      "##alk": 3006,
      "computing": 3007,
      "certification": 3008,
      "ethn": 3009,
      "PTO": 3010,
      "happ": 3011,
      "inqui": 3012,
      "Previous": 3013,
      "Enterprise": 3014,
      "Language": 3015,
      "posting": 3016,
      "rapidly": 3017,
      "May": 3018,
      "##put": 3019,
      "ambiguity": 3020,
      "deadlines": 3021,
      "att": 3022,
      "acceler": 3023,
      "details": 3024,
      "due": 3025,
      "##ux": 3026,
      "##ashing": 3027,
      "cle": 3028,
      "##ident": 3029,
      "econom": 3030,
      "piv": 3031,
      "according": 3032,
      "expectations": 3033,
      "arr": 3034,
      "Healthcare": 3035,
      "certain": 3036,
      "##fication": 3037,
      "format": 3038,
      "translate": 3039,
      "Off": 3040,
      "##erial": 3041,
      "Frid": 3042,
      "backgrounds": 3043,
      "productivity": 3044,
      "aut": 3045,
      "flexibility": 3046,
      "##ters": 3047,
      "artificial": 3048,
      "researchers": 3049,
      "Duties": 3050,
      "##oving": 3051,
      "contributions": 3052,
      "lat": 3053,
      "##gment": 3054,
      "##TA": 3055,
      "though": 3056,
      "Models": 3057,
      "##RA": 3058,
      "Resource": 3059,
      "networking": 3060,
      "physics": 3061,
      "##ashington": 3062,
      "##ease": 3063,
      "outside": 3064,
      "Washington": 3065,
      "tun": 3066,
      "##adata": 3067,
      "##ooting": 3068,
      "##ocker": 3069,
      "16": 3070,
      "##Flow": 3071,
      "##alaries": 3072,
      "energ": 3073,
      "Scientist": 3074,
      "either": 3075,
      "period": 3076,
      "##fortable": 3077,
      "Analyze": 3078,
      "offerings": 3079,
      "integrating": 3080,
      "things": 3081,
      "accurate": 3082,
      "Partner": 3083,
      "configuration": 3084,
      "Special": 3085,
      "Client": 3086,
      "expected": 3087,
      "Overview": 3088,
      "Pos": 3089,
      "hybrid": 3090,
      "##apt": 3091,
      "positive": 3092,
      "pe": 3093,
      "options": 3094,
      "excited": 3095,
      "##acle": 3096,
      "##ustain": 3097,
      "findings": 3098,
      "shar": 3099,
      "below": 3100,
      "facing": 3101,
      "discrimination": 3102,
      "drug": 3103,
      "##asting": 3104,
      "sponsorship": 3105,
      "group": 3106,
      "mob": 3107,
      "Competitive": 3108,
      "sur": 3109,
      "vi": 3110,
      "strength": 3111,
      "Contin": 3112,
      "##LP": 3113,
      "##own": 3114,
      "##iving": 3115,
      "discus": 3116,
      "##avings": 3117,
      "discretionary": 3118,
      "Mond": 3119,
      "##rum": 3120,
      "##arm": 3121,
      "cred": 3122,
      "pipeline": 3123,
      "Ev": 3124,
      "Human": 3125,
      "function": 3126,
      "mindset": 3127,
      "LLMs": 3128,
      "screens": 3129,
      "Friday": 3130,
      "Docu": 3131,
      "##overy": 3132,
      "resume": 3133,
      "inquiries": 3134,
      "Other": 3135,
      "Ter": 3136,
      "measure": 3137,
      "cour": 3138,
      "Oracle": 3139,
      "Center": 3140,
      "HR": 3141,
      "don": 3142,
      "##BM": 3143,
      "parental": 3144,
      "robots": 3145,
      "determined": 3146,
      "Spark": 3147,
      "Monday": 3148,
      "##aS": 3149,
      "proficiency": 3150,
      "##ructured": 3151,
      "##ening": 3152,
      "##sibility": 3153,
      "manual": 3154,
      "##ix": 3155,
      "Why": 3156,
      "When": 3157,
      "geographic": 3158,
      "before": 3159,
      "Works": 3160,
      "finance": 3161,
      "optimizing": 3162,
      "Docker": 3163,
      "##bers": 3164,
      "##book": 3165,
      "##ngoing": 3166,
      "excellence": 3167,
      "online": 3168,
      "engagement": 3169,
      "##uition": 3170,
      "energy": 3171,
      "Br": 3172,
      "##active": 3173,
      "practice": 3174,
      "consumer": 3175,
      "prioritize": 3176,
      "##EC": 3177,
      "Canada": 3178,
      "##fter": 3179,
      "embr": 3180,
      "Equity": 3181,
      "leveraging": 3182,
      "heart": 3183,
      "queries": 3184,
      "Candidates": 3185,
      "##fol": 3186,
      "banking": 3187,
      "##aaS": 3188,
      "Inst": 3189,
      "Statistics": 3190,
      "Public": 3191,
      "engage": 3192,
      "privacy": 3193,
      "Best": 3194,
      "##ele": 3195,
      "wellness": 3196,
      "Open": 3197,
      "cycle": 3198,
      "partnership": 3199,
      "communications": 3200,
      "Strateg": 3201,
      "balance": 3202,
      "retirement": 3203,
      "180": 3204,
      "Participate": 3205,
      "budge": 3206,
      "moving": 3207,
      "proper": 3208,
      "There": 3209,
      "nor": 3210,
      "##flow": 3211,
      "confirm": 3212,
      "Big": 3213,
      "actual": 3214,
      "builds": 3215,
      "journey": 3216,
      "##wide": 3217,
      "##ilt": 3218,
      "space": 3219,
      "RES": 3220,
      "schedule": 3221,
      "view": 3222,
      "##ging": 3223,
      "solely": 3224,
      "collaborating": 3225,
      "consult": 3226,
      "Mathematics": 3227,
      "Title": 3228,
      "sustain": 3229,
      "##ug": 3230,
      "##ank": 3231,
      "exempt": 3232,
      "confidential": 3233,
      "GCP": 3234,
      "##ious": 3235,
      "forec": 3236,
      "relational": 3237,
      "advis": 3238,
      "point": 3239,
      "##where": 3240,
      "##IT": 3241,
      "##itable": 3242,
      "rev": 3243,
      "networks": 3244,
      "concise": 3245,
      "characteristics": 3246,
      "##Point": 3247,
      "short": 3248,
      "participates": 3249,
      "submit": 3250,
      "##ct": 3251,
      "##atal": 3252,
      "produce": 3253,
      "deal": 3254,
      "allow": 3255,
      "foundational": 3256,
      "analyst": 3257,
      "industries": 3258,
      "clearance": 3259,
      "AN": 3260,
      "##structured": 3261,
      "Troublesh": 3262,
      "ongoing": 3263,
      "##ka": 3264,
      "##lock": 3265,
      "Key": 3266,
      "##OU": 3267,
      "##asing": 3268,
      "Review": 3269,
      "coding": 3270,
      "Here": 3271,
      "doc": 3272,
      "toward": 3273,
      "deb": 3274,
      "##artments": 3275,
      "predictive": 3276,
      "DB": 3277,
      "Face": 3278,
      "Lin": 3279,
      "##ored": 3280,
      "Marketing": 3281,
      "autonom": 3282,
      "unstructured": 3283,
      "TensorFlow": 3284,
      "why": 3285,
      "empowered": 3286,
      "satis": 3287,
      "##CATION": 3288,
      "Willing": 3289,
      "Law": 3290,
      "path": 3291,
      "worked": 3292,
      "chance": 3293,
      "amount": 3294,
      "transforming": 3295,
      "##go": 3296,
      "##IN": 3297,
      "guide": 3298,
      "history": 3299,
      "##ols": 3300,
      "##aints": 3301,
      "departments": 3302,
      "scripting": 3303,
      "perspectives": 3304,
      "Terra": 3305,
      "adop": 3306,
      "material": 3307,
      "JavaScript": 3308,
      "patient": 3309,
      "prohib": 3310,
      "##acting": 3311,
      "##echan": 3312,
      "creed": 3313,
      "generation": 3314,
      "SAS": 3315,
      "##ether": 3316,
      "prepar": 3317,
      "evaluation": 3318,
      "warehouse": 3319,
      "##uts": 3320,
      "Generative": 3321,
      "involve": 3322,
      "sched": 3323,
      "##mental": 3324,
      "401k": 3325,
      "terms": 3326,
      "thought": 3327,
      "Help": 3328,
      "Le": 3329,
      "cash": 3330,
      "reliable": 3331,
      "rang": 3332,
      "propos": 3333,
      "Area": 3334,
      "Terraform": 3335,
      "40": 3336,
      "Ow": 3337,
      "cal": 3338,
      "encouraged": 3339,
      "23": 3340,
      "Sel": 3341,
      "##CE": 3342,
      "##ised": 3343,
      "Leg": 3344,
      "always": 3345,
      "extr": 3346,
      "Account": 3347,
      "presentations": 3348,
      "utilizing": 3349,
      "##folio": 3350,
      "Up": 3351,
      "##repr": 3352,
      "compet": 3353,
      "legal": 3354,
      "Proficient": 3355,
      "##eneur": 3356,
      "gathering": 3357,
      "##repreneur": 3358,
      "patients": 3359,
      "Policy": 3360,
      "##atic": 3361,
      "##ping": 3362,
      "extent": 3363,
      "purs": 3364,
      "center": 3365,
      "insp": 3366,
      "Func": 3367,
      "##oming": 3368,
      "Associ": 3369,
      "troubleshooting": 3370,
      "Site": 3371,
      "iter": 3372,
      "sing": 3373,
      "##iles": 3374,
      "Web": 3375,
      "##elc": 3376,
      "gather": 3377,
      "ship": 3378,
      "providers": 3379,
      "vacc": 3380,
      "number": 3381,
      "Valu": 3382,
      "currently": 3383,
      "Understand": 3384,
      "Salesforce": 3385,
      "target": 3386,
      "Linux": 3387,
      "ear": 3388,
      "##actively": 3389,
      "depth": 3390,
      "descri": 3391,
      "2023": 3392,
      "##older": 3393,
      "controls": 3394,
      "layer": 3395,
      "talk": 3396,
      "win": 3397,
      "##ones": 3398,
      "##rier": 3399,
      "Founding": 3400,
      "aspects": 3401,
      "latest": 3402,
      "Large": 3403,
      "actively": 3404,
      "execu": 3405,
      "collection": 3406,
      "Consulting": 3407,
      "struct": 3408,
      "statistics": 3409,
      "built": 3410,
      "largest": 3411,
      "##ectron": 3412,
      "occ": 3413,
      "##icks": 3414,
      "##ular": 3415,
      "150": 3416,
      "behavior": 3417,
      "##aud": 3418,
      "##quisition": 3419,
      "ID": 3420,
      "enti": 3421,
      "Expertise": 3422,
      "devices": 3423,
      "Year": 3424,
      "##iev": 3425,
      "##ext": 3426,
      "stories": 3427,
      "##oph": 3428,
      "##aily": 3429,
      "presentation": 3430,
      "fulf": 3431,
      "situ": 3432,
      "Lab": 3433,
      "##izations": 3434,
      "helps": 3435,
      "Quality": 3436,
      "reimbursement": 3437,
      "interpret": 3438,
      "exam": 3439,
      "getting": 3440,
      "Certification": 3441,
      "single": 3442,
      "SO": 3443,
      "##MS": 3444,
      "##tune": 3445,
      "Cer": 3446,
      "VA": 3447,
      "entire": 3448,
      "##ferences": 3449,
      "practical": 3450,
      "Automation": 3451,
      "billions": 3452,
      "##gre": 3453,
      "equip": 3454,
      "goal": 3455,
      "keep": 3456,
      "minim": 3457,
      "oral": 3458,
      "Vis": 3459,
      "means": 3460,
      "seek": 3461,
      "##elebr": 3462,
      "##atalog": 3463,
      "strive": 3464,
      "det": 3465,
      "enabl": 3466,
      "submitted": 3467,
      "mechan": 3468,
      "##ili": 3469,
      "primary": 3470,
      "validation": 3471,
      "combination": 3472,
      "##roll": 3473,
      "##chest": 3474,
      "particul": 3475,
      "regular": 3476,
      "Facebook": 3477,
      "##eat": 3478,
      "mobile": 3479,
      "unit": 3480,
      "##ished": 3481,
      "Individual": 3482,
      "welc": 3483,
      "##umenting": 3484,
      "##rop": 3485,
      "everything": 3486,
      "Priv": 3487,
      "Prior": 3488,
      "page": 3489,
      "##ots": 3490,
      "states": 3491,
      "higher": 3492,
      "USA": 3493,
      "because": 3494,
      "Deep": 3495,
      "##ief": 3496,
      "alignment": 3497,
      "typical": 3498,
      "revolution": 3499,
      "Grow": 3500,
      "millions": 3501,
      "##MP": 3502,
      "Plaid": 3503,
      "choose": 3504,
      "140": 3505,
      "claims": 3506,
      "Reporting": 3507,
      "scientist": 3508,
      "How": 3509,
      "OR": 3510,
      "##enge": 3511,
      "celebr": 3512,
      "coach": 3513,
      "Fortune": 3514,
      "reality": 3515,
      "categ": 3516,
      "sch": 3517,
      "train": 3518,
      "interests": 3519,
      "defining": 3520,
      "Architect": 3521,
      "Network": 3522,
      "sti": 3523,
      "##ML": 3524,
      "##ater": 3525,
      "promo": 3526,
      "influence": 3527,
      "Digital": 3528,
      "HI": 3529,
      "tel": 3530,
      "Scal": 3531,
      "Snow": 3532,
      "architectures": 3533,
      "##holder": 3534,
      "##ufact": 3535,
      "adapt": 3536,
      "corporate": 3537,
      "link": 3538,
      "clust": 3539,
      "requirement": 3540,
      "times": 3541,
      "entrepreneur": 3542,
      "Day": 3543,
      "##flake": 3544,
      "Server": 3545,
      "constr": 3546,
      "app": 3547,
      "Director": 3548,
      "Engineers": 3549,
      "sector": 3550,
      "##ield": 3551,
      "classi": 3552,
      "acces": 3553,
      "reliability": 3554,
      "educational": 3555,
      "##DI": 3556,
      "doing": 3557,
      "##bricks": 3558,
      "##eadqu": 3559,
      "accordance": 3560,
      "Clearance": 3561,
      "##serv": 3562,
      "transfer": 3563,
      "Responsible": 3564,
      "trusted": 3565,
      "ethnicity": 3566,
      "low": 3567,
      "enabling": 3568,
      "##CS": 3569,
      "##iction": 3570,
      "tooling": 3571,
      "prototypes": 3572,
      "portfolio": 3573,
      "documenting": 3574,
      "Def": 3575,
      "facilitate": 3576,
      "Bay": 3577,
      "##ret": 3578,
      "Diversity": 3579,
      "advancements": 3580,
      "##antly": 3581,
      "Access": 3582,
      "##torch": 3583,
      "neural": 3584,
      "experi": 3585,
      "much": 3586,
      "side": 3587,
      "##icense": 3588,
      "##play": 3589,
      "Databricks": 3590,
      "Philip": 3591,
      "credit": 3592,
      "##idents": 3593,
      "spe": 3594,
      "App": 3595,
      "CR": 3596,
      "Stu": 3597,
      "resolution": 3598,
      "##istic": 3599,
      "designed": 3600,
      "events": 3601,
      "demonstrated": 3602,
      "Qu": 3603,
      "hoc": 3604,
      "##kin": 3605,
      "##work": 3606,
      "They": 3607,
      "Career": 3608,
      "Pytorch": 3609,
      "evolution": 3610,
      "##TIES": 3611,
      "matching": 3612,
      "become": 3613,
      "Snowflake": 3614,
      "IS": 3615,
      "Nice": 3616,
      "early": 3617,
      "##ective": 3618,
      "located": 3619,
      "Chance": 3620,
      "tracking": 3621,
      "Implement": 3622,
      "60": 3623,
      "eas": 3624,
      "##actions": 3625,
      "##ending": 3626,
      "succeed": 3627,
      "challenge": 3628,
      "break": 3629,
      "##IL": 3630,
      "audiences": 3631,
      "21": 3632,
      "after": 3633,
      "##unior": 3634,
      "international": 3635,
      "sharing": 3636,
      "##bersecurity": 3637,
      "IC": 3638,
      "##orough": 3639,
      "orchest": 3640,
      "Troubleshoot": 3641,
      "##OS": 3642,
      "common": 3643,
      "description": 3644,
      "demand": 3645,
      "constraints": 3646,
      "scalability": 3647,
      "##apping": 3648,
      "resumes": 3649,
      "201": 3650,
      "90": 3651,
      "Able": 3652,
      "vacation": 3653,
      "institu": 3654,
      "Eligibility": 3655,
      "autonomous": 3656,
      "Car": 3657,
      "comfortable": 3658,
      "##aps": 3659,
      "manager": 3660,
      "enhancements": 3661,
      "aid": 3662,
      "er": 3663,
      "Hands": 3664,
      "aptitude": 3665,
      "##utes": 3666,
      "##essions": 3667,
      "Real": 3668,
      "##ios": 3669,
      "##etary": 3670,
      "operate": 3671,
      "completion": 3672,
      "Demonstrates": 3673,
      "SAP": 3674,
      "Certified": 3675,
      "Leadership": 3676,
      "recognition": 3677,
      "histories": 3678,
      "Privacy": 3679,
      "min": 3680,
      "##tiveness": 3681,
      "##time": 3682,
      "Suc": 3683,
      "SaaS": 3684,
      "ra": 3685,
      "##int": 3686,
      "administration": 3687,
      "owning": 3688,
      "corre": 3689,
      "rou": 3690,
      "##iem": 3691,
      "##ery": 3692,
      "##ince": 3693,
      "##abled": 3694,
      "Administration": 3695,
      "among": 3696,
      "initiative": 3697,
      "centric": 3698,
      "vers": 3699,
      "##itizen": 3700,
      "##versee": 3701,
      "##iemens": 3702,
      "24": 3703,
      "ter": 3704,
      "##und": 3705,
      "towards": 3706,
      "uses": 3707,
      "collaboratively": 3708,
      "mentoring": 3709,
      "construc": 3710,
      "daily": 3711,
      "tw": 3712,
      "##ienced": 3713,
      "guidelines": 3714,
      "preferably": 3715,
      "Government": 3716,
      "##20": 3717,
      "supports": 3718,
      "regardless": 3719,
      "selected": 3720,
      "Provides": 3721,
      "Generous": 3722,
      "established": 3723,
      "QA": 3724,
      "aw": 3725,
      "camp": 3726,
      "##ium": 3727,
      "##LI": 3728,
      "##ticle": 3729,
      "transparency": 3730,
      "jobs": 3731,
      "tuning": 3732,
      "aff": 3733,
      "liter": 3734,
      "##pines": 3735,
      "##ism": 3736,
      "Recru": 3737,
      "defects": 3738,
      "independent": 3739,
      "Philippines": 3740,
      "##ponse": 3741,
      "veterans": 3742,
      "records": 3743,
      "Experienced": 3744,
      "Keep": 3745,
      "million": 3746,
      "##ST": 3747,
      "##CI": 3748,
      "adj": 3749,
      "##ediate": 3750,
      "query": 3751,
      "Evalu": 3752,
      "##encing": 3753,
      "payments": 3754,
      "Expert": 3755,
      "Success": 3756,
      "rate": 3757,
      "##Ap": 3758,
      "##ivision": 3759,
      "represent": 3760,
      "##DA": 3761,
      "whether": 3762,
      "observ": 3763,
      "condition": 3764,
      "##prietary": 3765,
      "country": 3766,
      "materials": 3767,
      "##reast": 3768,
      "##unte": 3769,
      "sum": 3770,
      "abreast": 3771,
      "Fac": 3772,
      "Now": 3773,
      "sick": 3774,
      "##inary": 3775,
      "Effec": 3776,
      "cr": 3777,
      "##urr": 3778,
      "##chase": 3779,
      "Develops": 3780,
      "PhD": 3781,
      "Article": 3782,
      "capitalone": 3783,
      "ranges": 3784,
      "Tod": 3785,
      "##los": 3786,
      "trad": 3787,
      "incentives": 3788,
      "budget": 3789,
      "700": 3790,
      "takes": 3791,
      "##ana": 3792,
      "extract": 3793,
      "perc": 3794,
      "structures": 3795,
      "Today": 3796,
      "whose": 3797,
      "Stay": 3798,
      "##ept": 3799,
      "finish": 3800,
      "scripts": 3801,
      "##asion": 3802,
      "##TS": 3803,
      "##reed": 3804,
      "##ucting": 3805,
      "active": 3806,
      "media": 3807,
      "##DB": 3808,
      "Infor": 3809,
      "countries": 3810,
      "Detail": 3811,
      "Top": 3812,
      "Util": 3813,
      "case": 3814,
      "micro": 3815,
      "highest": 3816,
      "err": 3817,
      "Drive": 3818,
      "salaries": 3819,
      "##ocate": 3820,
      "demonstrate": 3821,
      "Consult": 3822,
      "earn": 3823,
      "Cy": 3824,
      "proprietary": 3825,
      "##ples": 3826,
      "assurance": 3827,
      "invol": 3828,
      "award": 3829,
      "Veteran": 3830,
      "250": 3831,
      "##be": 3832,
      "##OB": 3833,
      "##ites": 3834,
      "performed": 3835,
      "feature": 3836,
      "Statement": 3837,
      "container": 3838,
      "Deliver": 3839,
      "catalog": 3840,
      "prepare": 3841,
      "exciting": 3842,
      "developer": 3843,
      "skilled": 3844,
      "too": 3845,
      "release": 3846,
      "points": 3847,
      "vendors": 3848,
      "Is": 3849,
      "##iling": 3850,
      "##ache": 3851,
      "Consi": 3852,
      "especial": 3853,
      "II": 3854,
      "Term": 3855,
      "cop": 3856,
      "##ientific": 3857,
      "Define": 3858,
      "especially": 3859,
      "##ises": 3860,
      "Values": 3861,
      "Develo": 3862,
      "##acity": 3863,
      "scaling": 3864,
      "electron": 3865,
      "GP": 3866,
      "gov": 3867,
      "##faction": 3868,
      "threat": 3869,
      "##gender": 3870,
      "##ministr": 3871,
      "study": 3872,
      "cyber": 3873,
      "foster": 3874,
      "savings": 3875,
      "##itig": 3876,
      "approved": 3877,
      "simple": 3878,
      "##afka": 3879,
      "investigation": 3880,
      "Base": 3881,
      "Bonus": 3882,
      "Kafka": 3883,
      "##ME": 3884,
      "transgender": 3885,
      "accepted": 3886,
      "formats": 3887,
      "75": 3888,
      "NLP": 3889,
      "##nos": 3890,
      "##SP": 3891,
      "##erce": 3892,
      "pros": 3893,
      "##ounds": 3894,
      "automate": 3895,
      "Good": 3896,
      "Color": 3897,
      "KPI": 3898,
      "Siemens": 3899,
      "affirmative": 3900,
      "give": 3901,
      "stay": 3902,
      "equitable": 3903,
      "param": 3904,
      "launch": 3905,
      "Ris": 3906,
      "letter": 3907,
      "Scrum": 3908,
      "subs": 3909,
      "very": 3910,
      "Redsh": 3911,
      "Redshift": 3912,
      "Mess": 3913,
      "SF": 3914,
      "Word": 3915,
      "done": 3916,
      "manip": 3917,
      "domains": 3918,
      "VEC": 3919,
      "##agram": 3920,
      "##otes": 3921,
      "effectiveness": 3922,
      "associates": 3923,
      "Wr": 3924,
      "Travel": 3925,
      "bringing": 3926,
      "Bi": 3927,
      "Home": 3928,
      "##ensi": 3929,
      "##ension": 3930,
      "anywhere": 3931,
      "regularly": 3932,
      "Applications": 3933,
      "Possess": 3934,
      "22": 3935,
      "simpl": 3936,
      "optimal": 3937,
      "##VID": 3938,
      "Instagram": 3939,
      "literature": 3940,
      "designs": 3941,
      "dependent": 3942,
      "workflow": 3943,
      "extensive": 3944,
      "debug": 3945,
      "Scala": 3946,
      "ER": 3947,
      "sessions": 3948,
      "##gest": 3949,
      "thorough": 3950,
      "packages": 3951,
      "##selves": 3952,
      "ready": 3953,
      "##ufacturing": 3954,
      "General": 3955,
      "then": 3956,
      "##ections": 3957,
      "##owers": 3958,
      "##otal": 3959,
      "##process": 3960,
      "##MO": 3961,
      "These": 3962,
      "##scal": 3963,
      "accelerate": 3964,
      "Core": 3965,
      "NO": 3966,
      "##over": 3967,
      "anticip": 3968,
      "availability": 3969,
      "generous": 3970,
      "shared": 3971,
      "Coordin": 3972,
      "estimate": 3973,
      "##riend": 3974,
      "accounting": 3975,
      "endpoint": 3976,
      "methodology": 3977,
      "continuously": 3978,
      "Princ": 3979,
      "Assistance": 3980,
      "type": 3981,
      "##ush": 3982,
      "##board": 3983,
      "Pres": 3984,
      "COVID": 3985,
      "Outstanding": 3986,
      "lo": 3987,
      "##IF": 3988,
      "##ually": 3989,
      "integrations": 3990,
      "Organ": 3991,
      "grad": 3992,
      "adoption": 3993,
      "Facilit": 3994,
      "Cri": 3995,
      "##ompl": 3996,
      "matters": 3997,
      "Amaz": 3998,
      "AND": 3999,
      "revolutionize": 4000,
      "draf": 4001,
      "##UAL": 4002,
      "ask": 4003,
      "assets": 4004,
      "##ideo": 4005,
      "visualizations": 4006,
      "Engl": 4007,
      "owners": 4008,
      "Phys": 4009,
      "running": 4010,
      "happy": 4011,
      "equipment": 4012,
      "Pers": 4013,
      "##ool": 4014,
      "##rial": 4015,
      "altern": 4016,
      "##elligent": 4017,
      "respond": 4018,
      "Coll": 4019,
      "##ef": 4020,
      "##ications": 4021,
      "Datab": 4022,
      "Atl": 4023,
      "cybersecurity": 4024,
      "Colorado": 4025,
      "Bec": 4026,
      "scientific": 4027,
      "focusing": 4028,
      "difference": 4029,
      "clearly": 4030,
      "interested": 4031,
      "interfaces": 4032,
      "supply": 4033,
      "discussions": 4034,
      "English": 4035,
      "Ep": 4036,
      "Medic": 4037,
      "mess": 4038,
      "audit": 4039,
      "mapping": 4040,
      "Air": 4041,
      "mitig": 4042,
      "##res": 4043,
      "##DS": 4044,
      "three": 4045,
      "Jobs": 4046,
      "limits": 4047,
      "task": 4048,
      "situations": 4049,
      "Great": 4050,
      "SS": 4051,
      "agree": 4052,
      "tuition": 4053,
      "scales": 4054,
      "Apps": 4055,
      "insight": 4056,
      "Dri": 4057,
      "##isc": 4058,
      "accounts": 4059,
      "joining": 4060,
      "##fford": 4061,
      "##ospital": 4062,
      "26": 4063,
      "stere": 4064,
      "step": 4065,
      "modify": 4066,
      "evolving": 4067,
      "look": 4068,
      "Agency": 4069,
      "SDK": 4070,
      "FMs": 4071,
      "##uth": 4072,
      "##thes": 4073,
      "stock": 4074,
      "##eters": 4075,
      "Sup": 4076,
      "distance": 4077,
      "migration": 4078,
      "stakeholder": 4079,
      "fraud": 4080,
      "warehousing": 4081,
      "Integration": 4082,
      "Continuous": 4083,
      "17": 4084,
      "600": 4085,
      "soci": 4086,
      "##LE": 4087,
      "advant": 4088,
      "desired": 4089,
      "Hiring": 4090,
      "##atural": 4091,
      "proof": 4092,
      "scrap": 4093,
      "Engage": 4094,
      "End": 4095,
      "RPA": 4096,
      "Exec": 4097,
      "units": 4098,
      "##sight": 4099,
      "maximum": 4100,
      "afford": 4101,
      "##Health": 4102,
      "##UI": 4103,
      "##vey": 4104,
      "##astic": 4105,
      "stage": 4106,
      "accompl": 4107,
      "uns": 4108,
      "Together": 4109,
      "##gmented": 4110,
      "Years": 4111,
      "##App": 4112,
      "Essential": 4113,
      "##ian": 4114,
      "##ison": 4115,
      "annually": 4116,
      "##AM": 4117,
      "powered": 4118,
      "two": 4119,
      "By": 4120,
      "Back": 4121,
      "Sub": 4122,
      "fine": 4123,
      "types": 4124,
      "##wc": 4125,
      "##arant": 4126,
      "##icens": 4127,
      "##tery": 4128,
      "Compl": 4129,
      "leads": 4130,
      "supported": 4131,
      "##enger": 4132,
      "offices": 4133,
      "Inclu": 4134,
      "Certificate": 4135,
      "mentor": 4136,
      "Eligible": 4137,
      "pwc": 4138,
      "close": 4139,
      "University": 4140,
      "markets": 4141,
      "startups": 4142,
      "PowerPoint": 4143,
      "reduce": 4144,
      "PH": 4145,
      "fly": 4146,
      "gain": 4147,
      "##raw": 4148,
      "Innov": 4149,
      "intelligent": 4150,
      "personnel": 4151,
      "defined": 4152,
      "Leave": 4153,
      "300": 4154,
      "Gov": 4155,
      "##eline": 4156,
      "##ising": 4157,
      "##tingu": 4158,
      "##ulner": 4159,
      "chain": 4160,
      "Resources": 4161,
      "managed": 4162,
      "annualized": 4163,
      "carrier": 4164,
      "##bedd": 4165,
      "orchestration": 4166,
      "mone": 4167,
      "syn": 4168,
      "treat": 4169,
      "turn": 4170,
      "story": 4171,
      "families": 4172,
      "Optim": 4173,
      "Secret": 4174,
      "Labs": 4175,
      "Risk": 4176,
      "Messenger": 4177,
      "seg": 4178,
      "provision": 4179,
      "##ewards": 4180,
      "asset": 4181,
      "supervision": 4182,
      "load": 4183,
      "##10": 4184,
      "##ined": 4185,
      "##ume": 4186,
      "Associate": 4187,
      "adjust": 4188,
      "parameters": 4189,
      "Amazon": 4190,
      "BS": 4191,
      "junior": 4192,
      "##hand": 4193,
      "##ption": 4194,
      "copy": 4195,
      "##AT": 4196,
      "##agine": 4197,
      "Any": 4198,
      "valuable": 4199,
      "##aves": 4200,
      "Communicate": 4201,
      "Gu": 4202,
      "Loc": 4203,
      "Oct": 4204,
      "##read": 4205,
      "ref": 4206,
      "##eamless": 4207,
      "Ann": 4208,
      "capacity": 4209,
      "strongly": 4210,
      "flows": 4211,
      "answer": 4212,
      "entities": 4213,
      "versed": 4214,
      "mining": 4215,
      "owner": 4216,
      "player": 4217,
      "##unteer": 4218,
      "##din": 4219,
      "##entic": 4220,
      "outstanding": 4221,
      "firsthand": 4222,
      "flow": 4223,
      "##iteria": 4224,
      "acceptance": 4225,
      "Cogn": 4226,
      "friend": 4227,
      "graph": 4228,
      "Intern": 4229,
      "contribut": 4230,
      "##issions": 4231,
      "belief": 4232,
      "metadata": 4233,
      "utilization": 4234,
      "monthly": 4235,
      "constantly": 4236,
      "##kins": 4237,
      "Developer": 4238,
      "IBM": 4239,
      "Ment": 4240,
      "seamless": 4241,
      "Place": 4242,
      "guarant": 4243,
      "selection": 4244,
      "investments": 4245,
      "explain": 4246,
      "CAD": 4247,
      "Bring": 4248,
      "tax": 4249,
      "taking": 4250,
      "##ders": 4251,
      "##LC": 4252,
      "private": 4253,
      "Legally": 4254,
      "S3": 4255,
      "ground": 4256,
      "##iag": 4257,
      "longstanding": 4258,
      "Contribute": 4259,
      "pivots": 4260,
      "scraping": 4261,
      "Net": 4262,
      "North": 4263,
      "down": 4264,
      "##sApp": 4265,
      "##fies": 4266,
      "##ker": 4267,
      "##ference": 4268,
      "##elivers": 4269,
      "WhatsApp": 4270,
      "401K": 4271,
      "Common": 4272,
      "efficiently": 4273,
      "increase": 4274,
      "Jen": 4275,
      "##aign": 4276,
      "reward": 4277,
      "backed": 4278,
      "##ions": 4279,
      "augmented": 4280,
      "someone": 4281,
      "effort": 4282,
      "Reality": 4283,
      "27": 4284,
      "Jack": 4285,
      "##other": 4286,
      "NoSQL": 4287,
      "##artered": 4288,
      "IN": 4289,
      "push": 4290,
      "##her": 4291,
      "##orrow": 4292,
      "##icing": 4293,
      "##ended": 4294,
      "phone": 4295,
      "Incen": 4296,
      "2022": 4297,
      "launched": 4298,
      "norm": 4299,
      "satisfaction": 4300,
      "Self": 4301,
      "percenti": 4302,
      "teamm": 4303,
      "changed": 4304,
      "percentile": 4305,
      "80": 4306,
      "Lever": 4307,
      "escal": 4308,
      "fill": 4309,
      "response": 4310,
      "front": 4311,
      "Trust": 4312,
      "immer": 4313,
      "vendor": 4314,
      "##tinguished": 4315,
      "Cap": 4316,
      "NY": 4317,
      "Zone": 4318,
      "##ulture": 4319,
      "##ived": 4320,
      "collect": 4321,
      "EX": 4322,
      "Mission": 4323,
      "fun": 4324,
      "##areness": 4325,
      "Parental": 4326,
      "##eadquartered": 4327,
      "Ec": 4328,
      "Level": 4329,
      "vulner": 4330,
      "##through": 4331,
      "worldwide": 4332,
      "robot": 4333,
      "foundation": 4334,
      "funding": 4335,
      "clean": 4336,
      "described": 4337,
      "Cir": 4338,
      "delivers": 4339,
      "##ansition": 4340,
      "##uty": 4341,
      "##umen": 4342,
      "Ansible": 4343,
      "version": 4344,
      "validate": 4345,
      "Solid": 4346,
      "fb": 4347,
      "##load": 4348,
      "another": 4349,
      "acquisition": 4350,
      "##imited": 4351,
      "presenting": 4352,
      "superv": 4353,
      "Individuals": 4354,
      "immersive": 4355,
      "##ars": 4356,
      "whole": 4357,
      "Training": 4358,
      "Me": 4359,
      "##AP": 4360,
      "begin": 4361,
      "suite": 4362,
      "brand": 4363,
      "enhancing": 4364,
      "Jenkins": 4365,
      "Gr": 4366,
      "Min": 4367,
      "Note": 4368,
      "discovery": 4369,
      "achiev": 4370,
      "assessments": 4371,
      "celebrate": 4372,
      "Princip": 4373,
      "400": 4374,
      "sensi": 4375,
      "tight": 4376,
      "fore": 4377,
      "##ames": 4378,
      "perm": 4379,
      "aided": 4380,
      "CC": 4381,
      "Tel": 4382,
      "##annel": 4383,
      "##ems": 4384,
      "onsite": 4385,
      "places": 4386,
      "valued": 4387,
      "retail": 4388,
      "represents": 4389,
      "harness": 4390,
      "sustainable": 4391,
      "Consultant": 4392,
      "religious": 4393,
      "##assment": 4394,
      "Impro": 4395,
      "consumers": 4396,
      "stereotypes": 4397,
      "##ler": 4398,
      "##MEN": 4399,
      "communicating": 4400,
      "Email": 4401,
      "Disc": 4402,
      "Distinguished": 4403,
      "economic": 4404,
      "criteria": 4405,
      "Types": 4406,
      "##esh": 4407,
      "conv": 4408,
      "develops": 4409,
      "accred": 4410,
      "transport": 4411,
      "coordinate": 4412,
      "advantage": 4413,
      "mail": 4414,
      "promotes": 4415,
      "assessment": 4416,
      "Indust": 4417,
      "##iosity": 4418,
      "Cash": 4419,
      "fa": 4420,
      "near": 4421,
      "conver": 4422,
      "Technologies": 4423,
      "fostering": 4424,
      "70": 4425,
      "BA": 4426,
      "video": 4427,
      "##lud": 4428,
      "##LT": 4429,
      "##amb": 4430,
      "reviewing": 4431,
      "utilize": 4432,
      "harassment": 4433,
      "welcome": 4434,
      "roll": 4435,
      "##65": 4436,
      "rewards": 4437,
      "##ouse": 4438,
      "protect": 4439,
      "Employees": 4440,
      "resourcefulness": 4441,
      "forecasting": 4442,
      "##LITIES": 4443,
      "##IFI": 4444,
      "society": 4445,
      "So": 4446,
      "Sch": 4447,
      "fail": 4448,
      "fair": 4449,
      "org": 4450,
      "interact": 4451,
      "invent": 4452,
      "Click": 4453,
      "2004": 4454,
      "##log": 4455,
      "##oli": 4456,
      "enables": 4457,
      "##iven": 4458,
      "identification": 4459,
      "conducting": 4460,
      "##BILITIES": 4461,
      "competencies": 4462,
      "mechanics": 4463,
      "National": 4464,
      "Will": 4465,
      "having": 4466,
      "thous": 4467,
      "##requ": 4468,
      "costs": 4469,
      "pharm": 4470,
      "Companies": 4471,
      "Performance": 4472,
      "Share": 4473,
      "schedules": 4474,
      "Fact": 4475,
      "##Hub": 4476,
      "##anent": 4477,
      "##adoop": 4478,
      "Resourcefulness": 4479,
      "Stud": 4480,
      "breakthrough": 4481,
      "KPIs": 4482,
      "Compliance": 4483,
      "##PC": 4484,
      "##asters": 4485,
      "Purview": 4486,
      "Specialist": 4487,
      "2D": 4488,
      "AR": 4489,
      "Hadoop": 4490,
      "was": 4491,
      "##hic": 4492,
      "##ecomm": 4493,
      "result": 4494,
      "accountability": 4495,
      "Foundation": 4496,
      "executive": 4497,
      "drafts": 4498,
      "##HS": 4499,
      "##wealth": 4500,
      "##IR": 4501,
      "##inic": 4502,
      "##vention": 4503,
      "Actively": 4504,
      "Conn": 4505,
      "##ourcing": 4506,
      "Commitment": 4507,
      "studies": 4508,
      "CAM": 4509,
      "##marily": 4510,
      "SDKs": 4511,
      "Commonwealth": 4512,
      "kept": 4513,
      "sense": 4514,
      "priority": 4515,
      "prohibited": 4516,
      "##és": 4517,
      "usage": 4518,
      "resil": 4519,
      "primarily": 4520,
      "capture": 4521,
      "promote": 4522,
      "##CATIONS": 4523,
      "accessible": 4524,
      "microprocess": 4525,
      "microprocessors": 4526,
      "License": 4527,
      "he": 4528,
      "##first": 4529,
      "##PM": 4530,
      "##ane": 4531,
      "refine": 4532,
      "apps": 4533,
      "##adem": 4534,
      "indic": 4535,
      "funda": 4536,
      "Performs": 4537,
      "component": 4538,
      "160": 4539,
      "##oma": 4540,
      "Apache": 4541,
      "phases": 4542,
      "##ARS": 4543,
      "occasion": 4544,
      "detection": 4545,
      "Num": 4546,
      "proactively": 4547,
      "protoc": 4548,
      "Focus": 4549,
      "More": 4550,
      "hold": 4551,
      "##each": 4552,
      "##da": 4553,
      "##aping": 4554,
      "Stock": 4555,
      "Prepare": 4556,
      "translating": 4557,
      "Econom": 4558,
      "Bank": 4559,
      "DE": 4560,
      "TH": 4561,
      "fax": 4562,
      "Stand": 4563,
      "protot": 4564,
      "participating": 4565,
      "Notice": 4566,
      "serves": 4567,
      "empowering": 4568,
      "particular": 4569,
      "QUAL": 4570,
      "Spec": 4571,
      "my": 4572,
      "mas": 4573,
      "vo": 4574,
      "##QUI": 4575,
      "##allel": 4576,
      "parties": 4577,
      "informed": 4578,
      "Regul": 4579,
      "##olitical": 4580,
      "YOU": 4581,
      "lines": 4582,
      "pass": 4583,
      "art": 4584,
      "articul": 4585,
      "##ords": 4586,
      "premium": 4587,
      "winning": 4588,
      "minimal": 4589,
      "DARS": 4590,
      "Hour": 4591,
      "Of": 4592,
      "craf": 4593,
      "##ativity": 4594,
      "stability": 4595,
      "manufacturing": 4596,
      "maintains": 4597,
      "Document": 4598,
      "partnerships": 4599,
      "DBVI": 4600,
      "1B": 4601,
      "Fl": 4602,
      "familiarity": 4603,
      "input": 4604,
      "##ira": 4605,
      "actions": 4606,
      "contribution": 4607,
      "REQUI": 4608,
      "engagements": 4609,
      "awareness": 4610,
      "Circle": 4611,
      "My": 4612,
      "se": 4613,
      "Come": 4614,
      "##ously": 4615,
      "MLOps": 4616,
      "Deploy": 4617,
      "continu": 4618,
      "Communication": 4619,
      "Cyber": 4620,
      "QUALIFI": 4621,
      "REQUIRE": 4622,
      "retain": 4623,
      "allows": 4624,
      "##fully": 4625,
      "authentic": 4626,
      "Recruitment": 4627,
      "friendly": 4628,
      "four": 4629,
      "varies": 4630,
      "##land": 4631,
      "act": 4632,
      "pursue": 4633,
      "GPU": 4634,
      "Gl": 4635,
      "cruc": 4636,
      "gaps": 4637,
      "##siv": 4638,
      "designers": 4639,
      "fuel": 4640,
      "desk": 4641,
      "coordination": 4642,
      "crucial": 4643,
      "Hen": 4644,
      "Long": 4645,
      "Mat": 4646,
      "dig": 4647,
      "native": 4648,
      "same": 4649,
      "##ager": 4650,
      "innovate": 4651,
      "entrepreneurial": 4652,
      "Henry": 4653,
      "##vent": 4654,
      "Inform": 4655,
      "Prot": 4656,
      "pride": 4657,
      "envision": 4658,
      "##exas": 4659,
      "delivered": 4660,
      "##avig": 4661,
      "write": 4662,
      "Imp": 4663,
      "elements": 4664,
      "peer": 4665,
      "nation": 4666,
      "brands": 4667,
      "assignments": 4668,
      "recruiter": 4669,
      "instruc": 4670,
      "awards": 4671,
      "select": 4672,
      "Managers": 4673,
      "Being": 4674,
      "##arterly": 4675,
      "labor": 4676,
      "medi": 4677,
      "##ket": 4678,
      "##izio": 4679,
      "click": 4680,
      "verify": 4681,
      "desire": 4682,
      "profit": 4683,
      "REST": 4684,
      "Consider": 4685,
      "DC": 4686,
      "Ob": 4687,
      "Wik": 4688,
      "tem": 4689,
      "Exam": 4690,
      "supportive": 4691,
      "organize": 4692,
      "collective": 4693,
      "documented": 4694,
      "##assian": 4695,
      "roadmaps": 4696,
      "massive": 4697,
      "QUALIFICATIONS": 4698,
      "First": 4699,
      "##yle": 4700,
      "That": 4701,
      "starter": 4702,
      "Supporting": 4703,
      "reflect": 4704,
      "##self": 4705,
      "classification": 4706,
      "Epic": 4707,
      "accomplish": 4708,
      "guarantee": 4709,
      "Know": 4710,
      "MA": 4711,
      "given": 4712,
      "master": 4713,
      "tac": 4714,
      "tra": 4715,
      "fulfill": 4716,
      "campaign": 4717,
      "Culture": 4718,
      "Eu": 4719,
      "##ench": 4720,
      "isn": 4721,
      "Exp": 4722,
      "yourself": 4723,
      "agreed": 4724,
      "##ommodation": 4725,
      "curiosity": 4726,
      "transformative": 4727,
      "##rope": 4728,
      "clusters": 4729,
      "Europe": 4730,
      "Establish": 4731,
      "Masters": 4732,
      "Texas": 4733,
      "oversee": 4734,
      "put": 4735,
      "##itional": 4736,
      "unlock": 4737,
      "Accounting": 4738,
      "explor": 4739,
      "students": 4740,
      "Candidate": 4741,
      "alongside": 4742,
      "internet": 4743,
      "peers": 4744,
      "Tw": 4745,
      "jud": 4746,
      "##ltim": 4747,
      "##usi": 4748,
      "##ID": 4749,
      "##thusi": 4750,
      "Exceptional": 4751,
      "clar": 4752,
      "funds": 4753,
      "Form": 4754,
      "Additionally": 4755,
      "contributing": 4756,
      "Direct": 4757,
      "inventory": 4758,
      "Fu": 4759,
      "hospital": 4760,
      "##PSS": 4761,
      "##enture": 4762,
      "##omen": 4763,
      "beh": 4764,
      "capability": 4765,
      "spending": 4766,
      "##MOTE": 4767,
      "King": 4768,
      "timelines": 4769,
      "speed": 4770,
      "##ribution": 4771,
      "parts": 4772,
      "payment": 4773,
      "##olicited": 4774,
      "Super": 4775,
      "weeks": 4776,
      "embrace": 4777,
      "Bro": 4778,
      "Jira": 4779,
      "Mo": 4780,
      "Not": 4781,
      "del": 4782,
      "face": 4783,
      "table": 4784,
      "scen": 4785,
      "consistently": 4786,
      "reflected": 4787,
      "handle": 4788,
      "GitHub": 4789,
      "involved": 4790,
      "Every": 4791,
      "##roid": 4792,
      "conferences": 4793,
      "##iploma": 4794,
      "reimagine": 4795,
      "troubleshoot": 4796,
      "Android": 4797,
      "Visual": 4798,
      "unsolicited": 4799,
      "teammates": 4800,
      "Passion": 4801,
      "Wind": 4802,
      "##SE": 4803,
      "proactive": 4804,
      "##tica": 4805,
      "##ops": 4806,
      "##ifically": 4807,
      "Conf": 4808,
      "expos": 4809,
      "audience": 4810,
      "Serve": 4811,
      "REMOTE": 4812,
      "iS": 4813,
      "soph": 4814,
      "##dom": 4815,
      "##CR": 4816,
      "##alking": 4817,
      "inges": 4818,
      "solid": 4819,
      "interactions": 4820,
      "##iagram": 4821,
      "##uestion": 4822,
      "protection": 4823,
      "offering": 4824,
      "Principal": 4825,
      "PR": 4826,
      "billion": 4827,
      "##atics": 4828,
      "##way": 4829,
      "disru": 4830,
      "##front": 4831,
      "remain": 4832,
      "discover": 4833,
      "however": 4834,
      "starting": 4835,
      "Corporate": 4836,
      "Fost": 4837,
      "Pin": 4838,
      "VR": 4839,
      "##reen": 4840,
      "##ann": 4841,
      "workload": 4842,
      "##umb": 4843,
      "investment": 4844,
      "formal": 4845,
      "Primary": 4846,
      "Certifications": 4847,
      "Processing": 4848,
      "extraction": 4849,
      "coaching": 4850,
      "55": 4851,
      "Auth": 4852,
      "Del": 4853,
      "##tech": 4854,
      "##inated": 4855,
      "ste": 4856,
      "embedd": 4857,
      "press": 4858,
      "Reason": 4859,
      "final": 4860,
      "globally": 4861,
      "update": 4862,
      "Partners": 4863,
      "Assess": 4864,
      "months": 4865,
      "Wellness": 4866,
      "entry": 4867,
      "sophistic": 4868,
      "Warehous": 4869,
      "##owc": 4870,
      "root": 4871,
      "drives": 4872,
      "curious": 4873,
      "Perks": 4874,
      "owned": 4875,
      "something": 4876,
      "Control": 4877,
      "##ectrical": 4878,
      "forecast": 4879,
      "preparing": 4880,
      "mathematics": 4881,
      "##oDB": 4882,
      "##PON": 4883,
      "##igr": 4884,
      "##eph": 4885,
      "##pective": 4886,
      "uniquely": 4887,
      "proposals": 4888,
      "Vol": 4889,
      "mac": 4890,
      "natural": 4891,
      "##ugh": 4892,
      "tough": 4893,
      "Exten": 4894,
      "developed": 4895,
      "Read": 4896,
      "unless": 4897,
      "discount": 4898,
      "Ensur": 4899,
      "differences": 4900,
      "generate": 4901,
      "sophisticated": 4902,
      "Aff": 4903,
      "diag": 4904,
      "##LS": 4905,
      "pricing": 4906,
      "fix": 4907,
      "While": 4908,
      "Metadata": 4909,
      "grade": 4910,
      "Blue": 4911,
      "Gink": 4912,
      "##ians": 4913,
      "##99": 4914,
      "##izant": 4915,
      "channel": 4916,
      "Requ": 4917,
      "creativity": 4918,
      "Demonstrate": 4919,
      "architectural": 4920,
      "##eatz": 4921,
      "Physical": 4922,
      "Airflow": 4923,
      "Ginkgo": 4924,
      "Question": 4925,
      "competi": 4926,
      "recovery": 4927,
      "evaluating": 4928,
      "coordinating": 4929,
      "Governance": 4930,
      "judgment": 4931,
      "##limited": 4932,
      "Insigh": 4933,
      "Retirement": 4934,
      "##lobe": 4935,
      "connected": 4936,
      "PowerBI": 4937,
      "Only": 4938,
      "raised": 4939,
      "termin": 4940,
      "Economics": 4941,
      "Kingdom": 4942,
      "scenari": 4943,
      "Insights": 4944,
      "Educ": 4945,
      "aim": 4946,
      "diagram": 4947,
      "pa": 4948,
      "##oupl": 4949,
      "##stream": 4950,
      "Supports": 4951,
      "Strategy": 4952,
      "Vi": 4953,
      "##hia": 4954,
      "##lik": 4955,
      "##erves": 4956,
      "healthy": 4957,
      "uphold": 4958,
      "specialized": 4959,
      "Write": 4960,
      "Windows": 4961,
      "Citizen": 4962,
      "Field": 4963,
      "navig": 4964,
      "tail": 4965,
      "tables": 4966,
      "##imedia": 4967,
      "##adelp": 4968,
      "dee": 4969,
      "Inizio": 4970,
      "quarterly": 4971,
      "##iplinary": 4972,
      "checks": 4973,
      "promotion": 4974,
      "##adelphia": 4975,
      "led": 4976,
      "licens": 4977,
      "pi": 4978,
      "##eting": 4979,
      "##ons": 4980,
      "competing": 4981,
      "teamwork": 4982,
      "Desired": 4983,
      "still": 4984,
      "Details": 4985,
      "conviction": 4986,
      "Extensive": 4987,
      "Saf": 4988,
      "pop": 4989,
      "teach": 4990,
      "##eases": 4991,
      "##disc": 4992,
      "##uate": 4993,
      "##iencies": 4994,
      "creatively": 4995,
      "Transparency": 4996,
      "RESPON": 4997,
      "electronic": 4998,
      "##oupled": 4999,
      "##disciplinary": 5000,
      "Lake": 5001,
      "##AN": 5002,
      "##asual": 5003,
      "incor": 5004,
      "included": 5005,
      "concept": 5006,
      "concern": 5007,
      "prioritization": 5008,
      "Coordinate": 5009,
      "##dinance": 5010,
      "accredited": 5011,
      "Water": 5012,
      "cause": 5013,
      "tri": 5014,
      "zone": 5015,
      "##jects": 5016,
      "##ict": 5017,
      "perf": 5018,
      "##tically": 5019,
      "region": 5020,
      "Healthfirst": 5021,
      "faster": 5022,
      "120": 5023,
      "buy": 5024,
      "##azing": 5025,
      "##nostic": 5026,
      "Because": 5027,
      "Incentives": 5028,
      "Improve": 5029,
      "Tech": 5030,
      "##off": 5031,
      "Qualified": 5032,
      "approv": 5033,
      "cult": 5034,
      "aligned": 5035,
      "##airs": 5036,
      "targets": 5037,
      "reflects": 5038,
      "transportation": 5039,
      "civ": 5040,
      "gives": 5041,
      "##ott": 5042,
      "explore": 5043,
      "Corp": 5044,
      "vehic": 5045,
      "broader": 5046,
      "perspective": 5047,
      "Philadelphia": 5048,
      "RESPONSI": 5049,
      "Take": 5050,
      "coupled": 5051,
      "##head": 5052,
      "transition": 5053,
      "display": 5054,
      "##orse": 5055,
      "items": 5056,
      "completed": 5057,
      "LLM": 5058,
      "easily": 5059,
      "Sm": 5060,
      "TO": 5061,
      "##UM": 5062,
      "prop": 5063,
      "React": 5064,
      "##ultane": 5065,
      "protocols": 5066,
      "medium": 5067,
      "##eck": 5068,
      "##grad": 5069,
      "##sisting": 5070,
      "Short": 5071,
      "Reports": 5072,
      "Functions": 5073,
      "debugging": 5074,
      "ES": 5075,
      "NE": 5076,
      "kind": 5077,
      "sem": 5078,
      "##reening": 5079,
      "aler": 5080,
      "inters": 5081,
      "administr": 5082,
      "Screening": 5083,
      "304": 5084,
      "behaviors": 5085,
      "sensitive": 5086,
      "Reasonable": 5087,
      "PO": 5088,
      "zones": 5089,
      "##rec": 5090,
      "sure": 5091,
      "specifically": 5092,
      "simultane": 5093,
      "Commission": 5094,
      "firms": 5095,
      "safe": 5096,
      "mentorship": 5097,
      "DoD": 5098,
      "Number": 5099,
      "Wikimedia": 5100,
      "Examples": 5101,
      "Qlik": 5102,
      "Skill": 5103,
      "hon": 5104,
      "past": 5105,
      "##top": 5106,
      "regr": 5107,
      "executing": 5108,
      "##cover": 5109,
      "traditional": 5110,
      "refers": 5111,
      "##ltimately": 5112,
      "exposure": 5113,
      "steps": 5114,
      "Match": 5115,
      "lia": 5116,
      "venture": 5117,
      "##Sh": 5118,
      "##ale": 5119,
      "##iver": 5120,
      "commit": 5121,
      "closing": 5122,
      "accurately": 5123,
      "genetics": 5124,
      "Identifying": 5125,
      "maximize": 5126,
      "elev": 5127,
      "course": 5128,
      "CRM": 5129,
      "ERP": 5130,
      "Database": 5131,
      "Annual": 5132,
      "Dynam": 5133,
      "Lamb": 5134,
      "globe": 5135,
      "##tine": 5136,
      "##ased": 5137,
      "##ulate": 5138,
      "##ota": 5139,
      "##ottery": 5140,
      "enthusi": 5141,
      "organized": 5142,
      "endorse": 5143,
      "Bachelors": 5144,
      "reviewed": 5145,
      "Ideal": 5146,
      "schedul": 5147,
      "minutes": 5148,
      "money": 5149,
      "lands": 5150,
      "##pond": 5151,
      "onboard": 5152,
      "impacts": 5153,
      "belong": 5154,
      "server": 5155,
      "Assists": 5156,
      "interface": 5157,
      "Utilize": 5158,
      "error": 5159,
      "manipulation": 5160,
      "forefront": 5161,
      "Offer": 5162,
      "EDI": 5163,
      "Having": 5164,
      "Prom": 5165,
      "frequ": 5166,
      "Track": 5167,
      "advancement": 5168,
      "handling": 5169,
      "vaccination": 5170,
      "fulfilling": 5171,
      "Octo": 5172,
      "Live": 5173,
      "Most": 5174,
      "Tuition": 5175,
      "##irable": 5176,
      "Ins": 5177,
      "User": 5178,
      "pursu": 5179,
      "Factory": 5180,
      "file": 5181,
      "sourcing": 5182,
      "##ED": 5183,
      "##itive": 5184,
      "solvers": 5185,
      "five": 5186,
      "Records": 5187,
      "Leads": 5188,
      "##ORK": 5189,
      "Evaluate": 5190,
      "ingestion": 5191,
      "RESPONSIBILITIES": 5192,
      "Salaries": 5193,
      "SME": 5194,
      "systemic": 5195,
      "Clinical": 5196,
      "sponsor": 5197,
      "college": 5198,
      "vaccinated": 5199,
      "Understands": 5200,
      "Growth": 5201,
      "Atlassian": 5202,
      "Bo": 5203,
      "Hub": 5204,
      "nature": 5205,
      "wa": 5206,
      "##sys": 5207,
      "##icit": 5208,
      "Through": 5209,
      "technological": 5210,
      "interesting": 5211,
      "spent": 5212,
      "Disabilities": 5213,
      "empowers": 5214,
      "certified": 5215,
      "Block": 5216,
      "volunteer": 5217,
      "Criminal": 5218,
      "fundament": 5219,
      "iSeatz": 5220,
      "JOB": 5221,
      "Log": 5222,
      "domes": 5223,
      "game": 5224,
      "##hab": 5225,
      "##PS": 5226,
      "##orated": 5227,
      "thri": 5228,
      "##ports": 5229,
      "acumen": 5230,
      "prorated": 5231,
      "##ception": 5232,
      "Ordinance": 5233,
      "Building": 5234,
      "disciplines": 5235,
      "Purchase": 5236,
      "Gath": 5237,
      "Look": 5238,
      "##ible": 5239,
      "##In": 5240,
      "##RS": 5241,
      "##ides": 5242,
      "shaping": 5243,
      "Analysts": 5244,
      "consistency": 5245,
      "excel": 5246,
      "Modeling": 5247,
      "Postgre": 5248,
      "lineage": 5249,
      "advisory": 5250,
      "Inclusion": 5251,
      "Locations": 5252,
      "##owcasing": 5253,
      "landsc": 5254,
      "85": 5255,
      "##ina": 5256,
      "toler": 5257,
      "Comple": 5258,
      "oversight": 5259,
      "deployments": 5260,
      "amazing": 5261,
      "received": 5262,
      "Prac": 5263,
      "Regard": 5264,
      "larger": 5265,
      "streaming": 5266,
      "answering": 5267,
      "array": 5268,
      "property": 5269,
      "School": 5270,
      "duty": 5271,
      "##puts": 5272,
      "rep": 5273,
      "Inv": 5274,
      "Star": 5275,
      "liable": 5276,
      "Suite": 5277,
      "receip": 5278,
      "recognize": 5279,
      "interviews": 5280,
      "definition": 5281,
      "arrest": 5282,
      "PostgreSQL": 5283,
      "Regardless": 5284,
      "65": 5285,
      "Backend": 5286,
      "Hard": 5287,
      "LO": 5288,
      "World": 5289,
      "sound": 5290,
      "##Acc": 5291,
      "##itative": 5292,
      "##yping": 5293,
      "Collaboration": 5294,
      "Creating": 5295,
      "encouraging": 5296,
      "playing": 5297,
      "example": 5298,
      "simultaneously": 5299,
      "Lambda": 5300,
      "Division": 5301,
      "ELT": 5302,
      "Has": 5303,
      "Solution": 5304,
      "Savings": 5305,
      "##mediate": 5306,
      "tom": 5307,
      "emails": 5308,
      "TypeScript": 5309,
      "contractor": 5310,
      "numer": 5311,
      "Own": 5312,
      "routine": 5313,
      "receipt": 5314,
      "PI": 5315,
      "Typ": 5316,
      "lower": 5317,
      "##orch": 5318,
      "##urable": 5319,
      "##unt": 5320,
      "finding": 5321,
      "bonuses": 5322,
      "##fluence": 5323,
      "sites": 5324,
      "SDLC": 5325,
      "130": 5326,
      "affili": 5327,
      "Facilitate": 5328,
      "deeply": 5329,
      "concerns": 5330,
      "CP": 5331,
      "DA": 5332,
      "Nev": 5333,
      "Sim": 5334,
      "mer": 5335,
      "##HR": 5336,
      "ones": 5337,
      "scratch": 5338,
      "Ansys": 5339,
      "option": 5340,
      "PyT": 5341,
      "manages": 5342,
      "endless": 5343,
      "persons": 5344,
      "connecting": 5345,
      "Env": 5346,
      "empath": 5347,
      "Behavi": 5348,
      "American": 5349,
      "Nevada": 5350,
      "LTI": 5351,
      "Excellence": 5352,
      "rest": 5353,
      "Proactively": 5354,
      "Clinic": 5355,
      "impactful": 5356,
      "Teams": 5357,
      "ensures": 5358,
      "Interview": 5359,
      "agreement": 5360,
      "tomorrow": 5361,
      "UX": 5362,
      "##St": 5363,
      "##CM": 5364,
      "##uly": 5365,
      "Initi": 5366,
      "Rehab": 5367,
      "Workplace": 5368,
      "##print": 5369,
      "LLC": 5370,
      "Correc": 5371,
      "requested": 5372,
      "calend": 5373,
      "shipping": 5374,
      "MySQL": 5375,
      "diagrams": 5376,
      "Holidays": 5377,
      "UI": 5378,
      "##ented": 5379,
      "comput": 5380,
      "commerce": 5381,
      "##times": 5382,
      "advancing": 5383,
      "visited": 5384,
      "Check": 5385,
      "RecruitingAcc": 5386,
      "legacy": 5387,
      "immigration": 5388,
      "##TAP": 5389,
      "executives": 5390,
      "Background": 5391,
      "macro": 5392,
      "scenarios": 5393,
      "landscape": 5394,
      "Date": 5395,
      "ED": 5396,
      "Famil": 5397,
      "ther": 5398,
      "Problem": 5399,
      "qualification": 5400,
      "careg": 5401,
      "issue": 5402,
      "humanity": 5403,
      "courses": 5404,
      "loop": 5405,
      "approval": 5406,
      "Environ": 5407,
      "Rehabilit": 5408,
      "##UN": 5409,
      "##iss": 5410,
      "exceed": 5411,
      "impl": 5412,
      "positioned": 5413,
      "verification": 5414,
      "Includ": 5415,
      "Architecture": 5416,
      "perfect": 5417,
      "910": 5418,
      "EM": 5419,
      "Mid": 5420,
      "Testing": 5421,
      "gen": 5422,
      "tack": 5423,
      "##tly": 5424,
      "##utive": 5425,
      "##Sec": 5426,
      "operation": 5427,
      "parallel": 5428,
      "implementations": 5429,
      "Contact": 5430,
      "Police": 5431,
      "attend": 5432,
      "strengths": 5433,
      "PyTorch": 5434,
      "B2": 5435,
      "Sy": 5436,
      "evid": 5437,
      "##OE": 5438,
      "##ett": 5439,
      "##unk": 5440,
      "Developing": 5441,
      "Preferences": 5442,
      "architecting": 5443,
      "##lessly": 5444,
      "Based": 5445,
      "willingness": 5446,
      "4901": 5447,
      "Sections": 5448,
      "visibility": 5449,
      "Effectively": 5450,
      "Hours": 5451,
      "Cycle": 5452,
      "He": 5453,
      "##asi": 5454,
      "##pend": 5455,
      "##istics": 5456,
      "##terest": 5457,
      "intensive": 5458,
      "##ervices": 5459,
      "complexity": 5460,
      "cultiv": 5461,
      "COPSS": 5462,
      "Market": 5463,
      "4920": 5464,
      "categories": 5465,
      "easy": 5466,
      "supervis": 5467,
      "articulate": 5468,
      "desktop": 5469,
      "Correction": 5470,
      "RecruitingAccommodation": 5471,
      "9102": 5472,
      "COPSSC": 5473,
      "lab": 5474,
      "living": 5475,
      "since": 5476,
      "##Le": 5477,
      "##poration": 5478,
      "##vertis": 5479,
      "##gnment": 5480,
      "##ernity": 5481,
      "conclu": 5482,
      "##athematica": 5483,
      "return": 5484,
      "pivotal": 5485,
      "measurement": 5486,
      "Innovation": 5487,
      "Optimization": 5488,
      "Config": 5489,
      "Safety": 5490,
      "88": 5491,
      "Coun": 5492,
      "dim": 5493,
      "fing": 5494,
      "food": 5495,
      "his": 5496,
      "ur": 5497,
      "##ren": 5498,
      "##me": 5499,
      "##change": 5500,
      "##gres": 5501,
      "disabled": 5502,
      "context": 5503,
      "stronger": 5504,
      "desirable": 5505,
      "marketplace": 5506,
      "Planning": 5507,
      "increasing": 5508,
      "iterate": 5509,
      "calendar": 5510,
      "Follow": 5511,
      "dream": 5512,
      "files": 5513,
      "##arial": 5514,
      "proficient": 5515,
      "##the": 5516,
      "##rix": 5517,
      "##riev": 5518,
      "##irit": 5519,
      "relates": 5520,
      "Reim": 5521,
      "Comprehensive": 5522,
      "amounts": 5523,
      "sometimes": 5524,
      "smart": 5525,
      "reduc": 5526,
      "Spending": 5527,
      "Rob": 5528,
      "WE": 5529,
      "coun": 5530,
      "easi": 5531,
      "walking": 5532,
      "##worth": 5533,
      "relocate": 5534,
      "operates": 5535,
      "phil": 5536,
      "Identifies": 5537,
      "superior": 5538,
      "choice": 5539,
      "Personal": 5540,
      "Industry": 5541,
      "Family": 5542,
      "45": 5543,
      "Test": 5544,
      "ep": 5545,
      "medic": 5546,
      "##CO": 5547,
      "##LA": 5548,
      "##ids": 5549,
      "compil": 5550,
      "academ": 5551,
      "ourselves": 5552,
      "attitude": 5553,
      "Proper": 5554,
      "##ancer": 5555,
      "span": 5556,
      "generative": 5557,
      "greater": 5558,
      "sponsored": 5559,
      "dashboard": 5560,
      "logic": 5561,
      "teleph": 5562,
      "summar": 5563,
      "##enchmar": 5564,
      "liaison": 5565,
      "MD": 5566,
      "division": 5567,
      "lack": 5568,
      "##hasis": 5569,
      "##EM": 5570,
      "##amed": 5571,
      "succ": 5572,
      "UnitedHealth": 5573,
      "founded": 5574,
      "determining": 5575,
      "confirmation": 5576,
      "observability": 5577,
      "Present": 5578,
      "treatment": 5579,
      "migr": 5580,
      "##eets": 5581,
      "##erever": 5582,
      "##tuarial": 5583,
      "abs": 5584,
      "##ooking": 5585,
      "charges": 5586,
      "staffing": 5587,
      "regression": 5588,
      "Reimbursement": 5589,
      "35": 5590,
      "HSA": 5591,
      "See": 5592,
      "mid": 5593,
      "rés": 5594,
      "##oor": 5595,
      "##12": 5596,
      "##tiqu": 5597,
      "clim": 5598,
      "identified": 5599,
      "recommendation": 5600,
      "reasons": 5601,
      "Identity": 5602,
      "Transl": 5603,
      "Colle": 5604,
      "ISO": 5605,
      "##being": 5606,
      "résum": 5607,
      "AB": 5608,
      "STA": 5609,
      "block": 5610,
      "ultimately": 5611,
      "creates": 5612,
      "##epar": 5613,
      "forms": 5614,
      "install": 5615,
      "Supply": 5616,
      "Cognizant": 5617,
      "rewarding": 5618,
      "tightly": 5619,
      "##asualty": 5620,
      "GD": 5621,
      "WH": 5622,
      "ever": 5623,
      "##ron": 5624,
      "##MI": 5625,
      "##aried": 5626,
      "Internal": 5627,
      "perks": 5628,
      "announ": 5629,
      "Products": 5630,
      "informing": 5631,
      "preference": 5632,
      "succinc": 5633,
      "DLP": 5634,
      "RO": 5635,
      "selling": 5636,
      "reassi": 5637,
      "##igor": 5638,
      "stated": 5639,
      "qualitative": 5640,
      "functionally": 5641,
      "facility": 5642,
      "emphasis": 5643,
      "Month": 5644,
      "##poses": 5645,
      "privile": 5646,
      "##ARY": 5647,
      "Highly": 5648,
      "arrange": 5649,
      "prohibits": 5650,
      "Effective": 5651,
      "simplicity": 5652,
      "THE": 5653,
      "gone": 5654,
      "##mer": 5655,
      "##urations": 5656,
      "forc": 5657,
      "conting": 5658,
      "##irc": 5659,
      "##andem": 5660,
      "Active": 5661,
      "engaging": 5662,
      "##atial": 5663,
      "trustworth": 5664,
      "Coach": 5665,
      "Community": 5666,
      "partnering": 5667,
      "expanding": 5668,
      "achieving": 5669,
      "ECS": 5670,
      "VM": 5671,
      "draw": 5672,
      "fol": 5673,
      "haves": 5674,
      "##C2": 5675,
      "##ulations": 5676,
      "wherever": 5677,
      "##verage": 5678,
      "dispar": 5679,
      "unus": 5680,
      "Mayo": 5681,
      "inspire": 5682,
      "conclusions": 5683,
      "easier": 5684,
      "Property": 5685,
      "Perm": 5686,
      "benchmar": 5687,
      "headquartered": 5688,
      "vec": 5689,
      "##Qu": 5690,
      "##omp": 5691,
      "##ancies": 5692,
      "previous": 5693,
      "Enjoy": 5694,
      "completing": 5695,
      "##apped": 5696,
      "centers": 5697,
      "virginia": 5698,
      "measurable": 5699,
      "Strategic": 5700,
      "Defense": 5701,
      "alternative": 5702,
      "implications": 5703,
      "telephone": 5704,
      "trustworthy": 5705,
      "unusual": 5706,
      "##face": 5707,
      "##gen": 5708,
      "##PP": 5709,
      "technologists": 5710,
      "contracts": 5711,
      "Operating": 5712,
      "Virtual": 5713,
      "195": 5714,
      "weekly": 5715,
      "paths": 5716,
      "particularly": 5717,
      "Abilities": 5718,
      "VC": 5719,
      "##state": 5720,
      "##ersey": 5721,
      "poor": 5722,
      "##ails": 5723,
      "##box": 5724,
      "thereof": 5725,
      "Implementation": 5726,
      "speech": 5727,
      "##loss": 5728,
      "Collect": 5729,
      "thousands": 5730,
      "Pinterest": 5731,
      "Affairs": 5732,
      "succinctly": 5733,
      "folks": 5734,
      "Flu": 5735,
      "Pe": 5736,
      "##ser": 5737,
      "##itch": 5738,
      "##ley": 5739,
      "applies": 5740,
      "residents": 5741,
      "scrum": 5742,
      "spirit": 5743,
      "requiring": 5744,
      "anticipated": 5745,
      "Early": 5746,
      "Firm": 5747,
      "##wise": 5748,
      "##ectual": 5749,
      "Insur": 5750,
      "purchase": 5751,
      "publications": 5752,
      "guides": 5753,
      "notice": 5754,
      "Jersey": 5755,
      "Mc": 5756,
      "TX": 5757,
      "never": 5758,
      "wave": 5759,
      "##Sp": 5760,
      "##CH": 5761,
      "##abin": 5762,
      "truly": 5763,
      "##ellectual": 5764,
      "index": 5765,
      "Comfortable": 5766,
      "going": 5767,
      "##oints": 5768,
      "Artificial": 5769,
      "known": 5770,
      "influencing": 5771,
      "streamline": 5772,
      "preparation": 5773,
      "Leverage": 5774,
      "resilient": 5775,
      "intersection": 5776,
      "But": 5777,
      "Depend": 5778,
      "Pipel": 5779,
      "Talent": 5780,
      "nur": 5781,
      "rigor": 5782,
      "ten": 5783,
      "##edIn": 5784,
      "comes": 5785,
      "releases": 5786,
      "intended": 5787,
      "adher": 5788,
      "series": 5789,
      "configure": 5790,
      "makers": 5791,
      "Regular": 5792,
      "##goti": 5793,
      "Functional": 5794,
      "##undred": 5795,
      "Mentor": 5796,
      "##SecOps": 5797,
      "JS": 5798,
      "##tle": 5799,
      "##utical": 5800,
      "compelling": 5801,
      "incidents": 5802,
      "negoti": 5803,
      "event": 5804,
      "DevSecOps": 5805,
      "purposes": 5806,
      "configurations": 5807,
      "##greg": 5808,
      "indicators": 5809,
      "pione": 5810,
      "##untary": 5811,
      "announce": 5812,
      "reassignment": 5813,
      "Link": 5814,
      "Need": 5815,
      "citizen": 5816,
      "hundred": 5817,
      "##Tech": 5818,
      "inf": 5819,
      "##start": 5820,
      "reus": 5821,
      "except": 5822,
      "productive": 5823,
      "employers": 5824,
      "##aceutical": 5825,
      "healthier": 5826,
      "Recogn": 5827,
      "really": 5828,
      "Tools": 5829,
      "recommending": 5830,
      "activity": 5831,
      "2021": 5832,
      "therefore": 5833,
      "portals": 5834,
      "##ING": 5835,
      "category": 5836,
      "Possessing": 5837,
      "contributor": 5838,
      "wait": 5839,
      "Ang": 5840,
      "Curr": 5841,
      "Mag": 5842,
      "Make": 5843,
      "##iant": 5844,
      "##gs": 5845,
      "##ster": 5846,
      "forth": 5847,
      "##ucts": 5848,
      "incoming": 5849,
      "Wee": 5850,
      "shall": 5851,
      "university": 5852,
      "uncover": 5853,
      "implements": 5854,
      "arti": 5855,
      "remedi": 5856,
      "agnostic": 5857,
      "initial": 5858,
      "comply": 5859,
      "Creates": 5860,
      "Showcasing": 5861,
      "establishing": 5862,
      "ethnic": 5863,
      "digitiz": 5864,
      "Ensures": 5865,
      "domestic": 5866,
      "EMR": 5867,
      "evidence": 5868,
      "Diploma": 5869,
      "Gen": 5870,
      "bound": 5871,
      "##oper": 5872,
      "##uses": 5873,
      "recent": 5874,
      "unt": 5875,
      "##avy": 5876,
      "Display": 5877,
      "Demonstrating": 5878,
      "official": 5879,
      "demonstrates": 5880,
      "demands": 5881,
      "Openly": 5882,
      "behavioral": 5883,
      "Delivery": 5884,
      "900": 5885,
      "Bel": 5886,
      "Casualty": 5887,
      "Mathematica": 5888,
      "Vac": 5889,
      "Want": 5890,
      "relocation": 5891,
      "charge": 5892,
      "Status": 5893,
      "advertis": 5894,
      "spr": 5895,
      "driver": 5896,
      "wellbeing": 5897,
      "involving": 5898,
      "themselves": 5899,
      "##titute": 5900,
      "submissions": 5901,
      "calls": 5902,
      "tune": 5903,
      "##ecommun": 5904,
      "Specific": 5905,
      "Future": 5906,
      "Syn": 5907,
      "seed": 5908,
      "##Ps": 5909,
      "##PR": 5910,
      "##urement": 5911,
      "Plans": 5912,
      "Chain": 5913,
      "limit": 5914,
      "central": 5915,
      "##annett": 5916,
      "Permanent": 5917,
      "Cross": 5918,
      "Dec": 5919,
      "Graph": 5920,
      "Tier": 5921,
      "cabin": 5922,
      "##IRA": 5923,
      "rein": 5924,
      "trade": 5925,
      "##ributes": 5926,
      "Collaborates": 5927,
      "played": 5928,
      "generating": 5929,
      "Programs": 5930,
      "warehouses": 5931,
      "caring": 5932,
      "second": 5933,
      "Statistical": 5934,
      "extensible": 5935,
      "suppl": 5936,
      "containerization": 5937,
      "synthes": 5938,
      "behind": 5939,
      "cabinets": 5940,
      "AA": 5941,
      "Aud": 5942,
      "C2": 5943,
      "CT": 5944,
      "JIRA": 5945,
      "Set": 5946,
      "insi": 5947,
      "image": 5948,
      "##umn": 5949,
      "otherwise": 5950,
      "Where": 5951,
      "disclos": 5952,
      "assum": 5953,
      "formation": 5954,
      "accountable": 5955,
      "outcome": 5956,
      "Participates": 5957,
      "answers": 5958,
      "consultants": 5959,
      "entrepreneurs": 5960,
      "correct": 5961,
      "CM": 5962,
      "familiar": 5963,
      "named": 5964,
      "##RT": 5965,
      "##tiz": 5966,
      "##ictions": 5967,
      "convey": 5968,
      "compar": 5969,
      "acquire": 5970,
      "##chain": 5971,
      "interactive": 5972,
      "##plemental": 5973,
      "subsi": 5974,
      "Applied": 5975,
      "missions": 5976,
      "associate": 5977,
      "seekers": 5978,
      "Driven": 5979,
      "belonging": 5980,
      "Looker": 5981,
      "finger": 5982,
      "privileges": 5983,
      "untapped": 5984,
      "2T": 5985,
      "CS": 5986,
      "GA": 5987,
      "Multi": 5988,
      "mil": 5989,
      "north": 5990,
      "sell": 5991,
      "##ci": 5992,
      "##going": 5993,
      "##gling": 5994,
      "##stood": 5995,
      "##isp": 5996,
      "environmental": 5997,
      "Confluence": 5998,
      "enhanced": 5999,
      "personalized": 6000,
      "Founded": 6001,
      "discuss": 6002,
      "Broker": 6003,
      "onboarding": 6004,
      "BC": 6005,
      "Some": 6006,
      "##aC": 6007,
      "##son": 6008,
      "##NI": 6009,
      "##NS": 6010,
      "##AC": 6011,
      "store": 6012,
      "automating": 6013,
      "Phone": 6014,
      "validating": 6015,
      "covered": 6016,
      "measures": 6017,
      "ambiti": 6018,
      "largely": 6019,
      "##ensional": 6020,
      "affordable": 6021,
      "normal": 6022,
      "Glue": 6023,
      "urg": 6024,
      "announcement": 6025,
      "Mong": 6026,
      "Sw": 6027,
      "SK": 6028,
      "Writing": 6029,
      "vector": 6030,
      "##PER": 6031,
      "##22": 6032,
      "deals": 6033,
      "##ferencing": 6034,
      "Actual": 6035,
      "simulation": 6036,
      "architects": 6037,
      "Change": 6038,
      "facilities": 6039,
      "biggest": 6040,
      "mix": 6041,
      "errors": 6042,
      "failure": 6043,
      "Dem": 6044,
      "##ena": 6045,
      "comfort": 6046,
      "##ody": 6047,
      "##ournal": 6048,
      "show": 6049,
      "understood": 6050,
      "Enable": 6051,
      "Designing": 6052,
      "distribution": 6053,
      "##crimination": 6054,
      "##preci": 6055,
      "Integrity": 6056,
      "confidence": 6057,
      "threats": 6058,
      "Impact": 6059,
      "milest": 6060,
      "Duration": 6061,
      "##LO": 6062,
      "##quare": 6063,
      "enroll": 6064,
      "rely": 6065,
      "##ferral": 6066,
      "moder": 6067,
      "meets": 6068,
      "##ovel": 6069,
      "industrial": 6070,
      "considerations": 6071,
      "backlog": 6072,
      "box": 6073,
      "executes": 6074,
      "Central": 6075,
      "demanding": 6076,
      "civil": 6077,
      "28": 6078,
      "CF": 6079,
      "Ets": 6080,
      "EIR": 6081,
      "Path": 6082,
      "Ret": 6083,
      "circ": 6084,
      "far": 6085,
      "ups": 6086,
      "##VE": 6087,
      "##tify": 6088,
      "##urning": 6089,
      "created": 6090,
      "brings": 6091,
      "immediate": 6092,
      "accelerating": 6093,
      "accessibility": 6094,
      "institution": 6095,
      "mitigation": 6096,
      "Fosters": 6097,
      "scheduling": 6098,
      "climate": 6099,
      "Etsy": 6100,
      "CIS": 6101,
      "OSS": 6102,
      "RDS": 6103,
      "Sign": 6104,
      "house": 6105,
      "sw": 6106,
      "##tes": 6107,
      "##ults": 6108,
      "relent": 6109,
      "##alls": 6110,
      "unable": 6111,
      "valuation": 6112,
      "servers": 6113,
      "updated": 6114,
      "ethics": 6115,
      "Integrating": 6116,
      "screen": 6117,
      "periodic": 6118,
      "SharePoint": 6119,
      "upholding": 6120,
      "contingent": 6121,
      "SKIL": 6122,
      "Filing": 6123,
      "TD": 6124,
      "##look": 6125,
      "antiqu": 6126,
      "restr": 6127,
      "interaction": 6128,
      "improved": 6129,
      "##oliday": 6130,
      "referr": 6131,
      "volume": 6132,
      "advisor": 6133,
      "ICF": 6134,
      "institutions": 6135,
      "Regulatory": 6136,
      "Warehouse": 6137,
      "FSA": 6138,
      "last": 6139,
      "wire": 6140,
      "##bes": 6141,
      "##orm": 6142,
      "propose": 6143,
      "commission": 6144,
      "Manages": 6145,
      "matrix": 6146,
      "Providing": 6147,
      "opening": 6148,
      "geographies": 6149,
      "containers": 6150,
      "Query": 6151,
      "CCPA": 6152,
      "disrup": 6153,
      "antiquated": 6154,
      "Citizenship": 6155,
      "OS": 6156,
      "bott": 6157,
      "fear": 6158,
      "political": 6159,
      "rights": 6160,
      "##loo": 6161,
      "##bor": 6162,
      "##otor": 6163,
      "##osting": 6164,
      "##osoph": 6165,
      "##umes": 6166,
      "Strip": 6167,
      "specified": 6168,
      "choices": 6169,
      "bank": 6170,
      "Documents": 6171,
      "stepping": 6172,
      "Few": 6173,
      "MU": 6174,
      "##ta": 6175,
      "##ban": 6176,
      "##isms": 6177,
      "convers": 6178,
      "true": 6179,
      "sciences": 6180,
      "prone": 6181,
      "outgoing": 6182,
      "Unlimited": 6183,
      "##teness": 6184,
      "completeness": 6185,
      "question": 6186,
      "50th": 6187,
      "experimentation": 6188,
      "exploration": 6189,
      "Waterloo": 6190,
      "administrative": 6191,
      "##Query": 6192,
      "Insurtech": 6193,
      "ambitious": 6194,
      "Stripe": 6195,
      "Max": 6196,
      "bar": 6197,
      "few": 6198,
      "fled": 6199,
      "pasting": 6200,
      "##loc": 6201,
      "##places": 6202,
      "anom": 6203,
      "Expos": 6204,
      "Recommend": 6205,
      "internally": 6206,
      "Commercial": 6207,
      "translation": 6208,
      "Carrier": 6209,
      "Executive": 6210,
      "digitized": 6211,
      "milestones": 6212,
      "Exposure": 6213,
      "EOE": 6214,
      "Oversee": 6215,
      "card": 6216,
      "eager": 6217,
      "license": 6218,
      "piles": 6219,
      "stin": 6220,
      "##astar": 6221,
      "needless": 6222,
      "abounds": 6223,
      "##ooks": 6224,
      "innovations": 6225,
      "advocate": 6226,
      "implemented": 6227,
      "##ublish": 6228,
      "analyzes": 6229,
      "Phastar": 6230,
      "Framework": 6231,
      "enhancement": 6232,
      "Programming": 6233,
      "flu": 6234,
      "obtaining": 6235,
      "views": 6236,
      "90th": 6237,
      "Medicare": 6238,
      "prototyping": 6239,
      "forcing": 6240,
      "poorly": 6241,
      "insiders": 6242,
      "SKILLS": 6243,
      "fledgling": 6244,
      "stint": 6245,
      "Kan": 6246,
      "Port": 6247,
      "novel": 6248,
      "##curement": 6249,
      "##ma": 6250,
      "##lined": 6251,
      "##nes": 6252,
      "repos": 6253,
      "##emi": 6254,
      "##arters": 6255,
      "prec": 6256,
      "modules": 6257,
      "Compet": 6258,
      "highl": 6259,
      "Pharm": 6260,
      "encourages": 6261,
      "Postgres": 6262,
      "calc": 6263,
      "##MENT": 6264,
      "Study": 6265,
      "Standard": 6266,
      "HT": 6267,
      "STE": 6268,
      "held": 6269,
      "size": 6270,
      "women": 6271,
      "##AI": 6272,
      "##anking": 6273,
      "prevent": 6274,
      "projected": 6275,
      "Administr": 6276,
      "Providence": 6277,
      "Production": 6278,
      "cleans": 6279,
      "economy": 6280,
      "Successful": 6281,
      "OF": 6282,
      "rates": 6283,
      "##iform": 6284,
      "##MARY": 6285,
      "##AS": 6286,
      "appreci": 6287,
      "##oyal": 6288,
      "resolving": 6289,
      "spread": 6290,
      "aggreg": 6291,
      "Add": 6292,
      "demonstration": 6293,
      "device": 6294,
      "Monitoring": 6295,
      "##ampion": 6296,
      "filled": 6297,
      "boundaries": 6298,
      "##osophy": 6299,
      "Total": 6300,
      "stewards": 6301,
      "##idemi": 6302,
      "sug": 6303,
      "##ensus": 6304,
      "uniform": 6305,
      "Places": 6306,
      "believ": 6307,
      "Tensorflow": 6308,
      "Documentation": 6309,
      "##OUT": 6310,
      "B2B": 6311,
      "BE": 6312,
      "IP": 6313,
      "hum": 6314,
      "raw": 6315,
      "turning": 6316,
      "##facts": 6317,
      "##ups": 6318,
      "thing": 6319,
      "Report": 6320,
      "Referral": 6321,
      "Acts": 6322,
      "listening": 6323,
      "children": 6324,
      "profiling": 6325,
      "speak": 6326,
      "pharmaceutical": 6327,
      "Visualization": 6328,
      "Author": 6329,
      "pressure": 6330,
      "toughest": 6331,
      "##Lean": 6332,
      "ABOUT": 6333,
      "McLean": 6334,
      "STEM": 6335,
      "Mass": 6336,
      "Ori": 6337,
      "Spl": 6338,
      "Spr": 6339,
      "Since": 6340,
      "##fit": 6341,
      "##ero": 6342,
      "ack": 6343,
      "evolve": 6344,
      "Leading": 6345,
      "guard": 6346,
      "powerful": 6347,
      "consumption": 6348,
      "prioritizes": 6349,
      "faith": 6350,
      "Lo": 6351,
      "los": 6352,
      "micros": 6353,
      "pic": 6354,
      "save": 6355,
      "##arch": 6356,
      "##oping": 6357,
      "Expl": 6358,
      "disease": 6359,
      "Start": 6360,
      "##enew": 6361,
      "carefully": 6362,
      "expan": 6363,
      "conceptual": 6364,
      "appropriately": 6365,
      "Modern": 6366,
      "prompt": 6367,
      "Operational": 6368,
      "Integrate": 6369,
      "departmental": 6370,
      "typically": 6371,
      "proposed": 6372,
      "Internet": 6373,
      "vulnerabilities": 6374,
      "Superv": 6375,
      "papers": 6376,
      "Gannett": 6377,
      "Oh": 6378,
      "TE": 6379,
      "Yes": 6380,
      "doll": 6381,
      "gap": 6382,
      "lake": 6383,
      "might": 6384,
      "name": 6385,
      "text": 6386,
      "##Cor": 6387,
      "##cend": 6388,
      "refr": 6389,
      "reput": 6390,
      "income": 6391,
      "lie": 6392,
      "cann": 6393,
      "object": 6394,
      "##ifying": 6395,
      "assignment": 6396,
      "Electrical": 6397,
      "Corporation": 6398,
      "230": 6399,
      "##MENTS": 6400,
      "remediation": 6401,
      "##ecommunications": 6402,
      "MongoDB": 6403,
      "Bit": 6404,
      "East": 6405,
      "##erry": 6406,
      "producing": 6407,
      "leverages": 6408,
      "recruit": 6409,
      "instru": 6410,
      "placement": 6411,
      "Owner": 6412,
      "construction": 6413,
      "season": 6414,
      "Environment": 6415,
      "disparate": 6416,
      "LinkedIn": 6417,
      "Looking": 6418,
      "OK": 6419,
      "Retail": 6420,
      "Rewards": 6421,
      "mand": 6422,
      "tell": 6423,
      "wage": 6424,
      "##ectors": 6425,
      "Proof": 6426,
      "objective": 6427,
      "instances": 6428,
      "Scientists": 6429,
      "Organization": 6430,
      "navigate": 6431,
      "hundreds": 6432,
      "DO": 6433,
      "Hive": 6434,
      "##iers": 6435,
      "##owork": 6436,
      "Stack": 6437,
      "Staff": 6438,
      "output": 6439,
      "Prepar": 6440,
      "stored": 6441,
      "student": 6442,
      "profile": 6443,
      "embracing": 6444,
      "keeping": 6445,
      "minimize": 6446,
      "voice": 6447,
      "channels": 6448,
      "elevate": 6449,
      "Complete": 6450,
      "numerous": 6451,
      "referrals": 6452,
      "Media": 6453,
      "W2": 6454,
      "der": 6455,
      "loyal": 6456,
      "##ai": 6457,
      "##TM": 6458,
      "##US": 6459,
      "##plates": 6460,
      "exerc": 6461,
      "conven": 6462,
      "adhere": 6463,
      "relevance": 6464,
      "continually": 6465,
      "##vesting": 6466,
      "soon": 6467,
      "Lifecycle": 6468,
      "hearing": 6469,
      "Transform": 6470,
      "biot": 6471,
      "Studi": 6472,
      "REQUIREMENTS": 6473,
      "Educational": 6474,
      "Visi": 6475,
      "reusable": 6476,
      "##tization": 6477,
      "Splunk": 6478,
      "Non": 6479,
      "PM": 6480,
      "SQ": 6481,
      "ca": 6482,
      "ease": 6483,
      "mom": 6484,
      "##range": 6485,
      "##man": 6486,
      "intellectual": 6487,
      "Resident": 6488,
      "transactions": 6489,
      "directed": 6490,
      "topics": 6491,
      "grant": 6492,
      "Relev": 6493,
      "staying": 6494,
      "Medicaid": 6495,
      "continued": 6496,
      "IAM": 6497,
      "Memb": 6498,
      "Occ": 6499,
      "cancer": 6500,
      "separ": 6501,
      "##ury": 6502,
      "Shift": 6503,
      "Builds": 6504,
      "Verification": 6505,
      "sponsoring": 6506,
      "##athematical": 6507,
      "configuring": 6508,
      "progres": 6509,
      "library": 6510,
      "surve": 6511,
      "##ITY": 6512,
      "tailored": 6513,
      "Behavior": 6514,
      "SM": 6515,
      "UAT": 6516,
      "estate": 6517,
      "##rich": 6518,
      "##ered": 6519,
      "##erve": 6520,
      "##alf": 6521,
      "##roduc": 6522,
      "touch": 6523,
      "Provision": 6524,
      "Projects": 6525,
      "consensus": 6526,
      "possi": 6527,
      "concurr": 6528,
      "reference": 6529,
      "##ENCE": 6530,
      "cleaning": 6531,
      "survey": 6532,
      "visi": 6533,
      "experiments": 6534,
      "222": 6535,
      "##reshold": 6536,
      "Subject": 6537,
      "provisioning": 6538,
      "occasionally": 6539,
      "NET": 6540,
      "tackle": 6541,
      "sprint": 6542,
      "picture": 6543,
      "After": 6544,
      "Bash": 6545,
      "Cred": 6546,
      "Journey": 6547,
      "hope": 6548,
      "mem": 6549,
      "puts": 6550,
      "##NA": 6551,
      "##91": 6552,
      "##erse": 6553,
      "##ypo": 6554,
      "efficiencies": 6555,
      "inclusiv": 6556,
      "##parent": 6557,
      "transformations": 6558,
      "stores": 6559,
      "##ponses": 6560,
      "##ospatial": 6561,
      "embraces": 6562,
      "However": 6563,
      "schema": 6564,
      "stipend": 6565,
      "traits": 6566,
      "forecasts": 6567,
      "cultivate": 6568,
      "GDPR": 6569,
      "artifacts": 6570,
      "circum": 6571,
      "Address": 6572,
      "Relevant": 6573,
      "Bal": 6574,
      "FL": 6575,
      "##sy": 6576,
      "threshold": 6577,
      "##reet": 6578,
      "##anch": 6579,
      "##ille": 6580,
      "##sist": 6581,
      "enter": 6582,
      "##charge": 6583,
      "##enders": 6584,
      "Analytical": 6585,
      "unm": 6586,
      "regist": 6587,
      "connections": 6588,
      "participation": 6589,
      "extend": 6590,
      "Legal": 6591,
      "campaigns": 6592,
      "philosophy": 6593,
      "subsidi": 6594,
      "guardr": 6595,
      "loyalty": 6596,
      "Visio": 6597,
      "31": 6598,
      "Cisco": 6599,
      "Hire": 6600,
      "NC": 6601,
      "Rub": 6602,
      "rot": 6603,
      "sports": 6604,
      "##itory": 6605,
      "stri": 6606,
      "once": 6607,
      "Exhib": 6608,
      "resid": 6609,
      "##kends": 6610,
      "##rowser": 6611,
      "maternity": 6612,
      "audits": 6613,
      "retriev": 6614,
      "Maintains": 6615,
      "##ikit": 6616,
      "happens": 6617,
      "confidentiality": 6618,
      "USAJ": 6619,
      "school": 6620,
      "##eadquarters": 6621,
      "##Shell": 6622,
      "academic": 6623,
      "Ohio": 6624,
      "visiting": 6625,
      "circumst": 6626,
      "guardrails": 6627,
      "Head": 6628,
      "Ma": 6629,
      "py": 6630,
      "rad": 6631,
      "were": 6632,
      "##ino": 6633,
      "inferencing": 6634,
      "responses": 6635,
      "programm": 6636,
      "##ooth": 6637,
      "Designs": 6638,
      "Accounts": 6639,
      "fastest": 6640,
      "PowerShell": 6641,
      "facilitating": 6642,
      "entity": 6643,
      "mechanisms": 6644,
      "involves": 6645,
      "fault": 6646,
      "craft": 6647,
      "uniformed": 6648,
      "Deter": 6649,
      "FA": 6650,
      "Flexibility": 6651,
      "Ge": 6652,
      "IaC": 6653,
      "Line": 6654,
      "Rights": 6655,
      "giving": 6656,
      "##oating": 6657,
      "##utual": 6658,
      "##na": 6659,
      "##ym": 6660,
      "##bly": 6661,
      "##Cl": 6662,
      "##LL": 6663,
      "Att": 6664,
      "seeks": 6665,
      "smarter": 6666,
      "flat": 6667,
      "Using": 6668,
      "Instruc": 6669,
      "Uphold": 6670,
      "SSIS": 6671,
      "278": 6672,
      "termination": 6673,
      "Translate": 6674,
      "College": 6675,
      "anomal": 6676,
      "reputation": 6677,
      "inclusivity": 6678,
      "circumstances": 6679,
      "DU": 6680,
      "Dist": 6681,
      "Free": 6682,
      "Pac": 6683,
      "PBM": 6684,
      "##oom": 6685,
      "##pite": 6686,
      "##GB": 6687,
      "retention": 6688,
      "##ulating": 6689,
      "demonstrating": 6690,
      "bread": 6691,
      "Reviews": 6692,
      "Visit": 6693,
      "retaining": 6694,
      "embedded": 6695,
      "believes": 6696,
      "Categ": 6697,
      "Fast": 6698,
      "Mi": 6699,
      "OEM": 6700,
      "PA": 6701,
      "Targe": 6702,
      "billing": 6703,
      "ey": 6704,
      "hypo": 6705,
      "##aic": 6706,
      "##iCor": 6707,
      "##pace": 6708,
      "##points": 6709,
      "##OW": 6710,
      "##orities": 6711,
      "##els": 6712,
      "chat": 6713,
      "modified": 6714,
      "modelling": 6715,
      "agents": 6716,
      "##nerg": 6717,
      "##achelor": 6718,
      "complies": 6719,
      "Corps": 6720,
      "targeted": 6721,
      "ambiguous": 6722,
      "correl": 6723,
      "##reedom": 6724,
      "voices": 6725,
      "##sively": 6726,
      "dimensional": 6727,
      "absence": 6728,
      "Displaying": 6729,
      "acknowled": 6730,
      "Ruby": 6731,
      "Cr": 6732,
      "Ful": 6733,
      "Hy": 6734,
      "VP": 6735,
      "##WORK": 6736,
      "ingen": 6737,
      "##ams": 6738,
      "understandable": 6739,
      "advice": 6740,
      "board": 6741,
      "smooth": 6742,
      "externally": 6743,
      "Should": 6744,
      "rede": 6745,
      "periods": 6746,
      "##anked": 6747,
      "representative": 6748,
      "Databases": 6749,
      "escalation": 6750,
      "Requires": 6751,
      "displayed": 6752,
      "STATE": 6753,
      "cannot": 6754,
      "Bost": 6755,
      "Node": 6756,
      "pace": 6757,
      "tier": 6758,
      "##NL": 6759,
      "##by": 6760,
      "##Rs": 6761,
      "confl": 6762,
      "acting": 6763,
      "considering": 6764,
      "capable": 6765,
      "Opportunities": 6766,
      "submission": 6767,
      "addressing": 6768,
      "histor": 6769,
      "definitions": 6770,
      "Outlook": 6771,
      "constructive": 6772,
      "message": 6773,
      "segment": 6774,
      "clarity": 6775,
      "computational": 6776,
      "JSON": 6777,
      "Spring": 6778,
      "Boston": 6779,
      "501": 6780,
      "Card": 6781,
      "Headquartered": 6782,
      "games": 6783,
      "hires": 6784,
      "pain": 6785,
      "##ok": 6786,
      "##ert": 6787,
      "style": 6788,
      "shell": 6789,
      "upgrad": 6790,
      "##ximately": 6791,
      "called": 6792,
      "routin": 6793,
      "243": 6794,
      "modifying": 6795,
      "EXL": 6796,
      "conversion": 6797,
      "competition": 6798,
      "LOCATION": 6799,
      "adherence": 6800,
      "ingenuity": 6801,
      "redefine": 6802,
      "Draw": 6803,
      "Io": 6804,
      "PC": 6805,
      "ahead": 6806,
      "bachelor": 6807,
      "ic": 6808,
      "vital": 6809,
      "##GE": 6810,
      "##FS": 6811,
      "##idge": 6812,
      "##ighting": 6813,
      "communicator": 6814,
      "News": 6815,
      "ethical": 6816,
      "volumes": 6817,
      "minded": 6818,
      "##ORT": 6819,
      "letters": 6820,
      "International": 6821,
      "prototype": 6822,
      "enthusiastic": 6823,
      "merit": 6824,
      "DUTIES": 6825,
      "Category": 6826,
      "3D": 6827,
      "EC2": 6828,
      "Hear": 6829,
      "aware": 6830,
      "##pload": 6831,
      "force": 6832,
      "assisting": 6833,
      "##obe": 6834,
      "impacting": 6835,
      "drivers": 6836,
      "Const": 6837,
      "##fficient": 6838,
      "advise": 6839,
      "Adobe": 6840,
      "Claim": 6841,
      "visa": 6842,
      "statements": 6843,
      "##forcement": 6844,
      "2020": 6845,
      "Purs": 6846,
      "periodically": 6847,
      "262": 6848,
      "beginning": 6849,
      "vehicles": 6850,
      "Avail": 6851,
      "DHS": 6852,
      "FBI": 6853,
      "Gate": 6854,
      "MBA": 6855,
      "fees": 6856,
      "hr": 6857,
      "hu": 6858,
      "##orid": 6859,
      "##ark": 6860,
      "export": 6861,
      "##izon": 6862,
      "intend": 6863,
      "Street": 6864,
      "##iverse": 6865,
      "hourly": 6866,
      "http": 6867,
      "nonpro": 6868,
      "evaluations": 6869,
      "##PAA": 6870,
      "algorithm": 6871,
      "started": 6872,
      "harvesting": 6873,
      "promoting": 6874,
      "HIPAA": 6875,
      "alternatives": 6876,
      "anomalies": 6877,
      "breadth": 6878,
      "Doc": 6879,
      "Next": 6880,
      "Square": 6881,
      "Uses": 6882,
      "West": 6883,
      "gloss": 6884,
      "lakes": 6885,
      "mathematical": 6886,
      "sam": 6887,
      "##pect": 6888,
      "##enue": 6889,
      "##ito": 6890,
      "##itors": 6891,
      "inputs": 6892,
      "##odes": 6893,
      "resol": 6894,
      "until": 6895,
      "##TICE": 6896,
      "greatest": 6897,
      "physic": 6898,
      "combine": 6899,
      "predict": 6900,
      "BigQuery": 6901,
      "cluster": 6902,
      "##OBS": 6903,
      "NOTICE": 6904,
      "NYSE": 6905,
      "Florid": 6906,
      "commitments": 6907,
      "MUST": 6908,
      "Maxim": 6909,
      "Florida": 6910,
      "CSS": 6911,
      "XML": 6912,
      "##eet": 6913,
      "##base": 6914,
      "##PL": 6915,
      "##porary": 6916,
      "disaster": 6917,
      "##umer": 6918,
      "Scrip": 6919,
      "Sciences": 6920,
      "##novize": 6921,
      "ITIL": 6922,
      "audio": 6923,
      "promp": 6924,
      "explo": 6925,
      "prioritizing": 6926,
      "geography": 6927,
      "Solving": 6928,
      "interpreting": 6929,
      "economics": 6930,
      "Minnes": 6931,
      "population": 6932,
      "Synovize": 6933,
      "##Spot": 6934,
      "microservices": 6935,
      "95": 6936,
      "Cog": 6937,
      "Groups": 6938,
      "NJ": 6939,
      "batch": 6940,
      "hosting": 6941,
      "rating": 6942,
      "##door": 6943,
      "##ville": 6944,
      "intu": 6945,
      "##outh": 6946,
      "prob": 6947,
      "##plify": 6948,
      "##ulent": 6949,
      "usability": 6950,
      "Three": 6951,
      "interdisciplinary": 6952,
      "consists": 6953,
      "talents": 6954,
      "professionally": 6955,
      "Enh": 6956,
      "dependents": 6957,
      "190": 6958,
      "predisp": 6959,
      "Altern": 6960,
      "Series": 6961,
      "Revenue": 6962,
      "Typically": 6963,
      "USAJOBS": 6964,
      "Target": 6965,
      "##ORTUN": 6966,
      "predisposition": 6967,
      "DG": 6968,
      "Even": 6969,
      "Li": 6970,
      "Let": 6971,
      "js": 6972,
      "##DE": 6973,
      "##elf": 6974,
      "enrich": 6975,
      "developments": 6976,
      "##enses": 6977,
      "opin": 6978,
      "margin": 6979,
      "integral": 6980,
      "advoc": 6981,
      "useful": 6982,
      "membership": 6983,
      "foundations": 6984,
      "Amer": 6985,
      "assessing": 6986,
      "centered": 6987,
      "215": 6988,
      "III": 6989,
      "REQUIRED": 6990,
      "Considerations": 6991,
      "templates": 6992,
      "incorporate": 6993,
      "propel": 6994,
      "POSI": 6995,
      "Board": 6996,
      "BCBA": 6997,
      "expansion": 6998,
      "##cendion": 6999,
      "Benefit": 7000,
      "Name": 7001,
      "geop": 7002,
      "ranked": 7003,
      "wid": 7004,
      "##75": 7005,
      "##sitions": 7006,
      "##urate": 7007,
      "##etting": 7008,
      "##rief": 7009,
      "Extract": 7010,
      "attr": 7011,
      "adap": 7012,
      "##ittle": 7013,
      "subst": 7014,
      "fea": 7015,
      "##aker": 7016,
      "Analyzes": 7017,
      "Automate": 7018,
      "sustainability": 7019,
      "Upstart": 7020,
      "graduate": 7021,
      "EXPER": 7022,
      "permanent": 7023,
      "Connec": 7024,
      "tactical": 7025,
      "Dependent": 7026,
      "Pack": 7027,
      "Search": 7028,
      "diction": 7029,
      "races": 7030,
      "##sem": 7031,
      "##bon": 7032,
      "##Lab": 7033,
      "##urance": 7034,
      "##andas": 7035,
      "##obs": 7036,
      "##ological": 7037,
      "backup": 7038,
      "classes": 7039,
      "Order": 7040,
      "collected": 7041,
      "##house": 7042,
      "##egu": 7043,
      "Interest": 7044,
      "correc": 7045,
      "prospective": 7046,
      "messages": 7047,
      "Passionate": 7048,
      "blockchain": 7049,
      "Peace": 7050,
      "cleansing": 7051,
      "POSITION": 7052,
      "Light": 7053,
      "Ne": 7054,
      "Po": 7055,
      "Soft": 7056,
      "Val": 7057,
      "host": 7058,
      "sized": 7059,
      "##ger": 7060,
      "##365": 7061,
      "##ita": 7062,
      "##ros": 7063,
      "suites": 7064,
      "scoping": 7065,
      "##eward": 7066,
      "Workforce": 7067,
      "communicates": 7068,
      "innovating": 7069,
      "##ommodations": 7070,
      "modernizing": 7071,
      "respected": 7072,
      "Assurance": 7073,
      "biology": 7074,
      "Posting": 7075,
      "Willingness": 7076,
      "describe": 7077,
      "Consist": 7078,
      "Informatic": 7079,
      "Fields": 7080,
      "Improvement": 7081,
      "fundamentals": 7082,
      "spreadsh": 7083,
      "Prepares": 7084,
      "Enhance": 7085,
      "Aut": 7086,
      "GIS": 7087,
      "Green": 7088,
      "PD": 7089,
      "WA": 7090,
      "trial": 7091,
      "##well": 7092,
      "##Soft": 7093,
      "##enter": 7094,
      "##tum": 7095,
      "##ifies": 7096,
      "Workday": 7097,
      "unc": 7098,
      "Whether": 7099,
      "##ostatis": 7100,
      "Char": 7101,
      "Consumer": 7102,
      "##ENTI": 7103,
      "representing": 7104,
      "balanced": 7105,
      "Grad": 7106,
      "crafting": 7107,
      "tolerant": 7108,
      "empathy": 7109,
      "WHAT": 7110,
      "progressive": 7111,
      "Claims": 7112,
      "Minnesota": 7113,
      "Diverse": 7114,
      "Source": 7115,
      "cell": 7116,
      "genders": 7117,
      "headquarters": 7118,
      "publish": 7119,
      "##IENCE": 7120,
      "##ze": 7121,
      "recon": 7122,
      "timeline": 7123,
      "payroll": 7124,
      "##entials": 7125,
      "Disabled": 7126,
      "openings": 7127,
      "ranging": 7128,
      "Expected": 7129,
      "Skilled": 7130,
      "Enjoys": 7131,
      "hypothes": 7132,
      "Cogito": 7133,
      "EXPERIENCE": 7134,
      "Informatica": 7135,
      "Don": 7136,
      "Linc": 7137,
      "PL": 7138,
      "SUM": 7139,
      "land": 7140,
      "water": 7141,
      "##otional": 7142,
      "##IP": 7143,
      "##UR": 7144,
      "##inate": 7145,
      "##rem": 7146,
      "##lev": 7147,
      "##oln": 7148,
      "interacting": 7149,
      "bases": 7150,
      "##anges": 7151,
      "transparent": 7152,
      "deployed": 7153,
      "combining": 7154,
      "Interpre": 7155,
      "referral": 7156,
      "varying": 7157,
      "allowing": 7158,
      "Helping": 7159,
      "Value": 7160,
      "CRO": 7161,
      "asked": 7162,
      "##respond": 7163,
      "##IDE": 7164,
      "HubSpot": 7165,
      "therap": 7166,
      "Counsel": 7167,
      "##umni": 7168,
      "possibilities": 7169,
      "geopolitical": 7170,
      "Lincoln": 7171,
      "Lottery": 7172,
      "Sal": 7173,
      "lottery": 7174,
      "v1": 7175,
      "exist": 7176,
      "##riers": 7177,
      "payrange": 7178,
      "##itories": 7179,
      "charts": 7180,
      "##ierarch": 7181,
      "correspond": 7182,
      "safegu": 7183,
      "geospatial": 7184,
      "worksh": 7185,
      "investing": 7186,
      "Black": 7187,
      "generally": 7188,
      "postings": 7189,
      "extra": 7190,
      "HII": 7191,
      "electronically": 7192,
      "anticipate": 7193,
      "affordability": 7194,
      "Rehabilitation": 7195,
      "rigorous": 7196,
      "upgrades": 7197,
      "365": 7198,
      "DRT": 7199,
      "Familiar": 7200,
      "Mich": 7201,
      "Rock": 7202,
      "Social": 7203,
      "head": 7204,
      "##mp": 7205,
      "##va": 7206,
      "inside": 7207,
      "##antic": 7208,
      "procurement": 7209,
      "accep": 7210,
      "solver": 7211,
      "price": 7212,
      "elicit": 7213,
      "defense": 7214,
      "##aken": 7215,
      "floating": 7216,
      "Independ": 7217,
      "bugs": 7218,
      "strengthen": 7219,
      "prosper": 7220,
      "Optimize": 7221,
      "advertising": 7222,
      "urgency": 7223,
      "Pathways": 7224,
      "surveys": 7225,
      "Instructions": 7226,
      "##nergy": 7227,
      "Drawing": 7228,
      "32": 7229,
      "Award": 7230,
      "Fund": 7231,
      "Ill": 7232,
      "RMS": 7233,
      "##writing": 7234,
      "##SM": 7235,
      "##till": 7236,
      "##arr": 7237,
      "##ulty": 7238,
      "enough": 7239,
      "alien": 7240,
      "alumni": 7241,
      "try": 7242,
      "Inves": 7243,
      "##erving": 7244,
      "discharge": 7245,
      "chart": 7246,
      "##actation": 7247,
      "intermediate": 7248,
      "performant": 7249,
      "Respond": 7250,
      "##ruct": 7251,
      "researching": 7252,
      "Collaborating": 7253,
      "former": 7254,
      "guided": 7255,
      "extended": 7256,
      "reliably": 7257,
      "Upd": 7258,
      "detect": 7259,
      "classified": 7260,
      "Critical": 7261,
      "adjusted": 7262,
      "vulnerability": 7263,
      "thousand": 7264,
      "trials": 7265,
      "ROI": 7266,
      "VMware": 7267,
      "Belong": 7268,
      "OKRs": 7269,
      "Studio": 7270,
      "##Cloud": 7271,
      "##iCorps": 7272,
      "AmeriCorps": 7273,
      "SUMMARY": 7274,
      "Den": 7275,
      "##ask": 7276,
      "incident": 7277,
      "##estyle": 7278,
      "##anta": 7279,
      "coh": 7280,
      "##rypt": 7281,
      "scaled": 7282,
      "Unit": 7283,
      "##apeu": 7284,
      "SAF": 7285,
      "LLP": 7286,
      "geographical": 7287,
      "princip": 7288,
      "Centers": 7289,
      "Regist": 7290,
      "logistics": 7291,
      "shares": 7292,
      "iterative": 7293,
      "examples": 7294,
      "subsector": 7295,
      "loading": 7296,
      "graphics": 7297,
      "Volunteer": 7298,
      "genu": 7299,
      "Configuration": 7300,
      "Monthly": 7301,
      "Ed": 7302,
      "ESS": 7303,
      "Energy": 7304,
      "GS": 7305,
      "HPC": 7306,
      "PN": 7307,
      "freedom": 7308,
      "hierarch": 7309,
      "lactation": 7310,
      "tang": 7311,
      "upload": 7312,
      "##lab": 7313,
      "##RI": 7314,
      "##omet": 7315,
      "workstream": 7316,
      "##ticut": 7317,
      "reside": 7318,
      "lik": 7319,
      "multidisciplinary": 7320,
      "bright": 7321,
      "diffic": 7322,
      "Chief": 7323,
      "CDC": 7324,
      "##TIONS": 7325,
      "Relations": 7326,
      "Relational": 7327,
      "GitLab": 7328,
      "element": 7329,
      "autonomy": 7330,
      "situation": 7331,
      "querying": 7332,
      "Method": 7333,
      "##umbent": 7334,
      "vehicle": 7335,
      "##iversi": 7336,
      "thriving": 7337,
      "comparable": 7338,
      "refresh": 7339,
      "Fully": 7340,
      "Connecticut": 7341,
      "84": 7342,
      "Ca": 7343,
      "Labor": 7344,
      "RF": 7345,
      "SLA": 7346,
      "TN": 7347,
      "pounds": 7348,
      "##hood": 7349,
      "##df": 7350,
      "##nit": 7351,
      "##60": 7352,
      "forge": 7353,
      "##aming": 7354,
      "Workplaces": 7355,
      "##angel": 7356,
      "Metro": 7357,
      "trend": 7358,
      "CloudF": 7359,
      "depends": 7360,
      "doesn": 7361,
      "Generate": 7362,
      "heard": 7363,
      "##CAL": 7364,
      "Communications": 7365,
      "logical": 7366,
      "occup": 7367,
      "Defines": 7368,
      "affect": 7369,
      "Continuously": 7370,
      "beliefs": 7371,
      "continuing": 7372,
      "tactics": 7373,
      "Assessment": 7374,
      "affiliation": 7375,
      "Robo": 7376,
      "Pipelines": 7377,
      "Occasion": 7378,
      "1st": 7379,
      "AP": 7380,
      "Ops": 7381,
      "SC": 7382,
      "Valid": 7383,
      "lin": 7384,
      "pdf": 7385,
      "sens": 7386,
      "sectors": 7387,
      "varied": 7388,
      "yet": 7389,
      "##tm": 7390,
      "##IM": 7391,
      "##urity": 7392,
      "##lying": 7393,
      "compr": 7394,
      "##ensurate": 7395,
      "cooper": 7396,
      "approximately": 7397,
      "maintained": 7398,
      "Cho": 7399,
      "##IST": 7400,
      "exploring": 7401,
      "##erica": 7402,
      "##RED": 7403,
      "dedication": 7404,
      "ADA": 7405,
      "confirming": 7406,
      "##ready": 7407,
      "instructions": 7408,
      "Institute": 7409,
      "Gather": 7410,
      "spanning": 7411,
      "ethnicities": 7412,
      "retrieval": 7413,
      "##ENTIAL": 7414,
      "48": 7415,
      "CTAP": 7416,
      "DD": 7417,
      "Ear": 7418,
      "Five": 7419,
      "MI": 7420,
      "Military": 7421,
      "ill": 7422,
      "soft": 7423,
      "##rd": 7424,
      "##ft": 7425,
      "##ued": 7426,
      "##ora": 7427,
      "exchange": 7428,
      "##emed": 7429,
      "##apse": 7430,
      "##aste": 7431,
      "##ommerce": 7432,
      "standing": 7433,
      "operationalize": 7434,
      "Managing": 7435,
      "Electron": 7436,
      "Officer": 7437,
      "satisfact": 7438,
      "Associates": 7439,
      "PHP": 7440,
      "premiums": 7441,
      "honest": 7442,
      "Invest": 7443,
      "SQS": 7444,
      "Ath": 7445,
      "GIT": 7446,
      "Mail": 7447,
      "Nation": 7448,
      "brief": 7449,
      "engine": 7450,
      "hy": 7451,
      "holiday": 7452,
      "little": 7453,
      "node": 7454,
      "pet": 7455,
      "rich": 7456,
      "##books": 7457,
      "##zz": 7458,
      "##BC": 7459,
      "workers": 7460,
      "plays": 7461,
      "administ": 7462,
      "accru": 7463,
      "projections": 7464,
      "baseline": 7465,
      "##tainment": 7466,
      "identifies": 7467,
      "agility": 7468,
      "discounts": 7469,
      "electrical": 7470,
      "organizing": 7471,
      "##terprises": 7472,
      "serious": 7473,
      "reading": 7474,
      "disciplinary": 7475,
      "carry": 7476,
      "investigations": 7477,
      "thinker": 7478,
      "Website": 7479,
      "diagn": 7480,
      "Smart": 7481,
      "##idemiology": 7482,
      "##ostatistics": 7483,
      "Investig": 7484,
      "blog": 7485,
      "renew": 7486,
      "walk": 7487,
      "##aired": 7488,
      "##iG": 7489,
      "##coin": 7490,
      "##tch": 7491,
      "##dle": 7492,
      "##HA": 7493,
      "##24": 7494,
      "##erge": 7495,
      "##atable": 7496,
      "##igma": 7497,
      "enabled": 7498,
      "##ourish": 7499,
      "customized": 7500,
      "developmental": 7501,
      "underlying": 7502,
      "##atched": 7503,
      "parents": 7504,
      "Clar": 7505,
      "accommodate": 7506,
      "Applicant": 7507,
      "critically": 7508,
      "COD": 7509,
      "110": 7510,
      "streams": 7511,
      "respectful": 7512,
      "Organiz": 7513,
      "segments": 7514,
      "frontend": 7515,
      "rolling": 7516,
      "Consideration": 7517,
      "alerting": 7518,
      "disclosed": 7519,
      "assumed": 7520,
      "Bitcoin": 7521,
      "Lightning": 7522,
      "workshops": 7523,
      "Robotics": 7524,
      "Cod": 7525,
      "Fed": 7526,
      "Hand": 7527,
      "Hold": 7528,
      "Math": 7529,
      "V3": 7530,
      "mul": 7531,
      "powers": 7532,
      "six": 7533,
      "##ship": 7534,
      "##TD": 7535,
      "##ecks": 7536,
      "##aby": 7537,
      "appoint": 7538,
      "Exempt": 7539,
      "already": 7540,
      "##ago": 7541,
      "##akeholder": 7542,
      "prevention": 7543,
      "needing": 7544,
      "Resume": 7545,
      "Emp": 7546,
      "despite": 7547,
      "facts": 7548,
      "guiding": 7549,
      "Conducting": 7550,
      "specialists": 7551,
      "contractors": 7552,
      "importance": 7553,
      "layers": 7554,
      "mobility": 7555,
      "surround": 7556,
      "interpretation": 7557,
      "Informatics": 7558,
      "profitability": 7559,
      "Voluntary": 7560,
      "cultural": 7561,
      "DynamoDB": 7562,
      "frequently": 7563,
      "fundamentally": 7564,
      "PII": 7565,
      "Synapse": 7566,
      "fearlessly": 7567,
      "seasoned": 7568,
      "ESSENTIAL": 7569,
      "AS": 7570,
      "Ari": 7571,
      "Da": 7572,
      "Junior": 7573,
      "Native": 7574,
      "OO": 7575,
      "RD": 7576,
      "R01": 7577,
      "Sl": 7578,
      "dates": 7579,
      "gro": 7580,
      "map": 7581,
      "##CL": 7582,
      "##ini": 7583,
      "##etts": 7584,
      "##usetts": 7585,
      "deemed": 7586,
      "reserves": 7587,
      "##achusetts": 7588,
      "commensurate": 7589,
      "Prof": 7590,
      "Procedures": 7591,
      "Stor": 7592,
      "notch": 7593,
      "newly": 7594,
      "##oinform": 7595,
      "##averse": 7596,
      "fresh": 7597,
      "Chic": 7598,
      "Accommodations": 7599,
      "engines": 7600,
      "collecting": 7601,
      "flourish": 7602,
      "Conducts": 7603,
      "pivot": 7604,
      "Troubleshooting": 7605,
      "Island": 7606,
      "occasional": 7607,
      "Matter": 7608,
      "fulfillment": 7609,
      "workloads": 7610,
      "thrives": 7611,
      "arrangements": 7612,
      "Vacation": 7613,
      "C2M": 7614,
      "fingerprint": 7615,
      "moderate": 7616,
      "relentless": 7617,
      "restrictions": 7618,
      "Massachusetts": 7619,
      "loss": 7620,
      "eye": 7621,
      "Organizational": 7622,
      "3rd": 7623,
      "Aids": 7624,
      "Better": 7625,
      "IL": 7626,
      "Jup": 7627,
      "Licens": 7628,
      "UNI": 7629,
      "Ve": 7630,
      "VBA": 7631,
      "nodes": 7632,
      "##turing": 7633,
      "##MPA": 7634,
      "proced": 7635,
      "##atever": 7636,
      "##ocational": 7637,
      "##echnology": 7638,
      "unl": 7639,
      "##ango": 7640,
      "strategists": 7641,
      "Attention": 7642,
      "##criptive": 7643,
      "starts": 7644,
      "realize": 7645,
      "Shell": 7646,
      "vacancy": 7647,
      "screening": 7648,
      "##azine": 7649,
      "Continental": 7650,
      "ICTAP": 7651,
      "monetization": 7652,
      "contributes": 7653,
      "supervisory": 7654,
      "résumé": 7655,
      "##ompass": 7656,
      "##ormation": 7657,
      "tangible": 7658,
      "ABA": 7659,
      "Navy": 7660,
      "South": 7661,
      "TS": 7662,
      "Vocational": 7663,
      "eB": 7664,
      "fig": 7665,
      "tick": 7666,
      "tandem": 7667,
      "##oen": 7668,
      "##Path": 7669,
      "##Es": 7670,
      "##eries": 7671,
      "##ester": 7672,
      "##iscrimination": 7673,
      "##aska": 7674,
      "incred": 7675,
      "stra": 7676,
      "notes": 7677,
      "shop": 7678,
      "Ascendion": 7679,
      "Contain": 7680,
      "##ondiscrimination": 7681,
      "Forbes": 7682,
      "lift": 7683,
      "setup": 7684,
      "initiate": 7685,
      "Phoen": 7686,
      "emailed": 7687,
      "consultation": 7688,
      "celebrates": 7689,
      "Networking": 7690,
      "observing": 7691,
      "simplify": 7692,
      "Become": 7693,
      "mitigate": 7694,
      "segmentation": 7695,
      "Protection": 7696,
      "regional": 7697,
      "alerts": 7698,
      "Practice": 7699,
      "python": 7700,
      "Pacific": 7701,
      "acknowledges": 7702,
      "Phoenix": 7703,
      "09": 7704,
      "Camp": 7705,
      "DI": 7706,
      "EST": 7707,
      "journal": 7708,
      "##oitt": 7709,
      "##len": 7710,
      "##onti": 7711,
      "##ascript": 7712,
      "shown": 7713,
      "Actuarial": 7714,
      "innovators": 7715,
      "maintainable": 7716,
      "Adapt": 7717,
      "closer": 7718,
      "1099": 7719,
      "evaluated": 7720,
      "visualize": 7721,
      "transformational": 7722,
      "Americans": 7723,
      "confident": 7724,
      "Posted": 7725,
      "estimates": 7726,
      "competency": 7727,
      "terr": 7728,
      "Recruiter": 7729,
      "ERG": 7730,
      "storyt": 7731,
      "Capabilities": 7732,
      "teaching": 7733,
      "bottlen": 7734,
      "lieu": 7735,
      "moment": 7736,
      "unmatched": 7737,
      "nonprofit": 7738,
      "feasibility": 7739,
      "Counselor": 7740,
      "##oitte": 7741,
      "Band": 7742,
      "CE": 7743,
      "Cass": 7744,
      "Es": 7745,
      "EMP": 7746,
      "Find": 7747,
      "FDA": 7748,
      "MO": 7749,
      "Sur": 7750,
      "sounds": 7751,
      "##otive": 7752,
      "##ph": 7753,
      "##itation": 7754,
      "##itability": 7755,
      "actuarial": 7756,
      "Inf": 7757,
      "Acquisition": 7758,
      "invite": 7759,
      "lifestyle": 7760,
      "Applies": 7761,
      "Chef": 7762,
      "encompass": 7763,
      "idea": 7764,
      "Advis": 7765,
      "Poster": 7766,
      "properly": 7767,
      "consultant": 7768,
      "ships": 7769,
      "552": 7770,
      "Deloitte": 7771,
      "benchmarks": 7772,
      "synthesize": 7773,
      "conversations": 7774,
      "Heart": 7775,
      "Scripting": 7776,
      "prompting": 7777,
      "SAFe": 7778,
      "workstreams": 7779,
      "CloudFormation": 7780,
      "Chicago": 7781,
      "UNIX": 7782,
      "Cassand": 7783,
      "83": 7784,
      "Med": 7785,
      "Rest": 7786,
      "Tem": 7787,
      "##KS": 7788,
      "##VP": 7789,
      "##orts": 7790,
      "exem": 7791,
      "incumbent": 7792,
      "attract": 7793,
      "perception": 7794,
      "##acks": 7795,
      "spg": 7796,
      "Accept": 7797,
      "collaborates": 7798,
      "##tification": 7799,
      "Blind": 7800,
      "##iliary": 7801,
      "orchestr": 7802,
      "Facilitating": 7803,
      "Physics": 7804,
      "Person": 7805,
      "Guid": 7806,
      "nearly": 7807,
      "reducing": 7808,
      "acquired": 7809,
      "##LOY": 7810,
      "##locks": 7811,
      "Kanban": 7812,
      "IoT": 7813,
      "Alternative": 7814,
      "Athena": 7815,
      "EMPLOY": 7816,
      "Cassandra": 7817,
      "391": 7818,
      "41": 7819,
      "Further": 7820,
      "HP": 7821,
      "Har": 7822,
      "Mob": 7823,
      "ai": 7824,
      "boo": 7825,
      "git": 7826,
      "maps": 7827,
      "mutual": 7828,
      "und": 7829,
      "##oke": 7830,
      "##etic": 7831,
      "##laim": 7832,
      "##pm": 7833,
      "##Spark": 7834,
      "##FER": 7835,
      "##rel": 7836,
      "##reach": 7837,
      "##room": 7838,
      "##america": 7839,
      "emb": 7840,
      "whatever": 7841,
      "Responsibility": 7842,
      "continues": 7843,
      "Collaborative": 7844,
      "selecting": 7845,
      "complaints": 7846,
      "Child": 7847,
      "dealing": 7848,
      "Lawful": 7849,
      "##ilian": 7850,
      "speaking": 7851,
      "fraudulent": 7852,
      "myHR": 7853,
      "881": 7854,
      "Decision": 7855,
      "Oriented": 7856,
      "Supervis": 7857,
      "TELE": 7858,
      "exercise": 7859,
      "convenient": 7860,
      "huge": 7861,
      "intuitive": 7862,
      "##ontier": 7863,
      "622": 7864,
      "Aux": 7865,
      "Ever": 7866,
      "Tri": 7867,
      "fil": 7868,
      "foot": 7869,
      "sav": 7870,
      "##lin": 7871,
      "##WIDE": 7872,
      "##TQ": 7873,
      "##DC": 7874,
      "##orable": 7875,
      "##reg": 7876,
      "inference": 7877,
      "##ication": 7878,
      "exhib": 7879,
      "##uck": 7880,
      "##ectric": 7881,
      "allocation": 7882,
      "helpful": 7883,
      "unified": 7884,
      "Response": 7885,
      "integrates": 7886,
      "UniG": 7887,
      "Adop": 7888,
      "follows": 7889,
      "Fraud": 7890,
      "Aging": 7891,
      "longer": 7892,
      "auditing": 7893,
      "Online": 7894,
      "demos": 7895,
      "numbers": 7896,
      "preferable": 7897,
      "Architects": 7898,
      "SDTM": 7899,
      "submitting": 7900,
      "extracting": 7901,
      "welcoming": 7902,
      "Emailed": 7903,
      "faxed": 7904,
      "Impaired": 7905,
      "Rehabilitative": 7906,
      "résumés": 7907,
      "HTML": 7908,
      "Administrator": 7909,
      "##oworks": 7910,
      "Credit": 7911,
      "STATEWIDE": 7912,
      "5019": 7913,
      "Available": 7914,
      "2155": 7915,
      "reconc": 7916,
      "safeguard": 7917,
      "difficult": 7918,
      "Carol": 7919,
      "Mailed": 7920,
      "eBay": 7921,
      "39112": 7922,
      "TELEWORK": 7923,
      "Auxiliary": 7924,
      "UniGroup": 7925,
      "Catalog": 7926,
      "EAP": 7927,
      "Jerry": 7928,
      "Load": 7929,
      "ME": 7930,
      "average": 7931,
      "rac": 7932,
      "sl": 7933,
      "sequ": 7934,
      "title": 7935,
      "##tition": 7936,
      "ingest": 7937,
      "Stream": 7938,
      "##acker": 7939,
      "Asc": 7940,
      "variable": 7941,
      "##brant": 7942,
      "Javascript": 7943,
      "Elastic": 7944,
      "Index": 7945,
      "determination": 7946,
      "breaking": 7947,
      "facilitation": 7948,
      "codes": 7949,
      "exams": 7950,
      "Evaluation": 7951,
      "President": 7952,
      "Leveraging": 7953,
      "exploratory": 7954,
      "incorpor": 7955,
      "ESO": 7956,
      "Current": 7957,
      "radically": 7958,
      "bottlenecks": 7959,
      "58": 7960,
      "Bu": 7961,
      "CB": 7962,
      "Food": 7963,
      "Spons": 7964,
      "WI": 7965,
      "WORK": 7966,
      "iOS": 7967,
      "saving": 7968,
      "##sing": 7969,
      "##vo": 7970,
      "stages": 7971,
      "modifications": 7972,
      "outputs": 7973,
      "PySpark": 7974,
      "##nesses": 7975,
      "regulated": 7976,
      "dependencies": 7977,
      "##atient": 7978,
      "demonstrations": 7979,
      "shareholders": 7980,
      "Conditions": 7981,
      "vacancies": 7982,
      "##argaining": 7983,
      "pointing": 7984,
      "Intermediate": 7985,
      "logging": 7986,
      "fosters": 7987,
      "ideally": 7988,
      "possesses": 7989,
      "escalate": 7990,
      "pharmacy": 7991,
      "DEI": 7992,
      "fuels": 7993,
      "caregivers": 7994,
      "parallelism": 7995,
      "Seek": 7996,
      "CON": 7997,
      "LGB": 7998,
      "Sage": 7999,
      "Serves": 8000,
      "gets": 8001,
      "nice": 8002,
      "pull": 8003,
      "sensor": 8004,
      "emotional": 8005,
      "dissem": 8006,
      "abstr": 8007,
      "##cripts": 8008,
      "defines": 8009,
      "maturity": 8010,
      "##tility": 8011,
      "125": 8012,
      "movement": 8013,
      "PeopleSoft": 8014,
      "##shore": 8015,
      "Event": 8016,
      "##BMS": 8017,
      "##eattle": 8018,
      "manipulate": 8019,
      "messaging": 8020,
      "PHI": 8021,
      "overseeing": 8022,
      "diagnos": 8023,
      "cultures": 8024,
      "Small": 8025,
      "frequent": 8026,
      "Typical": 8027,
      "counter": 8028,
      "Demands": 8029,
      "upskill": 8030,
      "##remely": 8031,
      "unlaw": 8032,
      "straight": 8033,
      "72": 8034,
      "ARE": 8035,
      "Civ": 8036,
      "Fit": 8037,
      "Hospital": 8038,
      "MIS": 8039,
      "Natural": 8040,
      "Rh": 8041,
      "Seattle": 8042,
      "taken": 8043,
      "yr": 8044,
      "##ah": 8045,
      "##cles": 8046,
      "##yter": 8047,
      "##RO": 8048,
      "##enn": 8049,
      "##ithub": 8050,
      "champion": 8051,
      "helped": 8052,
      "shor": 8053,
      "learner": 8054,
      "unions": 8055,
      "##fra": 8056,
      "Prefer": 8057,
      "financing": 8058,
      "ITSM": 8059,
      "compliant": 8060,
      "Coverage": 8061,
      "ethic": 8062,
      "Doing": 8063,
      "115": 8064,
      "increased": 8065,
      "Drives": 8066,
      "Local": 8067,
      "Connect": 8068,
      "licensure": 8069,
      "installation": 8070,
      "humility": 8071,
      "Denver": 8072,
      "Electronic": 8073,
      "Jupyter": 8074,
      "Ascension": 8075,
      "LGBTQ": 8076,
      "unlawful": 8077,
      "29": 8078,
      "AC": 8079,
      "Mind": 8080,
      "TB": 8081,
      "cache": 8082,
      "rout": 8083,
      "##mart": 8084,
      "##uro": 8085,
      "##ptions": 8086,
      "##icon": 8087,
      "stop": 8088,
      "##och": 8089,
      "enterprises": 8090,
      "usable": 8091,
      "mean": 8092,
      "shif": 8093,
      "Actions": 8094,
      "Manufacturing": 8095,
      "enjoys": 8096,
      "accordingly": 8097,
      "##RAMP": 8098,
      "budgets": 8099,
      "prepares": 8100,
      "Function": 8101,
      "##ufactur": 8102,
      "seamlessly": 8103,
      "hospitals": 8104,
      "delight": 8105,
      "empathetic": 8106,
      "therapeu": 8107,
      "##roduction": 8108,
      "Consistently": 8109,
      "likely": 8110,
      "storytelling": 8111,
      "33": 8112,
      "AZ": 8113,
      "Motor": 8114,
      "NIST": 8115,
      "OT": 8116,
      "her": 8117,
      "lasting": 8118,
      "yield": 8119,
      "##ools": 8120,
      "##NG": 8121,
      "##vy": 8122,
      "##TP": 8123,
      "##org": 8124,
      "##icated": 8125,
      "compute": 8126,
      "reson": 8127,
      "respective": 8128,
      "qualify": 8129,
      "unlimited": 8130,
      "nationality": 8131,
      "modernization": 8132,
      "logs": 8133,
      "experimental": 8134,
      "away": 8135,
      "trading": 8136,
      "agreements": 8137,
      "Anywhere": 8138,
      "Meet": 8139,
      "Disclaim": 8140,
      "Week": 8141,
      "memory": 8142,
      "##oinformatics": 8143,
      "38": 8144,
      "AT": 8145,
      "Eth": 8146,
      "EHR": 8147,
      "KN": 8148,
      "Pet": 8149,
      "UC": 8150,
      "browser": 8151,
      "rated": 8152,
      "##mosp": 8153,
      "##ention": 8154,
      "##alth": 8155,
      "##att": 8156,
      "proceed": 8157,
      "ordin": 8158,
      "##asc": 8159,
      "command": 8160,
      "indirec": 8161,
      "##ruise": 8162,
      "##unction": 8163,
      "Requirement": 8164,
      "personally": 8165,
      "planet": 8166,
      "professionalism": 8167,
      "Equip": 8168,
      "presence": 8169,
      "##onomy": 8170,
      "assesses": 8171,
      "specializes": 8172,
      "measuring": 8173,
      "banks": 8174,
      "Columb": 8175,
      "Prioritiz": 8176,
      "categor": 8177,
      "Supplemental": 8178,
      "increasingly": 8179,
      "nurture": 8180,
      "derive": 8181,
      "Storage": 8182,
      "Carolina": 8183,
      "Elev": 8184,
      "Feed": 8185,
      "IV": 8186,
      "MN": 8187,
      "Sti": 8188,
      "SCI": 8189,
      "TM": 8190,
      "Zoom": 8191,
      "got": 8192,
      "listing": 8193,
      "##pay": 8194,
      "##eds": 8195,
      "##elbox": 8196,
      "##illa": 8197,
      "Repres": 8198,
      "arise": 8199,
      "Embedd": 8200,
      "simply": 8201,
      "elim": 8202,
      "expenses": 8203,
      "recommended": 8204,
      "faculty": 8205,
      "authority": 8206,
      "contacted": 8207,
      "cares": 8208,
      "settings": 8209,
      "Purpose": 8210,
      "estimated": 8211,
      "supplemental": 8212,
      "DBT": 8213,
      "SOPs": 8214,
      "schem": 8215,
      "170": 8216,
      "refinement": 8217,
      "compiled": 8218,
      "Fluency": 8219,
      "pioneering": 8220,
      "Currently": 8221,
      "rotation": 8222,
      "Doctor": 8223,
      "79": 8224,
      "94": 8225,
      "Cal": 8226,
      "Cur": 8227,
      "Los": 8228,
      "Tom": 8229,
      "VPC": 8230,
      "WF": 8231,
      "##come": 8232,
      "##pet": 8233,
      "##EF": 8234,
      "##AD": 8235,
      "##inity": 8236,
      "##esome": 8237,
      "##ilicon": 8238,
      "##ico": 8239,
      "coming": 8240,
      "##ustin": 8241,
      "##iration": 8242,
      "scikit": 8243,
      "##ventions": 8244,
      "agent": 8245,
      "consolid": 8246,
      "##verse": 8247,
      "gras": 8248,
      "aspect": 8249,
      "Lean": 8250,
      "insightful": 8251,
      "pushing": 8252,
      "Deployment": 8253,
      "Angular": 8254,
      "limitations": 8255,
      "Gateway": 8256,
      "upskilling": 8257,
      "ordinances": 8258,
      "68": 8259,
      "AM": 8260,
      "Dell": 8261,
      "Domain": 8262,
      "GED": 8263,
      "OPP": 8264,
      "TV": 8265,
      "birth": 8266,
      "diploma": 8267,
      "math": 8268,
      "miss": 8269,
      "##sites": 8270,
      "##vely": 8271,
      "##RC": 8272,
      "steward": 8273,
      "##ades": 8274,
      "##chron": 8275,
      "##osing": 8276,
      "anyone": 8277,
      "Results": 8278,
      "##press": 8279,
      "Prem": 8280,
      "Preference": 8281,
      "assists": 8282,
      "phase": 8283,
      "selves": 8284,
      "digitally": 8285,
      "##onomic": 8286,
      "India": 8287,
      "standardization": 8288,
      "combined": 8289,
      "Also": 8290,
      "conducted": 8291,
      "Spir": 8292,
      "Growing": 8293,
      "earned": 8294,
      "Incentive": 8295,
      "achieved": 8296,
      "foreign": 8297,
      "Telecommunications": 8298,
      "RESTful": 8299,
      "Knows": 8300,
      "Foster": 8301,
      "pursuing": 8302,
      "Significant": 8303,
      "highlighting": 8304,
      "Determine": 8305,
      "##ORTUNITY": 8306,
      "Nationwide": 8307,
      "Rhode": 8308,
      "OPPORTUNITY": 8309,
      "Ach": 8310,
      "DES": 8311,
      "Mary": 8312,
      "Pred": 8313,
      "SW": 8314,
      "Tre": 8315,
      "bl": 8316,
      "##health": 8317,
      "##hering": 8318,
      "##lining": 8319,
      "##94": 8320,
      "##anks": 8321,
      "##olang": 8322,
      "##abetes": 8323,
      "##forward": 8324,
      "compreh": 8325,
      "##ared": 8326,
      "##esto": 8327,
      "atmosp": 8328,
      "##verning": 8329,
      "leaves": 8330,
      "designated": 8331,
      "##oved": 8332,
      "understands": 8333,
      "Concep": 8334,
      "vertical": 8335,
      "continental": 8336,
      "Front": 8337,
      "differenti": 8338,
      "engaged": 8339,
      "objects": 8340,
      "achievement": 8341,
      "updating": 8342,
      "Alaska": 8343,
      "135": 8344,
      "thoughtful": 8345,
      "summary": 8346,
      "percent": 8347,
      "prepared": 8348,
      "launching": 8349,
      "responding": 8350,
      "fixes": 8351,
      "Magazine": 8352,
      "barriers": 8353,
      "biotechnology": 8354,
      "Members": 8355,
      "Update": 8356,
      "Choose": 8357,
      "R018": 8358,
      "Disclaimer": 8359,
      "Aw": 8360,
      "Austin": 8361,
      "HCM": 8362,
      "Os": 8363,
      "Run": 8364,
      "Sick": 8365,
      "citizens": 8366,
      "wants": 8367,
      "##lose": 8368,
      "##ned": 8369,
      "##UCATION": 8370,
      "##CT": 8371,
      "##AG": 8372,
      "##ertility": 8373,
      "##ins": 8374,
      "##olves": 8375,
      "##perv": 8376,
      "##ama": 8377,
      "##idd": 8378,
      "##ulum": 8379,
      "##lymp": 8380,
      "##oted": 8381,
      "resident": 8382,
      "intent": 8383,
      "spans": 8384,
      "performs": 8385,
      "ManTech": 8386,
      "disclose": 8387,
      "Play": 8388,
      "themes": 8389,
      "knows": 8390,
      "adding": 8391,
      "COMP": 8392,
      "Interface": 8393,
      "Reli": 8394,
      "calling": 8395,
      "bias": 8396,
      "investigate": 8397,
      "Labelbox": 8398,
      "SOC": 8399,
      "adaptable": 8400,
      "appeal": 8401,
      "Guides": 8402,
      "instruction": 8403,
      "PRM": 8404,
      "EDUCATION": 8405,
      "precision": 8406,
      "dollars": 8407,
      "programmatic": 8408,
      "##naire": 8409,
      "accepting": 8410,
      "Citizens": 8411,
      "Golang": 8412,
      "Mental": 8413,
      "PRE": 8414,
      "agr": 8415,
      "say": 8416,
      "##session": 8417,
      "##tors": 8418,
      "##zilla": 8419,
      "##Commerce": 8420,
      "##KE": 8421,
      "##ectivity": 8422,
      "conj": 8423,
      "##erved": 8424,
      "room": 8425,
      "governing": 8426,
      "strategically": 8427,
      "quo": 8428,
      "##criptions": 8429,
      "connectivity": 8430,
      "105": 8431,
      "listen": 8432,
      "utility": 8433,
      "Relocation": 8434,
      "reimburse": 8435,
      "balancing": 8436,
      "extension": 8437,
      "consultative": 8438,
      "inspiring": 8439,
      "raise": 8440,
      "Bioworks": 8441,
      "Bringing": 8442,
      "Typescript": 8443,
      "nationwide": 8444,
      "Ready": 8445,
      "Matching": 8446,
      "macros": 8447,
      "medicine": 8448,
      "Return": 8449,
      "causes": 8450,
      "routinely": 8451,
      "icf": 8452,
      "opinions": 8453,
      "##ructures": 8454,
      "FedRAMP": 8455,
      "KNOW": 8456,
      "atmosphere": 8457,
      "Osaic": 8458,
      "Four": 8459,
      "Graf": 8460,
      "LPL": 8461,
      "Merc": 8462,
      "Takes": 8463,
      "eff": 8464,
      "hub": 8465,
      "htm": 8466,
      "lot": 8467,
      "##ped": 8468,
      "##bs": 8469,
      "##87": 8470,
      "##JS": 8471,
      "##leans": 8472,
      "##isely": 8473,
      "##ustice": 8474,
      "##rike": 8475,
      "##ocr": 8476,
      "##ficial": 8477,
      "pertain": 8478,
      "Anticip": 8479,
      "Academ": 8480,
      "fusion": 8481,
      "everyday": 8482,
      "continual": 8483,
      "resulting": 8484,
      "reasonably": 8485,
      "specification": 8486,
      "exclu": 8487,
      "Within": 8488,
      "editing": 8489,
      "grants": 8490,
      "sitting": 8491,
      "Release": 8492,
      "redesign": 8493,
      "Communicates": 8494,
      "Engagement": 8495,
      "discrep": 8496,
      "##uppet": 8497,
      "##ITS": 8498,
      "adopt": 8499,
      "214": 8500,
      "autonomously": 8501,
      "sync": 8502,
      "Mentoring": 8503,
      "Glass": 8504,
      "tailor": 8505,
      "Dynamics": 8506,
      "arrangement": 8507,
      "Competencies": 8508,
      "instrumental": 8509,
      "strives": 8510,
      "Estim": 8511,
      "Equipment": 8512,
      "conjunction": 8513,
      "Grafana": 8514,
      "BEN": 8515,
      "SCA": 8516,
      "Ten": 8517,
      "mor": 8518,
      "##oice": 8519,
      "##mend": 8520,
      "##field": 8521,
      "##bound": 8522,
      "##PT": 8523,
      "##CD": 8524,
      "##43": 8525,
      "##ona": 8526,
      "##ania": 8527,
      "##pling": 8528,
      "comments": 8529,
      "stret": 8530,
      "##ford": 8531,
      "##unch": 8532,
      "weeds": 8533,
      "clinic": 8534,
      "processed": 8535,
      "##001": 8536,
      "persist": 8537,
      "learned": 8538,
      "news": 8539,
      "##tism": 8540,
      "regions": 8541,
      "##fraid": 8542,
      "##produc": 8543,
      "improves": 8544,
      "uptime": 8545,
      "Clari": 8546,
      "optimized": 8547,
      "Transition": 8548,
      "presents": 8549,
      "Arch": 8550,
      "tremend": 8551,
      "Programmer": 8552,
      "##egate": 8553,
      "mentors": 8554,
      "certify": 8555,
      "emergency": 8556,
      "voluntary": 8557,
      "inspired": 8558,
      "##grees": 8559,
      "Visa": 8560,
      "stitch": 8561,
      "accomplished": 8562,
      "gained": 8563,
      "repe": 8564,
      "BENEF": 8565,
      "1M": 8566,
      "CMS": 8567,
      "Days": 8568,
      "Flex": 8569,
      "Puppet": 8570,
      "Tax": 8571,
      "UK": 8572,
      "section": 8573,
      "##to": 8574,
      "##66": 8575,
      "##GIS": 8576,
      "##inars": 8577,
      "##outs": 8578,
      "exch": 8579,
      "energe": 8580,
      "Produce": 8581,
      "recently": 8582,
      "pertin": 8583,
      "Comb": 8584,
      "Assisting": 8585,
      "multit": 8586,
      "Class": 8587,
      "Ent": 8588,
      "Arc": 8589,
      "Desire": 8590,
      "Incident": 8591,
      "Performing": 8592,
      "positively": 8593,
      "readiness": 8594,
      "extremely": 8595,
      "specialty": 8596,
      "Mastery": 8597,
      "standardized": 8598,
      "virtually": 8599,
      "streamlined": 8600,
      "Span": 8601,
      "IDT": 8602,
      "Cybersecurity": 8603,
      "Execute": 8604,
      "Guide": 8605,
      "Cognos": 8606,
      "Hourly": 8607,
      "Warehousing": 8608,
      "Educate": 8609,
      "##offs": 8610,
      "Simulation": 8611,
      "centralized": 8612,
      "repository": 8613,
      "Pharmacy": 8614,
      "suggest": 8615,
      "dictionary": 8616,
      "Investment": 8617,
      "RDBMS": 8618,
      "savvy": 8619,
      "Sponsorship": 8620,
      "Maryland": 8621,
      "energetic": 8622,
      "pertinent": 8623,
      "Cruise": 8624,
      "Dashbo": 8625,
      "Daily": 8626,
      "Each": 8627,
      "Effor": 8628,
      "Github": 8629,
      "HE": 8630,
      "Sigma": 8631,
      "Women": 8632,
      "Zill": 8633,
      "db": 8634,
      "eight": 8635,
      "fire": 8636,
      "keen": 8637,
      "patch": 8638,
      "ton": 8639,
      "##cable": 8640,
      "##ox": 8641,
      "##lig": 8642,
      "##uperv": 8643,
      "##omel": 8644,
      "compassion": 8645,
      "weak": 8646,
      "systematic": 8647,
      "strict": 8648,
      "intervention": 8649,
      "transaction": 8650,
      "##frames": 8651,
      "Emerg": 8652,
      "##ember": 8653,
      "conducts": 8654,
      "tested": 8655,
      "Final": 8656,
      "sponsors": 8657,
      "specializing": 8658,
      "signed": 8659,
      "Contributes": 8660,
      "reflection": 8661,
      "constant": 8662,
      "auto": 8663,
      "viewpoints": 8664,
      "debt": 8665,
      "satisfy": 8666,
      "Networks": 8667,
      "substitu": 8668,
      "Subm": 8669,
      "summarize": 8670,
      "benchmarking": 8671,
      "stewardship": 8672,
      "Eastern": 8673,
      "recruiters": 8674,
      "physicians": 8675,
      "PNNL": 8676,
      "Mobile": 8677,
      "counterpar": 8678,
      "##upervised": 8679,
      "OCH": 8680,
      "Vend": 8681,
      "Way": 8682,
      "green": 8683,
      "ranking": 8684,
      "##ged": 8685,
      "##BR": 8686,
      "##Care": 8687,
      "##ertain": 8688,
      "##itter": 8689,
      "inception": 8690,
      "##eccable": 8691,
      "##acco": 8692,
      "orders": 8693,
      "##idos": 8694,
      "##employ": 8695,
      "manufactur": 8696,
      "impeccable": 8697,
      "##ervation": 8698,
      "adequ": 8699,
      "skillset": 8700,
      "Requisition": 8701,
      "##angling": 8702,
      "individualized": 8703,
      "Adhere": 8704,
      "everywhere": 8705,
      "trainings": 8706,
      "offshore": 8707,
      "complicated": 8708,
      "Provider": 8709,
      "annot": 8710,
      "Microservices": 8711,
      "served": 8712,
      "Verizon": 8713,
      "reaching": 8714,
      "educate": 8715,
      "Continually": 8716,
      "HRIS": 8717,
      "iterates": 8718,
      "NOT": 8719,
      "loan": 8720,
      "PHY": 8721,
      "Standards": 8722,
      "Two": 8723,
      "##graduate": 8724,
      "ESG": 8725,
      "##thetic": 8726,
      "appreciate": 8727,
      "##rypto": 8728,
      "straightforward": 8729,
      "Represent": 8730,
      "discrepancies": 8731,
      "stretch": 8732,
      "tremendous": 8733,
      "BENEFITS": 8734,
      "counterparts": 8735,
      "99": 8736,
      "Cour": 8737,
      "DNA": 8738,
      "EQ": 8739,
      "HQ": 8740,
      "LA": 8741,
      "Migration": 8742,
      "NA": 8743,
      "OH": 8744,
      "Roles": 8745,
      "Satis": 8746,
      "SPI": 8747,
      "ble": 8748,
      "secur": 8749,
      "vs": 8750,
      "##EE": 8751,
      "##LY": 8752,
      "infrast": 8753,
      "commissions": 8754,
      "cool": 8755,
      "Residents": 8756,
      "##plement": 8757,
      "outlined": 8758,
      "Embr": 8759,
      "##ather": 8760,
      "statement": 8761,
      "Train": 8762,
      "governments": 8763,
      "guideline": 8764,
      "posture": 8765,
      "Park": 8766,
      "Elas": 8767,
      "enablement": 8768,
      "weekends": 8769,
      "becoming": 8770,
      "ceremon": 8771,
      "instantly": 8772,
      "Altery": 8773,
      "Implements": 8774,
      "aspir": 8775,
      "interfacing": 8776,
      "attributes": 8777,
      "Mozilla": 8778,
      "Ensuring": 8779,
      "elevating": 8780,
      "caregiving": 8781,
      "Pipeline": 8782,
      "##sych": 8783,
      "Attend": 8784,
      "exploit": 8785,
      "Michig": 8786,
      "formerly": 8787,
      "##related": 8788,
      "indirect": 8789,
      "grasp": 8790,
      "OCHIN": 8791,
      "Alteryx": 8792,
      "AG": 8793,
      "Dr": 8794,
      "Engine": 8795,
      "Mad": 8796,
      "MIN": 8797,
      "Oreg": 8798,
      "Pan": 8799,
      "cat": 8800,
      "cam": 8801,
      "cogn": 8802,
      "dr": 8803,
      "hol": 8804,
      "##IA": 8805,
      "##Me": 8806,
      "##40": 8807,
      "##eras": 8808,
      "##orily": 8809,
      "##tude": 8810,
      "degrees": 8811,
      "neuro": 8812,
      "preprocess": 8813,
      "creators": 8814,
      "##flix": 8815,
      "branch": 8816,
      "oblig": 8817,
      "issued": 8818,
      "frontier": 8819,
      "Agencies": 8820,
      "express": 8821,
      "informal": 8822,
      "connectors": 8823,
      "prioritized": 8824,
      "Coast": 8825,
      "118": 8826,
      "Overtime": 8827,
      "##ectrum": 8828,
      "Platforms": 8829,
      "167": 8830,
      "advisors": 8831,
      "routing": 8832,
      "##LED": 8833,
      "Netflix": 8834,
      "licenses": 8835,
      "counsel": 8836,
      "repositories": 8837,
      "Auto": 8838,
      "satisfactorily": 8839,
      "resonate": 8840,
      "##employment": 8841,
      "infrastructures": 8842,
      "Oregon": 8843,
      "51": 8844,
      "66": 8845,
      "BO": 8846,
      "Cost": 8847,
      "Gold": 8848,
      "Hor": 8849,
      "Hel": 8850,
      "Mac": 8851,
      "NI": 8852,
      "NG": 8853,
      "Pandas": 8854,
      "bargaining": 8855,
      "dive": 8856,
      "##aM": 8857,
      "##ike": 8858,
      "##cology": 8859,
      "##bre": 8860,
      "reproduc": 8861,
      "relating": 8862,
      "trace": 8863,
      "##ticsearch": 8864,
      "interventions": 8865,
      "alloc": 8866,
      "technically": 8867,
      "union": 8868,
      "##ributions": 8869,
      "bridge": 8870,
      "Perl": 8871,
      "Payroll": 8872,
      "Options": 8873,
      "specialize": 8874,
      "Transformation": 8875,
      "Relationship": 8876,
      "mentality": 8877,
      "allowance": 8878,
      "inspiration": 8879,
      "ICD": 8880,
      "construct": 8881,
      "Student": 8882,
      "Regularly": 8883,
      "subsidiary": 8884,
      "##inois": 8885,
      "correlations": 8886,
      "widely": 8887,
      "substanti": 8888,
      "spreadsheets": 8889,
      "Illinois": 8890,
      "tickets": 8891,
      "Acceptance": 8892,
      "##FERRED": 8893,
      "Adoption": 8894,
      "##lympus": 8895,
      "PREFERRED": 8896,
      "agric": 8897,
      "Elasticsearch": 8898,
      "Michigan": 8899,
      "Fem": 8900,
      "Get": 8901,
      "Point": 8902,
      "SU": 8903,
      "bond": 8904,
      "fant": 8905,
      "##coming": 8906,
      "##mn": 8907,
      "##ethe": 8908,
      "##WA": 8909,
      "##PPA": 8910,
      "##BS": 8911,
      "##ony": 8912,
      "infra": 8913,
      "##ara": 8914,
      "##economic": 8915,
      "##uris": 8916,
      "exact": 8917,
      "##asm": 8918,
      "apart": 8919,
      "prev": 8920,
      "Anch": 8921,
      "underwriting": 8922,
      "regards": 8923,
      "considers": 8924,
      "buildings": 8925,
[...]
