[PAD]
[UNK]
[CLS]
[SEP]
[MASK]
!
"
#
$
%
&
'
(
)
*
+
,
-
.
/
0
1
2
3
4
5
6
7
8
9
:
;
<
=
>
?
@
A
B
C
D
E
F
G
H
I
J
K
L
M
N
O
P
Q
R
S
T
U
V
W
X
Y
Z
[
\
]
_
`
a
b
c
d
e
f
g
h
i
j
k
l
m
n
o
p
q
r
s
t
u
v
w
x
y
z
{
|
}
~
¡
£
§
©
®
°
²
´
·
»
½
¿
Â
Ç
Ø
à
á
â
ç
è
é
í
ñ
ó
ô
ú
ü
ÿ
ē
œ
Γ
‐
‑
–
—
‘
’
“
”
•
…
€
™
⅔
▪
●
✅
【
】
ﬁ
ﬃ
️
##a
##r
##i
##s
##c
##o
##m
##f
##t
##h
##k
##e
##l
##d
##H
##N
##u
##n
##g
##®
##p
##y
##7
##b
##x
##3
##v
##5
##1
##0
##6
##W
##P
##8
##9
##w
##I
##R
##E
##2
##T
##z
##O
##D
##B
##q
##U
##J
##G
##Y
##S
##C
##L
##Q
##X
##M
##4
##A
##F
##í
##K
##™
##€
##œ
##Z
##j
##é
##V
##ﬁ
##á
##ñ
##â
##ó
##°
##ç
##´
##ú
##²
##Ç
##ô
##ﬃ
##ē
##è
##️
##ÿ
##ti
##er
##nd
##on
##in
##es
##en
##or
and
##al
##at
##it
##tion
##ing
th
##re
##ro
in
to
##an
##ed
##ent
##ar
##el
##ation
##il
##ic
the
##ec
##ou
##st
##ce
##om
of
##le
pro
##si
##ment
##ol
##ith
##ur
with
##ng
##ve
##ac
##pl
##is
or
##per
##ity
re
##ess
##ien
##ge
for
com
##ers
ex
##am
##ata
##th
##ig
##as
##ork
st
an
##ate
##id
##ab
##et
##ience
##ting
##uc
##us
##ill
##ts
data
##ev
##qu
##perience
is
##ri
##for
you
##por
as
##tu
##ear
work
##ul
con
##em
##tic
##ir
##op
##ow
##ine
on
##ter
##form
##ations
##ay
##ly
comp
ac
##oc
##ire
##eam
our
##ech
##ual
##evel
be
##ance
ap
##are
##od
team
##ust
##im
##sion
##ot
en
##ad
##echn
##if
##iti
##and
##age
##aly
##ppor
##oy
will
##ain
are
##ility
experience
##ploy
##iv
##duc
##iz
Ex
##ch
inc
##ud
##ect
that
techn
##og
em
##iness
us
##evelop
##usiness
##un
##ut
appl
##cess
##ies
Th
we
##tive
cl
incl
##ical
##quire
de
res
ne
##ities
rel
##ob
##ngine
##ap
su
al
##gr
We
##able
##tions
##ble
##ments
##est
##ke
im
analy
wh
##ip
business
##os
man
produc
pl
develop
includ
applic
##ach
##ated
##end
##ard
employ
comm
at
##yst
##ystem
##ver
##olog
##ngineer
##our
##fer
tr
##ther
In
imp
##ild
##ture
##ell
##ign
Experience
year
sol
##rou
le
##erv
##uild
sc
##fic
##rom
##kill
##ient
dis
require
int
##vid
##tiv
Pro
##ave
your
ch
##bility
##um
##ag
##art
system
##igh
##eal
##ast
##kills
by
build
ind
process
##00
rec
##ary
##oll
St
po
##tun
##of
per
##ates
including
##enti
years
##ans
##ervic
other
##ase
##pon
##esign
##now
##gh
##ack
##pportun
##ure
##agement
##ware
You
The
ad
##ely
##out
from
technolog
##oft
suppor
Com
##ealth
provid
##earn
##ene
str
skills
##ustom
##ore
##ong
##ss
##ew
##act
this
tim
##ee
acc
##ant
##ous
##ational
have
##ake
##formation
##tics
##king
##anc
##led
##ial
ro
##gram
custom
##ital
##ilities
inter
##nder
solu
##ability
##sition
##ific
suc
commun
##ision
Data
all
pre
##ens
##elp
need
cont
##ative
mod
development
##ace
An
proj
##its
pr
##ail
not
qual
lead
Re
##nowled
opportun
##oftware
##atus
product
##nowledge
design
##hip
status
##ating
time
support
##sis
role
##ange
##ld
##ree
systems
##ngineering
help
compan
id
##enef
##ps
technical
me
##ross
##ponsi
solutions
##tional
sh
##stand
##ist
sp
co
##ff
their
teams
servic
perform
##ienc
cre
##tical
##ization
##ote
##lex
learn
##sur
##ry
program
##ere
##ors
env
Sc
under
position
##enefits
Comp
##ru
##iron
##row
management
Work
##alu
##abor
exper
ab
environ
part
tool
software
##eliv
bas
##ex
information
more
##ven
new
high
##ollabor
##tain
requirements
##eliver
ll
Analy
##all
communic
##tis
model
##omm
fi
##gree
loc
##ov
working
related
any
equ
##ited
##red
##ia
##ects
##igi
deliver
un
identi
##ession
##oo
##gan
##vi
client
##ep
imple
reg
op
dri
Res
##ruc
health
based
##rough
##ateg
##eop
##egr
##eter
##ang
Our
##oud
tools
##unc
This
##ence
##pr
company
repor
##oun
##eople
consi
##itt
##andid
Wh
do
technology
organ
knowledge
analysis
environment
li
##der
go
##ied
Ac
trans
understand
##ines
As
##ected
sex
##min
Man
across
##ferred
##ifications
##blem
##ving
care
through
##surance
best
mar
##ile
employment
indust
##tim
AI
building
may
##cri
##oin
##ues
##alent
func
##uter
problem
benefits
##enc
##mentation
##sive
##earch
grow
provide
##atform
fu
##iting
processes
well
##achine
ar
##eral
people
##arge
##fr
##ful
prot
##ees
integr
engineering
candid
##atch
Con
oper
can
##pro
services
learning
##apital
impro
##ocu
##ructure
##lease
such
customers
strateg
##ne
into
000
##ple
disability
##aw
##ivers
Require
opportunity
required
##ks
##eld
Ability
##orld
industry
using
out
##nal
##ecur
##ome
Develop
Pre
about
##ord
Em
##alary
scal
main
##ub
##ender
##ower
##nov
quality
up
##ecurity
##aid
##ivid
##ost
pri
##ividual
##ures
world
##rib
##bilities
application
##ari
##one
degree
gender
performance
##ards
platform
inv
within
employees
collabor
##ose
##ants
##ound
##ite
##ruiting
valu
products
job
##ty
##ership
##fl
Qual
##old
responsi
##cep
##frast
##very
projects
##ize
Ap
##view
Capital
##yp
rem
##ocus
##ulti
docu
##ffic
##frastructure
complex
##sure
##tives
technologies
spec
project
##irec
prac
par
pers
##round
##QL
##ental
needs
ability
##ull
innov
##tively
multi
field
level
Job
range
##fy
Str
improve
ma
##ise
who
individual
Py
consider
focus
insurance
appro
vari
At
Un
ag
Employ
##aining
applications
Rem
Engineer
cloud
col
##utom
##fession
##br
customer
##av
opportunities
##fessional
communication
##ond
##lob
##ays
sub
adv
maintain
Remote
##str
##ffec
pay
##ory
##abilities
If
assi
##hold
##so
##etw
##ead
rob
##ommod
##tin
like
##ount
Ad
##ath
orient
functional
it
##irm
national
For
infrastructure
also
One
##tific
Health
Business
##ner
fin
use
Cl
manag
disc
##iqu
##lobal
dec
ass
##ll
##ide
##ue
success
Science
models
divers
##emb
Qualifications
##ics
law
end
##edical
Strong
##chit
##olic
lif
Responsi
##sigh
stake
##achel
ensure
##ior
##ets
every
##cell
##ized
direc
research
person
##ission
ev
##amil
effec
##ified
offer
apply
##di
##itted
one
##ensation
ML
Met
##thon
##ould
protected
machine
training
accommod
##ents
##ten
##emon
##atis
##iency
Bachel
sim
fe
##ode
optim
back
qu
SQL
Python
US
##emonstr
decision
clients
Servic
##holders
loo
autom
plan
memb
dep
##01
el
talent
analytics
##tices
large
Analyst
##ning
cap
##les
cul
##ourc
tes
##ential
sexual
Engineering
##ish
make
ow
religi
stand
applicants
practices
stakeholders
Bachelor
##crip
applicable
##ducation
Rec
security
##ratch
##ey
veter
off
Appl
relev
##gn
exp
##ederal
professional
br
multiple
how
##ticip
Preferred
Computer
##eng
##igin
remote
##ancial
What
race
##ight
##inim
##ie
Responsibilities
origin
understanding
##ribut
regard
Pl
effic
see
Management
vis
##ass
##ich
##ution
organization
salary
##PI
relevant
def
insigh
strong
cons
##ash
##thod
color
ob
##lexi
looking
Meta
IT
science
orientation
Learn
##WS
iss
implement
but
##ection
##tise
United
##ources
experienc
AWS
identity
religion
##ever
##ject
problems
please
##itiz
Techn
committed
##ive
conn
identify
##ion
create
##ases
method
state
##enior
De
candidate
Knowledge
join
archit
robo
##etail
Lead
them
culture
impact
ph
##ety
over
requ
##ource
##care
age
hour
##nds
##erm
programs
internal
##tc
include
clos
prior
##ener
##als
star
##ipel
qualified
cri
cur
##cellent
##Ops
##reat
veteran
##tt
fr
Su
##ness
##ove
vision
etc
future
deploy
has
leading
compensation
##ency
employer
inclu
meet
gu
ver
##angu
analytical
issues
htt
##ocation
insights
En
real
##etwork
pos
without
##ern
##af
regul
mark
##ubl
reports
All
contin
##ently
full
growth
##vern
Equ
service
##ngineers
polic
##ipl
documentation
cond
##ason
##inimum
am
pipel
##ages
States
https
##itor
##ties
what
bo
##ings
datab
ww
www
user
wr
##rol
equal
driven
conf
location
medical
Required
engineer
which
recruiting
##ners
hard
mon
##ellig
set
found
##igital
##par
##ertific
100
analyz
Dev
developing
direct
Ab
preferred
##tr
##ales
expertise
eligi
scale
##ys
##lear
reporting
exec
Tr
##ublic
Design
##ick
##ollow
chall
##se
companies
organiz
life
various
##ology
##ieve
must
API
key
##ched
##sts
drive
00
hire
Collabor
##ommend
##tual
sel
To
federal
they
##ground
##eti
financial
closely
401
where
##pec
leadership
testing
About
pres
value
au
detail
bel
##acy
Location
review
Opportun
Requirements
code
##terpr
mat
paid
##ilit
des
##oci
##irst
mission
##itment
pur
##anced
innovative
candidates
global
initi
Ph
comple
employee
access
##ock
compl
market
##te
##iques
##ming
follow
##ese
Comm
assist
dif
most
rece
recommend
base
Cre
computer
techniques
##lexible
resul
##ensive
network
Az
Go
##terprise
Fr
Per
##ands
Opportunity
Ch
capabilities
Azure
reason
cross
##ward
Provid
providing
##ilar
invest
engineers
highly
similar
##elligence
Dis
Excellent
both
term
DevOps
##ditional
background
chang
##itten
own
get
implementation
##icro
diverse
control
local
differ
plans
enh
##less
members
written
##etitive
##sible
Acc
curr
Applic
web
##ework
fast
Int
Compan
Please
##cle
##ally
##uct
##TI
langu
healthcare
Learning
lim
Information
##vail
ann
digital
##place
while
firm
##iar
career
Benefits
pack
##ogn
Ar
platforms
decisions
##assion
##ify
able
##amiliar
fund
challeng
##enting
##pri
##rap
Recruiting
10
statis
##iance
deep
Demonstr
plus
##yn
pipelines
successful
##reh
##ration
met
##aries
startu
##til
##ienti
enc
govern
Your
Produc
##cription
change
tre
non
bring
##ak
##iring
##sc
individuals
responsible
##amework
avail
##epend
programming
##EO
solving
Equal
evalu
education
##ficiency
##ivalent
experiences
automation
dist
##ows
public
##rehensive
auth
##etter
find
offic
Cloud
core
##uring
Des
fac
specific
these
needed
##ype
form
particip
##izing
20
integration
Senior
some
New
emp
equivalent
##ternal
Ag
each
seeking
Pay
operations
##ecture
##bo
Suppor
eligible
tas
approach
effectively
Inc
cost
##de
making
results
Machine
subject
standards
Service
Collaborate
accommodations
##ycle
##ort
Company
##atives
##thers
reasonable
##co
##abl
##ition
##uous
least
areas
visual
framework
Salary
sm
##keting
following
##inc
take
##ift
delivery
annual
System
if
transform
##ind
should
way
modeling
others
concep
##port
encour
long
manage
users
##amiliarity
##olid
##pers
day
email
open
lever
char
##erg
play
strategy
Software
Perform
##isting
being
Analytics
first
ris
##uties
receive
strategic
deter
comprehensive
Am
guid
class
Create
##illion
test
Care
clear
Power
action
passion
##ink
partners
##pose
inclusive
hardware
##icros
when
##rive
##raph
##standing
list
eng
##ffor
compliance
##crimin
Id
startup
trends
##ologies
expr
communicate
activ
consist
##eed
goals
Degree
external
##uman
Range
gener
##ule
Skills
architecture
##onus
##ves
ach
independ
great
##ON
operational
enhance
##tern
Minimum
##ape
depend
Or
##onom
leg
accommodation
##ries
##ber
know
##ati
existing
Services
package
enterprise
##ier
appropri
author
Product
Team
phys
assign
present
Fin
workplace
monitor
Jav
expression
Paid
##olution
Im
power
available
##artment
##ice
ser
assistance
critical
Full
stor
initiatives
##gin
accur
fact
gene
diversity
production
hours
record
current
##ced
limited
creating
##ult
Micros
locations
Manag
##ationship
account
Program
add
consideration
##chedule
managers
##ering
Must
marital
ensur
than
post
##asis
##from
##ade
Mod
Scratch
efficiency
recruitingfrom
##scratch
recruitingfromscratch
##force
right
##evelo
discrimin
coll
Java
around
##omes
supporting
variety
ques
##aff
posi
statistical
so
##aster
competitive
uniqu
ec
its
##ancy
solution
Familiarity
personal
offers
Sh
##olve
recogn
relationship
##ali
analyze
Microsoft
##ables
solve
Exper
appropriate
Par
##mary
##edic
##pons
##ynam
only
Build
obj
certific
##ES
activities
aud
Description
tasks
##brid
##roup
contr
does
##utions
no
top
align
demonstr
strategies
Identi
prom
Global
Vision
##ress
##itions
LI
Under
##hous
exc
contact
values
verb
##een
Assi
Technology
better
efficient
read
Be
##titu
associ
investors
##ypes
processing
assess
util
##site
##minal
##ybrid
purpose
##isco
##ural
collaboration
sources
##minist
office
Type
upon
##aging
effective
fl
##day
##oles
##ordin
Provide
##air
##alid
##aces
##eep
policy
##cedures
##ime
environments
here
objec
Proficiency
challenges
##ests
##encies
share
##tract
##atory
factors
questions
No
##ulting
intelligence
##io
designing
##bles
feat
verbal
Education
famil
##oint
concepts
##app
achieve
big
##uting
subm
improvement
Employment
genetic
ensuring
BI
San
track
Support
inform
conc
businesses
##ense
##IS
funded
##acter
equity
El
##rics
##roubles
##roublesh
match
staff
innovation
Time
cent
databases
Oper
##ribute
flexible
continuous
##gether
recommendations
Dental
hiring
##ema
##cept
ful
community
basis
##ires
##tire
those
responsibilities
##gnancy
directly
##stabl
character
##stablish
##back
workfl
feed
##arehous
frameworks
prem
database
sales
##aced
Working
methodologies
##ough
pregnancy
organizational
##ream
policies
small
serv
leave
shape
different
Are
es
##arly
advanced
roles
optimization
##avel
effor
procedures
Employer
##ributed
##ashbo
bonus
##rip
outc
CD
enable
disabilities
planning
valid
cover
managing
resources
Cali
##eg
growing
connect
Development
Systems
communities
##ically
delivering
Pri
SA
##forn
##otential
##fornia
Ver
wide
Lif
betw
between
##ining
California
LL
##TL
ext
Pw
##aving
Ind
##ses
PwC
##erc
provides
spons
scienti
##ucture
structure
cor
marketing
note
methods
distributed
includes
Who
dynam
Additional
characteris
focused
Agile
York
##tice
self
Pr
##ights
Cond
saf
##riting
used
empower
##iew
##ssential
potential
##inical
202
address
there
##ancisco
Francisco
unique
ge
Op
relationships
dashbo
State
modern
complete
consum
Employee
Model
discipl
proud
##qui
##olidays
##omain
robotics
metrics
consistent
special
independently
paced
##eeting
objectives
##yond
beyond
ETL
##iter
feedback
##ograph
member
##vers
##use
ide
languages
robotic
##ms
resp
transl
##ecess
Gener
##ules
contrib
responsibility
expl
With
incen
criminal
##sess
##tor
Technical
conditions
assigned
##au
prioritiz
stack
##itizens
dynamic
free
hear
upd
Manager
document
possible
On
considered
quick
Assist
##athema
Mon
##eric
##eneral
been
##tivity
develo
CO
trust
nex
leader
necess
stud
helping
config
meeting
vac
applying
15
12
vir
compon
define
Co
Demonstrated
laws
next
Offic
##pos
Vir
duties
ed
scalable
Cons
deployment
Medical
tech
Part
source
recru
gr
Exc
wee
Cor
domain
##menting
priv
contract
pati
##ha
commitment
dental
sign
##ginia
Certific
outcomes
##pre
##ives
founding
##osition
risk
Adv
##acing
reli
functions
Cont
hist
home
accord
CA
##fied
sets
##tal
monitoring
ins
ment
Life
government
Master
necessary
collaborate
request
believe
Commun
Sr
Sales
human
organizations
eth
today
quickly
##side
##ffirm
##ilitary
##ecycle
ve
total
Security
partner
##Ms
Excel
Ass
##pt
experienced
##PA
Found
Veter
during
implementing
Insurance
advance
expect
super
gath
warehous
##wards
##ffirmative
meas
##arg
It
maintaining
CI
mo
##uce
works
establish
mak
optimize
site
##flu
serve
Ro
amb
##ax
Do
poin
Act
good
##dition
bec
##equ
##TE
standard
cer
##cript
##action
addition
19
resum
collaborative
##ately
##assi
##ute
##ceptional
child
##ope
resource
Process
Americ
want
##orith
##ocial
Identify
geograph
Bas
##gorith
##line
date
minimum
##tention
colle
200
##iversity
matter
dashboards
Schedule
car
##ook
##pecial
##CA
Crow
days
senior
##RE
leverage
##itizenship
##illions
manner
shift
move
##edi
quer
direction
visualization
##ply
interview
clinical
##kend
##TION
holidays
princ
connection
Office
algorith
##pres
qualifications
import
ownership
scrip
##ause
additional
listed
together
accept
chec
changing
Mar
ideas
##ric
##ib
family
APIs
just
##ra
focuses
Flexible
military
Integr
Can
##ame
efforts
##illing
Plan
report
would
##anti
Vent
Cent
Dep
via
skill
area
tests
progr
posted
features
CEO
##havi
regarding
Table
sev
careers
language
writing
##inking
##orship
bu
now
##here
pred
##ences
targe
Crowe
comb
love
##uity
bro
workflows
motiv
even
inclusion
Trans
##aim
##aning
Reg
coordin
Inter
contribute
lifecycle
determin
road
abilities
##ackend
specifications
Tableau
##uration
refer
##ved
emerg
Proven
Virginia
MS
dev
##onal
Professional
##ired
sec
50
Join
talented
Conduct
social
inst
everyone
EEO
execution
18
Al
architect
Ventures
changes
##cc
start
##oad
##Now
##iples
website
Operations
virtual
evaluate
pat
ServiceNow
##oot
ret
##ercial
##oring
sit
Rel
reven
11
##ges
several
Main
larg
##lu
travel
month
analyzing
refl
confid
encourage
Position
##edia
mi
call
##joy
priorities
approaches
red
Application
mach
##vision
##tig
levels
dem
again
Role
essential
Ser
search
reim
##porate
##ticul
##vious
##thing
Communic
Over
##ination
scre
dedic
##mine
##ories
regulations
##ton
cho
##ices
physical
##az
const
##ificant
Intelligence
algorithms
##apid
visit
Eng
discriminate
City
##SQL
requires
##bur
place
consulting
##CP
thinking
participate
guidance
Department
num
structured
discipline
edge
##xim
##osystem
##ounts
passionate
content
##ministration
safety
components
Particip
count
##EN
setting
Apply
revenue
##fine
Candid
citizenship
principles
Custom
important
machines
##16
regulatory
repres
makes
##atively
lay
Monitor
prefer
discre
##etes
##fort
inves
legally
Sol
mental
##sel
many
ecosystem
DF
##ecting
willing
##ectr
applied
obtain
ban
hand
premier
##fore
analyses
driving
cy
##mar
spend
fully
##eness
##TO
##iger
cases
operating
rapid
##peed
bi
##VI
##SS
libr
bal
##amp
Compensation
Research
transformation
##ensor
positions
associated
Analyz
agency
run
oriented
Accel
imm
##tirement
##raf
##urther
##tificial
Platform
##roups
throughout
quanti
Tiger
governance
##athematics
800
leaders
broad
performing
bre
##ted
pattern
emerging
Sequ
har
##ector
predic
Bl
integrity
##sw
Verify
Basic
##AL
##irth
##ada
Federal
made
##ators
log
##ont
##ily
Maintain
placing
proven
##cellence
##acts
expert
Hybrid
##nel
datas
Action
Archit
##map
troublesh
scope
##enefit
offered
automated
##oia
##BI
Eligi
Sequoia
Project
expand
fost
attention
deliverables
general
Lights
provided
Well
##utting
Applicants
actionable
Lightspeed
25
Us
storage
14
Statis
significant
##ogle
determine
ambig
##burse
A16
##hib
DFJ
A16Z
##AR
##iences
##ney
Disability
High
ent
perspec
Google
Code
##ably
live
along
Scienti
Advanced
Kub
##oing
Analysis
##Script
progress
roadmap
Pur
influ
##otypes
##lexibility
serving
Git
exceptional
##agues
incentive
##arter
hands
intern
interpre
developers
CV
##akes
Polic
meaning
scientists
Financial
##ceed
overall
meetings
People
RE
thrive
agile
SD
##ature
##sions
depending
accuracy
certifications
##ER
##ernetes
Phil
Careers
Imple
Clear
##aun
##SA
##tenance
agencies
Sum
dedicated
discretion
30
Direc
lives
asp
applicant
##ances
behavi
##jor
##orth
analysts
feel
USD
commercial
ideal
department
week
motivated
patterns
port
send
incre
Use
##ik
##ancing
facilit
Kubernetes
##ficient
identifying
colleagues
order
functionality
reviews
##tative
documents
datasets
##ways
stream
answ
requests
Ensure
##aking
authorized
less
##ird
##bed
vend
##urn
forward
investig
further
##ling
##ulation
possess
##SI
Rev
defin
Fair
dead
Contract
Autom
Boo
##ator
minds
##fulness
##park
Group
integrate
Finance
backend
##birth
prof
claim
Repor
coverage
Have
Allen
laun
##elines
robust
childbirth
integrated
##personal
##up
deploying
Booz
Tensor
##otely
##estry
##ourney
##aged
experts
party
##ength
could
##ood
##elling
above
conduct
capital
##ral
maintenance
detailed
quantitative
##low
reach
##ification
maxim
Manage
Col
Understanding
cutting
Sp
##tified
basic
against
##bursement
think
enjoy
##pare
##olving
timely
major
From
##cestry
fields
##lines
meaningful
##empt
resolve
recruitment
cod
ways
500
##BA
##ado
Out
vary
exten
characteristic
groups
recognized
check
Post
America
49
##point
often
Govern
creation
remotely
estim
respect
13
Affirmative
##igration
interpersonal
execute
libraries
vol
##uch
Customer
benefit
secure
provider
hired
mind
##eler
interest
improving
eligibility
successfully
Langu
challenging
##icity
##osp
creative
educ
##iod
workforce
interf
updates
professionals
##parency
Solutions
CVS
Summary
Red
##duce
##udge
contain
##rug
ele
##nership
come
third
excellent
continue
And
analytic
##ounting
improvements
Veterans
##sh
##titude
##OR
##ither
risks
typ
##esting
##itle
Sec
rules
authorization
AD
##izes
sup
Infrastructure
let
##ists
ancestry
fit
line
##fact
##alk
computing
certification
ethn
PTO
happ
inqui
Previous
Enterprise
Language
posting
rapidly
May
##put
ambiguity
deadlines
att
acceler
details
due
##ux
##ashing
cle
##ident
econom
piv
according
expectations
arr
Healthcare
certain
##fication
format
translate
Off
##erial
Frid
backgrounds
productivity
aut
flexibility
##ters
artificial
researchers
Duties
##oving
contributions
lat
##gment
##TA
though
Models
##RA
Resource
networking
physics
##ashington
##ease
outside
Washington
tun
##adata
##ooting
##ocker
16
##Flow
##alaries
energ
Scientist
either
period
##fortable
Analyze
offerings
integrating
things
accurate
Partner
configuration
Special
Client
expected
Overview
Pos
hybrid
##apt
positive
pe
options
excited
##acle
##ustain
findings
shar
below
facing
discrimination
drug
##asting
sponsorship
group
mob
Competitive
sur
vi
strength
Contin
##LP
##own
##iving
discus
##avings
discretionary
Mond
##rum
##arm
cred
pipeline
Ev
Human
function
mindset
LLMs
screens
Friday
Docu
##overy
resume
inquiries
Other
Ter
measure
cour
Oracle
Center
HR
don
##BM
parental
robots
determined
Spark
Monday
##aS
proficiency
##ructured
##ening
##sibility
manual
##ix
Why
When
geographic
before
Works
finance
optimizing
Docker
##bers
##book
##ngoing
excellence
online
engagement
##uition
energy
Br
##active
practice
consumer
prioritize
##EC
Canada
##fter
embr
Equity
leveraging
heart
queries
Candidates
##fol
banking
##aaS
Inst
Statistics
Public
engage
privacy
Best
##ele
wellness
Open
cycle
partnership
communications
Strateg
balance
retirement
180
Participate
budge
moving
proper
There
nor
##flow
confirm
Big
actual
builds
journey
##wide
##ilt
space
RES
schedule
view
##ging
solely
collaborating
consult
Mathematics
Title
sustain
##ug
##ank
exempt
confidential
GCP
##ious
forec
relational
advis
point
##where
##IT
##itable
rev
networks
concise
characteristics
##Point
short
participates
submit
##ct
##atal
produce
deal
allow
foundational
analyst
industries
clearance
AN
##structured
Troublesh
ongoing
##ka
##lock
Key
##OU
##asing
Review
coding
Here
doc
toward
deb
##artments
predictive
DB
Face
Lin
##ored
Marketing
autonom
unstructured
TensorFlow
why
empowered
satis
##CATION
Willing
Law
path
worked
chance
amount
transforming
##go
##IN
guide
history
##ols
##aints
departments
scripting
perspectives
Terra
adop
material
JavaScript
patient
prohib
##acting
##echan
creed
generation
SAS
##ether
prepar
evaluation
warehouse
##uts
Generative
involve
sched
##mental
401k
terms
thought
Help
Le
cash
reliable
rang
propos
Area
Terraform
40
Ow
cal
encouraged
23
Sel
##CE
##ised
Leg
always
extr
Account
presentations
utilizing
##folio
Up
##repr
compet
legal
Proficient
##eneur
gathering
##repreneur
patients
Policy
##atic
##ping
extent
purs
center
insp
Func
##oming
Associ
troubleshooting
Site
iter
sing
##iles
Web
##elc
gather
ship
providers
vacc
number
Valu
currently
Understand
Salesforce
target
Linux
ear
##actively
depth
descri
2023
##older
controls
layer
talk
win
##ones
##rier
Founding
aspects
latest
Large
actively
execu
collection
Consulting
struct
statistics
built
largest
##ectron
occ
##icks
##ular
150
behavior
##aud
##quisition
ID
enti
Expertise
devices
Year
##iev
##ext
stories
##oph
##aily
presentation
fulf
situ
Lab
##izations
helps
Quality
reimbursement
interpret
exam
getting
Certification
single
SO
##MS
##tune
Cer
VA
entire
##ferences
practical
Automation
billions
##gre
equip
goal
keep
minim
oral
Vis
means
seek
##elebr
##atalog
strive
det
enabl
submitted
mechan
##ili
primary
validation
combination
##roll
##chest
particul
regular
Facebook
##eat
mobile
unit
##ished
Individual
welc
##umenting
##rop
everything
Priv
Prior
page
##ots
states
higher
USA
because
Deep
##ief
alignment
typical
revolution
Grow
millions
##MP
Plaid
choose
140
claims
Reporting
scientist
How
OR
##enge
celebr
coach
Fortune
reality
categ
sch
train
interests
defining
Architect
Network
sti
##ML
##ater
promo
influence
Digital
HI
tel
Scal
Snow
architectures
##holder
##ufact
adapt
corporate
link
clust
requirement
times
entrepreneur
Day
##flake
Server
constr
app
Director
Engineers
sector
##ield
classi
acces
reliability
educational
##DI
doing
##bricks
##eadqu
accordance
Clearance
##serv
transfer
Responsible
trusted
ethnicity
low
enabling
##CS
##iction
tooling
prototypes
portfolio
documenting
Def
facilitate
Bay
##ret
Diversity
advancements
##antly
Access
##torch
neural
experi
much
side
##icense
##play
Databricks
Philip
credit
##idents
spe
App
CR
Stu
resolution
##istic
designed
events
demonstrated
Qu
hoc
##kin
##work
They
Career
Pytorch
evolution
##TIES
matching
become
Snowflake
IS
Nice
early
##ective
located
Chance
tracking
Implement
60
eas
##actions
##ending
succeed
challenge
break
##IL
audiences
21
after
##unior
international
sharing
##bersecurity
IC
##orough
orchest
Troubleshoot
##OS
common
description
demand
constraints
scalability
##apping
resumes
201
90
Able
vacation
institu
Eligibility
autonomous
Car
comfortable
##aps
manager
enhancements
aid
er
Hands
aptitude
##utes
##essions
Real
##ios
##etary
operate
completion
Demonstrates
SAP
Certified
Leadership
recognition
histories
Privacy
min
##tiveness
##time
Suc
SaaS
ra
##int
administration
owning
corre
rou
##iem
##ery
##ince
##abled
Administration
among
initiative
centric
vers
##itizen
##versee
##iemens
24
ter
##und
towards
uses
collaboratively
mentoring
construc
daily
tw
##ienced
guidelines
preferably
Government
##20
supports
regardless
selected
Provides
Generous
established
QA
aw
camp
##ium
##LI
##ticle
transparency
jobs
tuning
aff
liter
##pines
##ism
Recru
defects
independent
Philippines
##ponse
veterans
records
Experienced
Keep
million
##ST
##CI
adj
##ediate
query
Evalu
##encing
payments
Expert
Success
rate
##Ap
##ivision
represent
##DA
whether
observ
condition
##prietary
country
materials
##reast
##unte
sum
abreast
Fac
Now
sick
##inary
Effec
cr
##urr
##chase
Develops
PhD
Article
capitalone
ranges
Tod
##los
trad
incentives
budget
700
takes
##ana
extract
perc
structures
Today
whose
Stay
##ept
finish
scripts
##asion
##TS
##reed
##ucting
active
media
##DB
Infor
countries
Detail
Top
Util
case
micro
highest
err
Drive
salaries
##ocate
demonstrate
Consult
earn
Cy
proprietary
##ples
assurance
invol
award
Veteran
250
##be
##OB
##ites
performed
feature
Statement
container
Deliver
catalog
prepare
exciting
developer
skilled
too
release
points
vendors
Is
##iling
##ache
Consi
especial
II
Term
cop
##ientific
Define
especially
##ises
Values
Develo
##acity
scaling
electron
GP
gov
##faction
threat
##gender
##ministr
study
cyber
foster
savings
##itig
approved
simple
##afka
investigation
Base
Bonus
Kafka
##ME
transgender
accepted
formats
75
NLP
##nos
##SP
##erce
pros
##ounds
automate
Good
Color
KPI
Siemens
affirmative
give
stay
equitable
param
launch
Ris
letter
Scrum
subs
very
Redsh
Redshift
Mess
SF
Word
done
manip
domains
VEC
##agram
##otes
effectiveness
associates
Wr
Travel
bringing
Bi
Home
##ensi
##ension
anywhere
regularly
Applications
Possess
22
simpl
optimal
##VID
Instagram
literature
designs
dependent
workflow
extensive
debug
Scala
ER
sessions
##gest
thorough
packages
##selves
ready
##ufacturing
General
then
##ections
##owers
##otal
##process
##MO
These
##scal
accelerate
Core
NO
##over
anticip
availability
generous
shared
Coordin
estimate
##riend
accounting
endpoint
methodology
continuously
Princ
Assistance
type
##ush
##board
Pres
COVID
Outstanding
lo
##IF
##ually
integrations
Organ
grad
adoption
Facilit
Cri
##ompl
matters
Amaz
AND
revolutionize
draf
##UAL
ask
assets
##ideo
visualizations
Engl
owners
Phys
running
happy
equipment
Pers
##ool
##rial
altern
##elligent
respond
Coll
##ef
##ications
Datab
Atl
cybersecurity
Colorado
Bec
scientific
focusing
difference
clearly
interested
interfaces
supply
discussions
English
Ep
Medic
mess
audit
mapping
Air
mitig
##res
##DS
three
Jobs
limits
task
situations
Great
SS
agree
tuition
scales
Apps
insight
Dri
##isc
accounts
joining
##fford
##ospital
26
stere
step
modify
evolving
look
Agency
SDK
FMs
##uth
##thes
stock
##eters
Sup
distance
migration
stakeholder
fraud
warehousing
Integration
Continuous
17
600
soci
##LE
advant
desired
Hiring
##atural
proof
scrap
Engage
End
RPA
Exec
units
##sight
maximum
afford
##Health
##UI
##vey
##astic
stage
accompl
uns
Together
##gmented
Years
##App
Essential
##ian
##ison
annually
##AM
powered
two
By
Back
Sub
fine
types
##wc
##arant
##icens
##tery
Compl
leads
supported
##enger
offices
Inclu
Certificate
mentor
Eligible
pwc
close
University
markets
startups
PowerPoint
reduce
PH
fly
gain
##raw
Innov
intelligent
personnel
defined
Leave
300
Gov
##eline
##ising
##tingu
##ulner
chain
Resources
managed
annualized
carrier
##bedd
orchestration
mone
syn
treat
turn
story
families
Optim
Secret
Labs
Risk
Messenger
seg
provision
##ewards
asset
supervision
load
##10
##ined
##ume
Associate
adjust
parameters
Amazon
BS
junior
##hand
##ption
copy
##AT
##agine
Any
valuable
##aves
Communicate
Gu
Loc
Oct
##read
ref
##eamless
Ann
capacity
strongly
flows
answer
entities
versed
mining
owner
player
##unteer
##din
##entic
outstanding
firsthand
flow
##iteria
acceptance
Cogn
friend
graph
Intern
contribut
##issions
belief
metadata
utilization
monthly
constantly
##kins
Developer
IBM
Ment
seamless
Place
guarant
selection
investments
explain
CAD
Bring
tax
taking
##ders
##LC
private
Legally
S3
ground
##iag
longstanding
Contribute
pivots
scraping
Net
North
down
##sApp
##fies
##ker
##ference
##elivers
WhatsApp
401K
Common
efficiently
increase
Jen
##aign
reward
backed
##ions
augmented
someone
effort
Reality
27
Jack
##other
NoSQL
##artered
IN
push
##her
##orrow
##icing
##ended
phone
Incen
2022
launched
norm
satisfaction
Self
percenti
teamm
changed
percentile
80
Lever
escal
fill
response
front
Trust
immer
vendor
##tinguished
Cap
NY
Zone
##ulture
##ived
collect
EX
Mission
fun
##areness
Parental
##eadquartered
Ec
Level
vulner
##through
worldwide
robot
foundation
funding
clean
described
Cir
delivers
##ansition
##uty
##umen
Ansible
version
validate
Solid
fb
##load
another
acquisition
##imited
presenting
superv
Individuals
immersive
##ars
whole
Training
Me
##AP
begin
suite
brand
enhancing
Jenkins
Gr
Min
Note
discovery
achiev
assessments
celebrate
Princip
400
sensi
tight
fore
##ames
perm
aided
CC
Tel
##annel
##ems
onsite
places
valued
retail
represents
harness
sustainable
Consultant
religious
##assment
Impro
consumers
stereotypes
##ler
##MEN
communicating
Email
Disc
Distinguished
economic
criteria
Types
##esh
conv
develops
accred
transport
coordinate
advantage
mail
promotes
assessment
Indust
##iosity
Cash
fa
near
conver
Technologies
fostering
70
BA
video
##lud
##LT
##amb
reviewing
utilize
harassment
welcome
roll
##65
rewards
##ouse
protect
Employees
resourcefulness
forecasting
##LITIES
##IFI
society
So
Sch
fail
fair
org
interact
invent
Click
2004
##log
##oli
enables
##iven
identification
conducting
##BILITIES
competencies
mechanics
National
Will
having
thous
##requ
costs
pharm
Companies
Performance
Share
schedules
Fact
##Hub
##anent
##adoop
Resourcefulness
Stud
breakthrough
KPIs
Compliance
##PC
##asters
Purview
Specialist
2D
AR
Hadoop
was
##hic
##ecomm
result
accountability
Foundation
executive
drafts
##HS
##wealth
##IR
##inic
##vention
Actively
Conn
##ourcing
Commitment
studies
CAM
##marily
SDKs
Commonwealth
kept
sense
priority
prohibited
##és
usage
resil
primarily
capture
promote
##CATIONS
accessible
microprocess
microprocessors
License
he
##first
##PM
##ane
refine
apps
##adem
indic
funda
Performs
component
160
##oma
Apache
phases
##ARS
occasion
detection
Num
proactively
protoc
Focus
More
hold
##each
##da
##aping
Stock
Prepare
translating
Econom
Bank
DE
TH
fax
Stand
protot
participating
Notice
serves
empowering
particular
QUAL
Spec
my
mas
vo
##QUI
##allel
parties
informed
Regul
##olitical
YOU
lines
pass
art
articul
##ords
premium
winning
minimal
DARS
Hour
Of
craf
##ativity
stability
manufacturing
maintains
Document
partnerships
DBVI
1B
Fl
familiarity
input
##ira
actions
contribution
REQUI
engagements
awareness
Circle
My
se
Come
##ously
MLOps
Deploy
continu
Communication
Cyber
QUALIFI
REQUIRE
retain
allows
##fully
authentic
Recruitment
friendly
four
varies
##land
act
pursue
GPU
Gl
cruc
gaps
##siv
designers
fuel
desk
coordination
crucial
Hen
Long
Mat
dig
native
same
##ager
innovate
entrepreneurial
Henry
##vent
Inform
Prot
pride
envision
##exas
delivered
##avig
write
Imp
elements
peer
nation
brands
assignments
recruiter
instruc
awards
select
Managers
Being
##arterly
labor
medi
##ket
##izio
click
verify
desire
profit
REST
Consider
DC
Ob
Wik
tem
Exam
supportive
organize
collective
documented
##assian
roadmaps
massive
QUALIFICATIONS
First
##yle
That
starter
Supporting
reflect
##self
classification
Epic
accomplish
guarantee
Know
MA
given
master
tac
tra
fulfill
campaign
Culture
Eu
##ench
isn
Exp
yourself
agreed
##ommodation
curiosity
transformative
##rope
clusters
Europe
Establish
Masters
Texas
oversee
put
##itional
unlock
Accounting
explor
students
Candidate
alongside
internet
peers
Tw
jud
##ltim
##usi
##ID
##thusi
Exceptional
clar
funds
Form
Additionally
contributing
Direct
inventory
Fu
hospital
##PSS
##enture
##omen
beh
capability
spending
##MOTE
King
timelines
speed
##ribution
parts
payment
##olicited
Super
weeks
embrace
Bro
Jira
Mo
Not
del
face
table
scen
consistently
reflected
handle
GitHub
involved
Every
##roid
conferences
##iploma
reimagine
troubleshoot
Android
Visual
unsolicited
teammates
Passion
Wind
##SE
proactive
##tica
##ops
##ifically
Conf
expos
audience
Serve
REMOTE
iS
soph
##dom
##CR
##alking
inges
solid
interactions
##iagram
##uestion
protection
offering
Principal
PR
billion
##atics
##way
disru
##front
remain
discover
however
starting
Corporate
Fost
Pin
VR
##reen
##ann
workload
##umb
investment
formal
Primary
Certifications
Processing
extraction
coaching
55
Auth
Del
##tech
##inated
ste
embedd
press
Reason
final
globally
update
Partners
Assess
months
Wellness
entry
sophistic
Warehous
##owc
root
drives
curious
Perks
owned
something
Control
##ectrical
forecast
preparing
mathematics
##oDB
##PON
##igr
##eph
##pective
uniquely
proposals
Vol
mac
natural
##ugh
tough
Exten
developed
Read
unless
discount
Ensur
differences
generate
sophisticated
Aff
diag
##LS
pricing
fix
While
Metadata
grade
Blue
Gink
##ians
##99
##izant
channel
Requ
creativity
Demonstrate
architectural
##eatz
Physical
Airflow
Ginkgo
Question
competi
recovery
evaluating
coordinating
Governance
judgment
##limited
Insigh
Retirement
##lobe
connected
PowerBI
Only
raised
termin
Economics
Kingdom
scenari
Insights
Educ
aim
diagram
pa
##oupl
##stream
Supports
Strategy
Vi
##hia
##lik
##erves
healthy
uphold
specialized
Write
Windows
Citizen
Field
navig
tail
tables
##imedia
##adelp
dee
Inizio
quarterly
##iplinary
checks
promotion
##adelphia
led
licens
pi
##eting
##ons
competing
teamwork
Desired
still
Details
conviction
Extensive
Saf
pop
teach
##eases
##disc
##uate
##iencies
creatively
Transparency
RESPON
electronic
##oupled
##disciplinary
Lake
##AN
##asual
incor
included
concept
concern
prioritization
Coordinate
##dinance
accredited
Water
cause
tri
zone
##jects
##ict
perf
##tically
region
Healthfirst
faster
120
buy
##azing
##nostic
Because
Incentives
Improve
Tech
##off
Qualified
approv
cult
aligned
##airs
targets
reflects
transportation
civ
gives
##ott
explore
Corp
vehic
broader
perspective
Philadelphia
RESPONSI
Take
coupled
##head
transition
display
##orse
items
completed
LLM
easily
Sm
TO
##UM
prop
React
##ultane
protocols
medium
##eck
##grad
##sisting
Short
Reports
Functions
debugging
ES
NE
kind
sem
##reening
aler
inters
administr
Screening
304
behaviors
sensitive
Reasonable
PO
zones
##rec
sure
specifically
simultane
Commission
firms
safe
mentorship
DoD
Number
Wikimedia
Examples
Qlik
Skill
hon
past
##top
regr
executing
##cover
traditional
refers
##ltimately
exposure
steps
Match
lia
venture
##Sh
##ale
##iver
commit
closing
accurately
genetics
Identifying
maximize
elev
course
CRM
ERP
Database
Annual
Dynam
Lamb
globe
##tine
##ased
##ulate
##ota
##ottery
enthusi
organized
endorse
Bachelors
reviewed
Ideal
schedul
minutes
money
lands
##pond
onboard
impacts
belong
server
Assists
interface
Utilize
error
manipulation
forefront
Offer
EDI
Having
Prom
frequ
Track
advancement
handling
vaccination
fulfilling
Octo
Live
Most
Tuition
##irable
Ins
User
pursu
Factory
file
sourcing
##ED
##itive
solvers
five
Records
Leads
##ORK
Evaluate
ingestion
RESPONSIBILITIES
Salaries
SME
systemic
Clinical
sponsor
college
vaccinated
Understands
Growth
Atlassian
Bo
Hub
nature
wa
##sys
##icit
Through
technological
interesting
spent
Disabilities
empowers
certified
Block
volunteer
Criminal
fundament
iSeatz
JOB
Log
domes
game
##hab
##PS
##orated
thri
##ports
acumen
prorated
##ception
Ordinance
Building
disciplines
Purchase
Gath
Look
##ible
##In
##RS
##ides
shaping
Analysts
consistency
excel
Modeling
Postgre
lineage
advisory
Inclusion
Locations
##owcasing
landsc
85
##ina
toler
Comple
oversight
deployments
amazing
received
Prac
Regard
larger
streaming
answering
array
property
School
duty
##puts
rep
Inv
Star
liable
Suite
receip
recognize
interviews
definition
arrest
PostgreSQL
Regardless
65
Backend
Hard
LO
World
sound
##Acc
##itative
##yping
Collaboration
Creating
encouraging
playing
example
simultaneously
Lambda
Division
ELT
Has
Solution
Savings
##mediate
tom
emails
TypeScript
contractor
numer
Own
routine
receipt
PI
Typ
lower
##orch
##urable
##unt
finding
bonuses
##fluence
sites
SDLC
130
affili
Facilitate
deeply
concerns
CP
DA
Nev
Sim
mer
##HR
ones
scratch
Ansys
option
PyT
manages
endless
persons
connecting
Env
empath
Behavi
American
Nevada
LTI
Excellence
rest
Proactively
Clinic
impactful
Teams
ensures
Interview
agreement
tomorrow
UX
##St
##CM
##uly
Initi
Rehab
Workplace
##print
LLC
Correc
requested
calend
shipping
MySQL
diagrams
Holidays
UI
##ented
comput
commerce
##times
advancing
visited
Check
RecruitingAcc
legacy
immigration
##TAP
executives
Background
macro
scenarios
landscape
Date
ED
Famil
ther
Problem
qualification
careg
issue
humanity
courses
loop
approval
Environ
Rehabilit
##UN
##iss
exceed
impl
positioned
verification
Includ
Architecture
perfect
910
EM
Mid
Testing
gen
tack
##tly
##utive
##Sec
operation
parallel
implementations
Contact
Police
attend
strengths
PyTorch
B2
Sy
evid
##OE
##ett
##unk
Developing
Preferences
architecting
##lessly
Based
willingness
4901
Sections
visibility
Effectively
Hours
Cycle
He
##asi
##pend
##istics
##terest
intensive
##ervices
complexity
cultiv
COPSS
Market
4920
categories
easy
supervis
articulate
desktop
Correction
RecruitingAccommodation
9102
COPSSC
lab
living
since
##Le
##poration
##vertis
##gnment
##ernity
conclu
##athematica
return
pivotal
measurement
Innovation
Optimization
Config
Safety
88
Coun
dim
fing
food
his
ur
##ren
##me
##change
##gres
disabled
context
stronger
desirable
marketplace
Planning
increasing
iterate
calendar
Follow
dream
files
##arial
proficient
##the
##rix
##riev
##irit
relates
Reim
Comprehensive
amounts
sometimes
smart
reduc
Spending
Rob
WE
coun
easi
walking
##worth
relocate
operates
phil
Identifies
superior
choice
Personal
Industry
Family
45
Test
ep
medic
##CO
##LA
##ids
compil
academ
ourselves
attitude
Proper
##ancer
span
generative
greater
sponsored
dashboard
logic
teleph
summar
##enchmar
liaison
MD
division
lack
##hasis
##EM
##amed
succ
UnitedHealth
founded
determining
confirmation
observability
Present
treatment
migr
##eets
##erever
##tuarial
abs
##ooking
charges
staffing
regression
Reimbursement
35
HSA
See
mid
rés
##oor
##12
##tiqu
clim
identified
recommendation
reasons
Identity
Transl
Colle
ISO
##being
résum
AB
STA
block
ultimately
creates
##epar
forms
install
Supply
Cognizant
rewarding
tightly
##asualty
GD
WH
ever
##ron
##MI
##aried
Internal
perks
announ
Products
informing
preference
succinc
DLP
RO
selling
reassi
##igor
stated
qualitative
functionally
facility
emphasis
Month
##poses
privile
##ARY
Highly
arrange
prohibits
Effective
simplicity
THE
gone
##mer
##urations
forc
conting
##irc
##andem
Active
engaging
##atial
trustworth
Coach
Community
partnering
expanding
achieving
ECS
VM
draw
fol
haves
##C2
##ulations
wherever
##verage
dispar
unus
Mayo
inspire
conclusions
easier
Property
Perm
benchmar
headquartered
vec
##Qu
##omp
##ancies
previous
Enjoy
completing
##apped
centers
virginia
measurable
Strategic
Defense
alternative
implications
telephone
trustworthy
unusual
##face
##gen
##PP
technologists
contracts
Operating
Virtual
195
weekly
paths
particularly
Abilities
VC
##state
##ersey
poor
##ails
##box
thereof
Implementation
speech
##loss
Collect
thousands
Pinterest
Affairs
succinctly
folks
Flu
Pe
##ser
##itch
##ley
applies
residents
scrum
spirit
requiring
anticipated
Early
Firm
##wise
##ectual
Insur
purchase
publications
guides
notice
Jersey
Mc
TX
never
wave
##Sp
##CH
##abin
truly
##ellectual
index
Comfortable
going
##oints
Artificial
known
influencing
streamline
preparation
Leverage
resilient
intersection
But
Depend
Pipel
Talent
nur
rigor
ten
##edIn
comes
releases
intended
adher
series
configure
makers
Regular
##goti
Functional
##undred
Mentor
##SecOps
JS
##tle
##utical
compelling
incidents
negoti
event
DevSecOps
purposes
configurations
##greg
indicators
pione
##untary
announce
reassignment
Link
Need
citizen
hundred
##Tech
inf
##start
reus
except
productive
employers
##aceutical
healthier
Recogn
really
Tools
recommending
activity
2021
therefore
portals
##ING
category
Possessing
contributor
wait
Ang
Curr
Mag
Make
##iant
##gs
##ster
forth
##ucts
incoming
Wee
shall
university
uncover
implements
arti
remedi
agnostic
initial
comply
Creates
Showcasing
establishing
ethnic
digitiz
Ensures
domestic
EMR
evidence
Diploma
Gen
bound
##oper
##uses
recent
unt
##avy
Display
Demonstrating
official
demonstrates
demands
Openly
behavioral
Delivery
900
Bel
Casualty
Mathematica
Vac
Want
relocation
charge
Status
advertis
spr
driver
wellbeing
involving
themselves
##titute
submissions
calls
tune
##ecommun
Specific
Future
Syn
seed
##Ps
##PR
##urement
Plans
Chain
limit
central
##annett
Permanent
Cross
Dec
Graph
Tier
cabin
##IRA
rein
trade
##ributes
Collaborates
played
generating
Programs
warehouses
caring
second
Statistical
extensible
suppl
containerization
synthes
behind
cabinets
AA
Aud
C2
CT
JIRA
Set
insi
image
##umn
otherwise
Where
disclos
assum
formation
accountable
outcome
Participates
answers
consultants
entrepreneurs
correct
CM
familiar
named
##RT
##tiz
##ictions
convey
compar
acquire
##chain
interactive
##plemental
subsi
Applied
missions
associate
seekers
Driven
belonging
Looker
finger
privileges
untapped
2T
CS
GA
Multi
mil
north
sell
##ci
##going
##gling
##stood
##isp
environmental
Confluence
enhanced
personalized
Founded
discuss
Broker
onboarding
BC
Some
##aC
##son
##NI
##NS
##AC
store
automating
Phone
validating
covered
measures
ambiti
largely
##ensional
affordable
normal
Glue
urg
announcement
Mong
Sw
SK
Writing
vector
##PER
##22
deals
##ferencing
Actual
simulation
architects
Change
facilities
biggest
mix
errors
failure
Dem
##ena
comfort
##ody
##ournal
show
understood
Enable
Designing
distribution
##crimination
##preci
Integrity
confidence
threats
Impact
milest
Duration
##LO
##quare
enroll
rely
##ferral
moder
meets
##ovel
industrial
considerations
backlog
box
executes
Central
demanding
civil
28
CF
Ets
EIR
Path
Ret
circ
far
ups
##VE
##tify
##urning
created
brings
immediate
accelerating
accessibility
institution
mitigation
Fosters
scheduling
climate
Etsy
CIS
OSS
RDS
Sign
house
sw
##tes
##ults
relent
##alls
unable
valuation
servers
updated
ethics
Integrating
screen
periodic
SharePoint
upholding
contingent
SKIL
Filing
TD
##look
antiqu
restr
interaction
improved
##oliday
referr
volume
advisor
ICF
institutions
Regulatory
Warehouse
FSA
last
wire
##bes
##orm
propose
commission
Manages
matrix
Providing
opening
geographies
containers
Query
CCPA
disrup
antiquated
Citizenship
OS
bott
fear
political
rights
##loo
##bor
##otor
##osting
##osoph
##umes
Strip
specified
choices
bank
Documents
stepping
Few
MU
##ta
##ban
##isms
convers
true
sciences
prone
outgoing
Unlimited
##teness
completeness
question
50th
experimentation
exploration
Waterloo
administrative
##Query
Insurtech
ambitious
Stripe
Max
bar
few
fled
pasting
##loc
##places
anom
Expos
Recommend
internally
Commercial
translation
Carrier
Executive
digitized
milestones
Exposure
EOE
Oversee
card
eager
license
piles
stin
##astar
needless
abounds
##ooks
innovations
advocate
implemented
##ublish
analyzes
Phastar
Framework
enhancement
Programming
flu
obtaining
views
90th
Medicare
prototyping
forcing
poorly
insiders
SKILLS
fledgling
stint
Kan
Port
novel
##curement
##ma
##lined
##nes
repos
##emi
##arters
prec
modules
Compet
highl
Pharm
encourages
Postgres
calc
##MENT
Study
Standard
HT
STE
held
size
women
##AI
##anking
prevent
projected
Administr
Providence
Production
cleans
economy
Successful
OF
rates
##iform
##MARY
##AS
appreci
##oyal
resolving
spread
aggreg
Add
demonstration
device
Monitoring
##ampion
filled
boundaries
##osophy
Total
stewards
##idemi
sug
##ensus
uniform
Places
believ
Tensorflow
Documentation
##OUT
B2B
BE
IP
hum
raw
turning
##facts
##ups
thing
Report
Referral
Acts
listening
children
profiling
speak
pharmaceutical
Visualization
Author
pressure
toughest
##Lean
ABOUT
McLean
STEM
Mass
Ori
Spl
Spr
Since
##fit
##ero
ack
evolve
Leading
guard
powerful
consumption
prioritizes
faith
Lo
los
micros
pic
save
##arch
##oping
Expl
disease
Start
##enew
carefully
expan
conceptual
appropriately
Modern
prompt
Operational
Integrate
departmental
typically
proposed
Internet
vulnerabilities
Superv
papers
Gannett
Oh
TE
Yes
doll
gap
lake
might
name
text
##Cor
##cend
refr
reput
income
lie
cann
object
##ifying
assignment
Electrical
Corporation
230
##MENTS
remediation
##ecommunications
MongoDB
Bit
East
##erry
producing
leverages
recruit
instru
placement
Owner
construction
season
Environment
disparate
LinkedIn
Looking
OK
Retail
Rewards
mand
tell
wage
##ectors
Proof
objective
instances
Scientists
Organization
navigate
hundreds
DO
Hive
##iers
##owork
Stack
Staff
output
Prepar
stored
student
profile
embracing
keeping
minimize
voice
channels
elevate
Complete
numerous
referrals
Media
W2
der
loyal
##ai
##TM
##US
##plates
exerc
conven
adhere
relevance
continually
##vesting
soon
Lifecycle
hearing
Transform
biot
Studi
REQUIREMENTS
Educational
Visi
reusable
##tization
Splunk
Non
PM
SQ
ca
ease
mom
##range
##man
intellectual
Resident
transactions
directed
topics
grant
Relev
staying
Medicaid
continued
IAM
Memb
Occ
cancer
separ
##ury
Shift
Builds
Verification
sponsoring
##athematical
configuring
progres
library
surve
##ITY
tailored
Behavior
SM
UAT
estate
##rich
##ered
##erve
##alf
##roduc
touch
Provision
Projects
consensus
possi
concurr
reference
##ENCE
cleaning
survey
visi
experiments
222
##reshold
Subject
provisioning
occasionally
NET
tackle
sprint
picture
After
Bash
Cred
Journey
hope
mem
puts
##NA
##91
##erse
##ypo
efficiencies
inclusiv
##parent
transformations
stores
##ponses
##ospatial
embraces
However
schema
stipend
traits
forecasts
cultivate
GDPR
artifacts
circum
Address
Relevant
Bal
FL
##sy
threshold
##reet
##anch
##ille
##sist
enter
##charge
##enders
Analytical
unm
regist
connections
participation
extend
Legal
campaigns
philosophy
subsidi
guardr
loyalty
Visio
31
Cisco
Hire
NC
Rub
rot
sports
##itory
stri
once
Exhib
resid
##kends
##rowser
maternity
audits
retriev
Maintains
##ikit
happens
confidentiality
USAJ
school
##eadquarters
##Shell
academic
Ohio
visiting
circumst
guardrails
Head
Ma
py
rad
were
##ino
inferencing
responses
programm
##ooth
Designs
Accounts
fastest
PowerShell
facilitating
entity
mechanisms
involves
fault
craft
uniformed
Deter
FA
Flexibility
Ge
IaC
Line
Rights
giving
##oating
##utual
##na
##ym
##bly
##Cl
##LL
Att
seeks
smarter
flat
Using
Instruc
Uphold
SSIS
278
termination
Translate
College
anomal
reputation
inclusivity
circumstances
DU
Dist
Free
Pac
PBM
##oom
##pite
##GB
retention
##ulating
demonstrating
bread
Reviews
Visit
retaining
embedded
believes
Categ
Fast
Mi
OEM
PA
Targe
billing
ey
hypo
##aic
##iCor
##pace
##points
##OW
##orities
##els
chat
modified
modelling
agents
##nerg
##achelor
complies
Corps
targeted
ambiguous
correl
##reedom
voices
##sively
dimensional
absence
Displaying
acknowled
Ruby
Cr
Ful
Hy
VP
##WORK
ingen
##ams
understandable
advice
board
smooth
externally
Should
rede
periods
##anked
representative
Databases
escalation
Requires
displayed
STATE
cannot
Bost
Node
pace
tier
##NL
##by
##Rs
confl
acting
considering
capable
Opportunities
submission
addressing
histor
definitions
Outlook
constructive
message
segment
clarity
computational
JSON
Spring
Boston
501
Card
Headquartered
games
hires
pain
##ok
##ert
style
shell
upgrad
##ximately
called
routin
243
modifying
EXL
conversion
competition
LOCATION
adherence
ingenuity
redefine
Draw
Io
PC
ahead
bachelor
ic
vital
##GE
##FS
##idge
##ighting
communicator
News
ethical
volumes
minded
##ORT
letters
International
prototype
enthusiastic
merit
DUTIES
Category
3D
EC2
Hear
aware
##pload
force
assisting
##obe
impacting
drivers
Const
##fficient
advise
Adobe
Claim
visa
statements
##forcement
2020
Purs
periodically
262
beginning
vehicles
Avail
DHS
FBI
Gate
MBA
fees
hr
hu
##orid
##ark
export
##izon
intend
Street
##iverse
hourly
http
nonpro
evaluations
##PAA
algorithm
started
harvesting
promoting
HIPAA
alternatives
anomalies
breadth
Doc
Next
Square
Uses
West
gloss
lakes
mathematical
sam
##pect
##enue
##ito
##itors
inputs
##odes
resol
until
##TICE
greatest
physic
combine
predict
BigQuery
cluster
##OBS
NOTICE
NYSE
Florid
commitments
MUST
Maxim
Florida
CSS
XML
##eet
##base
##PL
##porary
disaster
##umer
Scrip
Sciences
##novize
ITIL
audio
promp
explo
prioritizing
geography
Solving
interpreting
economics
Minnes
population
Synovize
##Spot
microservices
95
Cog
Groups
NJ
batch
hosting
rating
##door
##ville
intu
##outh
prob
##plify
##ulent
usability
Three
interdisciplinary
consists
talents
professionally
Enh
dependents
190
predisp
Altern
Series
Revenue
Typically
USAJOBS
Target
##ORTUN
predisposition
DG
Even
Li
Let
js
##DE
##elf
enrich
developments
##enses
opin
margin
integral
advoc
useful
membership
foundations
Amer
assessing
centered
215
III
REQUIRED
Considerations
templates
incorporate
propel
POSI
Board
BCBA
expansion
##cendion
Benefit
Name
geop
ranked
wid
##75
##sitions
##urate
##etting
##rief
Extract
attr
adap
##ittle
subst
fea
##aker
Analyzes
Automate
sustainability
Upstart
graduate
EXPER
permanent
Connec
tactical
Dependent
Pack
Search
diction
races
##sem
##bon
##Lab
##urance
##andas
##obs
##ological
backup
classes
Order
collected
##house
##egu
Interest
correc
prospective
messages
Passionate
blockchain
Peace
cleansing
POSITION
Light
Ne
Po
Soft
Val
host
sized
##ger
##365
##ita
##ros
suites
scoping
##eward
Workforce
communicates
innovating
##ommodations
modernizing
respected
Assurance
biology
Posting
Willingness
describe
Consist
Informatic
Fields
Improvement
fundamentals
spreadsh
Prepares
Enhance
Aut
GIS
Green
PD
WA
trial
##well
##Soft
##enter
##tum
##ifies
Workday
unc
Whether
##ostatis
Char
Consumer
##ENTI
representing
balanced
Grad
crafting
tolerant
empathy
WHAT
progressive
Claims
Minnesota
Diverse
Source
cell
genders
headquarters
publish
##IENCE
##ze
recon
timeline
payroll
##entials
Disabled
openings
ranging
Expected
Skilled
Enjoys
hypothes
Cogito
EXPERIENCE
Informatica
Don
Linc
PL
SUM
land
water
##otional
##IP
##UR
##inate
##rem
##lev
##oln
interacting
bases
##anges
transparent
deployed
combining
Interpre
referral
varying
allowing
Helping
Value
CRO
asked
##respond
##IDE
HubSpot
therap
Counsel
##umni
possibilities
geopolitical
Lincoln
Lottery
Sal
lottery
v1
exist
##riers
payrange
##itories
charts
##ierarch
correspond
safegu
geospatial
worksh
investing
Black
generally
postings
extra
HII
electronically
anticipate
affordability
Rehabilitation
rigorous
upgrades
365
DRT
Familiar
Mich
Rock
Social
head
##mp
##va
inside
##antic
procurement
accep
solver
price
elicit
defense
##aken
floating
Independ
bugs
strengthen
prosper
Optimize
advertising
urgency
Pathways
surveys
Instructions
##nergy
Drawing
32
Award
Fund
Ill
RMS
##writing
##SM
##till
##arr
##ulty
enough
alien
alumni
try
Inves
##erving
discharge
chart
##actation
intermediate
performant
Respond
##ruct
researching
Collaborating
former
guided
extended
reliably
Upd
detect
classified
Critical
adjusted
vulnerability
thousand
trials
ROI
VMware
Belong
OKRs
Studio
##Cloud
##iCorps
AmeriCorps
SUMMARY
Den
##ask
incident
##estyle
##anta
coh
##rypt
scaled
Unit
##apeu
SAF
LLP
geographical
princip
Centers
Regist
logistics
shares
iterative
examples
subsector
loading
graphics
Volunteer
genu
Configuration
Monthly
Ed
ESS
Energy
GS
HPC
PN
freedom
hierarch
lactation
tang
upload
##lab
##RI
##omet
workstream
##ticut
reside
lik
multidisciplinary
bright
diffic
Chief
CDC
##TIONS
Relations
Relational
GitLab
element
autonomy
situation
querying
Method
##umbent
vehicle
##iversi
thriving
comparable
refresh
Fully
Connecticut
84
Ca
Labor
RF
SLA
TN
pounds
##hood
##df
##nit
##60
forge
##aming
Workplaces
##angel
Metro
trend
CloudF
depends
doesn
Generate
heard
##CAL
Communications
logical
occup
Defines
affect
Continuously
beliefs
continuing
tactics
Assessment
affiliation
Robo
Pipelines
Occasion
1st
AP
Ops
SC
Valid
lin
pdf
sens
sectors
varied
yet
##tm
##IM
##urity
##lying
compr
##ensurate
cooper
approximately
maintained
Cho
##IST
exploring
##erica
##RED
dedication
ADA
confirming
##ready
instructions
Institute
Gather
spanning
ethnicities
retrieval
##ENTIAL
48
CTAP
DD
Ear
Five
MI
Military
ill
soft
##rd
##ft
##ued
##ora
exchange
##emed
##apse
##aste
##ommerce
standing
operationalize
Managing
Electron
Officer
satisfact
Associates
PHP
premiums
honest
Invest
SQS
Ath
GIT
Mail
Nation
brief
engine
hy
holiday
little
node
pet
rich
##books
##zz
##BC
workers
plays
administ
accru
projections
baseline
##tainment
identifies
agility
discounts
electrical
organizing
##terprises
serious
reading
disciplinary
carry
investigations
thinker
Website
diagn
Smart
##idemiology
##ostatistics
Investig
blog
renew
walk
##aired
##iG
##coin
##tch
##dle
##HA
##24
##erge
##atable
##igma
enabled
##ourish
customized
developmental
underlying
##atched
parents
Clar
accommodate
Applicant
critically
COD
110
streams
respectful
Organiz
segments
frontend
rolling
Consideration
alerting
disclosed
assumed
Bitcoin
Lightning
workshops
Robotics
Cod
Fed
Hand
Hold
Math
V3
mul
powers
six
##ship
##TD
##ecks
##aby
appoint
Exempt
already
##ago
##akeholder
prevention
needing
Resume
Emp
despite
facts
guiding
Conducting
specialists
contractors
importance
layers
mobility
surround
interpretation
Informatics
profitability
Voluntary
cultural
DynamoDB
frequently
fundamentally
PII
Synapse
fearlessly
seasoned
ESSENTIAL
AS
Ari
Da
Junior
Native
OO
RD
R01
Sl
dates
gro
map
##CL
##ini
##etts
##usetts
deemed
reserves
##achusetts
commensurate
Prof
Procedures
Stor
notch
newly
##oinform
##averse
fresh
Chic
Accommodations
engines
collecting
flourish
Conducts
pivot
Troubleshooting
Island
occasional
Matter
fulfillment
workloads
thrives
arrangements
Vacation
C2M
fingerprint
moderate
relentless
restrictions
Massachusetts
loss
eye
Organizational
3rd
Aids
Better
IL
Jup
Licens
UNI
Ve
VBA
nodes
##turing
##MPA
proced
##atever
##ocational
##echnology
unl
##ango
strategists
Attention
##criptive
starts
realize
Shell
vacancy
screening
##azine
Continental
ICTAP
monetization
contributes
supervisory
résumé
##ompass
##ormation
tangible
ABA
Navy
South
TS
Vocational
eB
fig
tick
tandem
##oen
##Path
##Es
##eries
##ester
##iscrimination
##aska
incred
stra
notes
shop
Ascendion
Contain
##ondiscrimination
Forbes
lift
setup
initiate
Phoen
emailed
consultation
celebrates
Networking
observing
simplify
Become
mitigate
segmentation
Protection
regional
alerts
Practice
python
Pacific
acknowledges
Phoenix
09
Camp
DI
EST
journal
##oitt
##len
##onti
##ascript
shown
Actuarial
innovators
maintainable
Adapt
closer
1099
evaluated
visualize
transformational
Americans
confident
Posted
estimates
competency
terr
Recruiter
ERG
storyt
Capabilities
teaching
bottlen
lieu
moment
unmatched
nonprofit
feasibility
Counselor
##oitte
Band
CE
Cass
Es
EMP
Find
FDA
MO
Sur
sounds
##otive
##ph
##itation
##itability
actuarial
Inf
Acquisition
invite
lifestyle
Applies
Chef
encompass
idea
Advis
Poster
properly
consultant
ships
552
Deloitte
benchmarks
synthesize
conversations
Heart
Scripting
prompting
SAFe
workstreams
CloudFormation
Chicago
UNIX
Cassand
83
Med
Rest
Tem
##KS
##VP
##orts
exem
incumbent
attract
perception
##acks
spg
Accept
collaborates
##tification
Blind
##iliary
orchestr
Facilitating
Physics
Person
Guid
nearly
reducing
acquired
##LOY
##locks
Kanban
IoT
Alternative
Athena
EMPLOY
Cassandra
391
41
Further
HP
Har
Mob
ai
boo
git
maps
mutual
und
##oke
##etic
##laim
##pm
##Spark
##FER
##rel
##reach
##room
##america
emb
whatever
Responsibility
continues
Collaborative
selecting
complaints
Child
dealing
Lawful
##ilian
speaking
fraudulent
myHR
881
Decision
Oriented
Supervis
TELE
exercise
convenient
huge
intuitive
##ontier
622
Aux
Ever
Tri
fil
foot
sav
##lin
##WIDE
##TQ
##DC
##orable
##reg
inference
##ication
exhib
##uck
##ectric
allocation
helpful
unified
Response
integrates
UniG
Adop
follows
Fraud
Aging
longer
auditing
Online
demos
numbers
preferable
Architects
SDTM
submitting
extracting
welcoming
Emailed
faxed
Impaired
Rehabilitative
résumés
HTML
Administrator
##oworks
Credit
STATEWIDE
5019
Available
2155
reconc
safeguard
difficult
Carol
Mailed
eBay
39112
TELEWORK
Auxiliary
UniGroup
Catalog
EAP
Jerry
Load
ME
average
rac
sl
sequ
title
##tition
ingest
Stream
##acker
Asc
variable
##brant
Javascript
Elastic
Index
determination
breaking
facilitation
codes
exams
Evaluation
President
Leveraging
exploratory
incorpor
ESO
Current
radically
bottlenecks
58
Bu
CB
Food
Spons
WI
WORK
iOS
saving
##sing
##vo
stages
modifications
outputs
PySpark
##nesses
regulated
dependencies
##atient
demonstrations
shareholders
Conditions
vacancies
##argaining
pointing
Intermediate
logging
fosters
ideally
possesses
escalate
pharmacy
DEI
fuels
caregivers
parallelism
Seek
CON
LGB
Sage
Serves
gets
nice
pull
sensor
emotional
dissem
abstr
##cripts
defines
maturity
##tility
125
movement
PeopleSoft
##shore
Event
##BMS
##eattle
manipulate
messaging
PHI
overseeing
diagnos
cultures
Small
frequent
Typical
counter
Demands
upskill
##remely
unlaw
straight
72
ARE
Civ
Fit
Hospital
MIS
Natural
Rh
Seattle
taken
yr
##ah
##cles
##yter
##RO
##enn
##ithub
champion
helped
shor
learner
unions
##fra
Prefer
financing
ITSM
compliant
Coverage
ethic
Doing
115
increased
Drives
Local
Connect
licensure
installation
humility
Denver
Electronic
Jupyter
Ascension
LGBTQ
unlawful
29
AC
Mind
TB
cache
rout
##mart
##uro
##ptions
##icon
stop
##och
enterprises
usable
mean
shif
Actions
Manufacturing
enjoys
accordingly
##RAMP
budgets
prepares
Function
##ufactur
seamlessly
hospitals
delight
empathetic
therapeu
##roduction
Consistently
likely
storytelling
33
AZ
Motor
NIST
OT
her
lasting
yield
##ools
##NG
##vy
##TP
##org
##icated
compute
reson
respective
qualify
unlimited
nationality
modernization
logs
experimental
away
trading
agreements
Anywhere
Meet
Disclaim
Week
memory
##oinformatics
38
AT
Eth
EHR
KN
Pet
UC
browser
rated
##mosp
##ention
##alth
##att
proceed
ordin
##asc
command
indirec
##ruise
##unction
Requirement
personally
planet
professionalism
Equip
presence
##onomy
assesses
specializes
measuring
banks
Columb
Prioritiz
categor
Supplemental
increasingly
nurture
derive
Storage
Carolina
Elev
Feed
IV
MN
Sti
SCI
TM
Zoom
got
listing
##pay
##eds
##elbox
##illa
Repres
arise
Embedd
simply
elim
expenses
recommended
faculty
authority
contacted
cares
settings
Purpose
estimated
supplemental
DBT
SOPs
schem
170
refinement
compiled
Fluency
pioneering
Currently
rotation
Doctor
79
94
Cal
Cur
Los
Tom
VPC
WF
##come
##pet
##EF
##AD
##inity
##esome
##ilicon
##ico
coming
##ustin
##iration
scikit
##ventions
agent
consolid
##verse
gras
aspect
Lean
insightful
pushing
Deployment
Angular
limitations
Gateway
upskilling
ordinances
68
AM
Dell
Domain
GED
OPP
TV
birth
diploma
math
miss
##sites
##vely
##RC
steward
##ades
##chron
##osing
anyone
Results
##press
Prem
Preference
assists
phase
selves
digitally
##onomic
India
standardization
combined
Also
conducted
Spir
Growing
earned
Incentive
achieved
foreign
Telecommunications
RESTful
Knows
Foster
pursuing
Significant
highlighting
Determine
##ORTUNITY
Nationwide
Rhode
OPPORTUNITY
Ach
DES
Mary
Pred
SW
Tre
bl
##health
##hering
##lining
##94
##anks
##olang
##abetes
##forward
compreh
##ared
##esto
atmosp
##verning
leaves
designated
##oved
understands
Concep
vertical
continental
Front
differenti
engaged
objects
achievement
updating
Alaska
135
thoughtful
summary
percent
prepared
launching
responding
fixes
Magazine
barriers
biotechnology
Members
Update
Choose
R018
Disclaimer
Aw
Austin
HCM
Os
Run
Sick
citizens
wants
##lose
##ned
##UCATION
##CT
##AG
##ertility
##ins
##olves
##perv
##ama
##idd
##ulum
##lymp
##oted
resident
intent
spans
performs
ManTech
disclose
Play
themes
knows
adding
COMP
Interface
Reli
calling
bias
investigate
Labelbox
SOC
adaptable
appeal
Guides
instruction
PRM
EDUCATION
precision
dollars
programmatic
##naire
accepting
Citizens
Golang
Mental
PRE
agr
say
##session
##tors
##zilla
##Commerce
##KE
##ectivity
conj
##erved
room
governing
strategically
quo
##criptions
connectivity
105
listen
utility
Relocation
reimburse
balancing
extension
consultative
inspiring
raise
Bioworks
Bringing
Typescript
nationwide
Ready
Matching
macros
medicine
Return
causes
routinely
icf
opinions
##ructures
FedRAMP
KNOW
atmosphere
Osaic
Four
Graf
LPL
Merc
Takes
eff
hub
htm
lot
##ped
##bs
##87
##JS
##leans
##isely
##ustice
##rike
##ocr
##ficial
pertain
Anticip
Academ
fusion
everyday
continual
resulting
reasonably
specification
exclu
Within
editing
grants
sitting
Release
redesign
Communicates
Engagement
discrep
##uppet
##ITS
adopt
214
autonomously
sync
Mentoring
Glass
tailor
Dynamics
arrangement
Competencies
instrumental
strives
Estim
Equipment
conjunction
Grafana
BEN
SCA
Ten
mor
##oice
##mend
##field
##bound
##PT
##CD
##43
##ona
##ania
##pling
comments
stret
##ford
##unch
weeds
clinic
processed
##001
persist
learned
news
##tism
regions
##fraid
##produc
improves
uptime
Clari
optimized
Transition
presents
Arch
tremend
Programmer
##egate
mentors
certify
emergency
voluntary
inspired
##grees
Visa
stitch
accomplished
gained
repe
BENEF
1M
CMS
Days
Flex
Puppet
Tax
UK
section
##to
##66
##GIS
##inars
##outs
exch
energe
Produce
recently
pertin
Comb
Assisting
multit
Class
Ent
Arc
Desire
Incident
Performing
positively
readiness
extremely
specialty
Mastery
standardized
virtually
streamlined
Span
IDT
Cybersecurity
Execute
Guide
Cognos
Hourly
Warehousing
Educate
##offs
Simulation
centralized
repository
Pharmacy
suggest
dictionary
Investment
RDBMS
savvy
Sponsorship
Maryland
energetic
pertinent
Cruise
Dashbo
Daily
Each
Effor
Github
HE
Sigma
Women
Zill
db
eight
fire
keen
patch
ton
##cable
##ox
##lig
##uperv
##omel
compassion
weak
systematic
strict
intervention
transaction
##frames
Emerg
##ember
conducts
tested
Final
sponsors
specializing
signed
Contributes
reflection
constant
auto
viewpoints
debt
satisfy
Networks
substitu
Subm
summarize
benchmarking
stewardship
Eastern
recruiters
physicians
PNNL
Mobile
counterpar
##upervised
OCH
Vend
Way
green
ranking
##ged
##BR
##Care
##ertain
##itter
inception
##eccable
##acco
orders
##idos
##employ
manufactur
impeccable
##ervation
adequ
skillset
Requisition
##angling
individualized
Adhere
everywhere
trainings
offshore
complicated
Provider
annot
Microservices
served
Verizon
reaching
educate
Continually
HRIS
iterates
NOT
loan
PHY
Standards
Two
##graduate
ESG
##thetic
appreciate
##rypto
straightforward
Represent
discrepancies
stretch
tremendous
BENEFITS
counterparts
99
Cour
DNA
EQ
HQ
LA
Migration
NA
OH
Roles
Satis
SPI
ble
secur
vs
##EE
##LY
infrast
commissions
cool
Residents
##plement
outlined
Embr
##ather
statement
Train
governments
guideline
posture
Park
Elas
enablement
weekends
becoming
ceremon
instantly
Altery
Implements
aspir
interfacing
attributes
Mozilla
Ensuring
elevating
caregiving
Pipeline
##sych
Attend
exploit
Michig
formerly
##related
indirect
grasp
OCHIN
Alteryx
AG
Dr
Engine
Mad
MIN
Oreg
Pan
cat
cam
cogn
dr
hol
##IA
##Me
##40
##eras
##orily
##tude
degrees
neuro
preprocess
creators
##flix
branch
oblig
issued
frontier
Agencies
express
informal
connectors
prioritized
Coast
118
Overtime
##ectrum
Platforms
167
advisors
routing
##LED
Netflix
licenses
counsel
repositories
Auto
satisfactorily
resonate
##employment
infrastructures
Oregon
51
66
BO
Cost
Gold
Hor
Hel
Mac
NI
NG
Pandas
bargaining
dive
##aM
##ike
##cology
##bre
reproduc
relating
trace
##ticsearch
interventions
alloc
technically
union
##ributions
bridge
Perl
Payroll
Options
specialize
Transformation
Relationship
mentality
allowance
inspiration
ICD
construct
Student
Regularly
subsidiary
##inois
correlations
widely
substanti
spreadsheets
Illinois
tickets
Acceptance
##FERRED
Adoption
##lympus
PREFERRED
agric
Elasticsearch
Michigan
Fem
Get
Point
SU
bond
fant
##coming
##mn
##ethe
##WA
##PPA
##BS
##ony
infra
##ara
##economic
##uris
exact
##asm
apart
prev
Anch
underwriting
regards
considers
buildings
responsive
##parallel
Arm
formul
added
exclud
broker
Align
significantly
##SICAL
attach
proposal
Accountability
occur
campuses
Staying
sensitivity
traffic
Behaviors
Configure
sellers
Profile
Fitness
weaknesses
PHYSICAL
##etheus
##paralleled
37
DL
Diag
Journal
SRE
cali
motor
narr
##oh
##MA
##ensions
##atur
##ateral
##eles
##leg
##though
enforce
##aint
stress
##oves
unparalleled
requesting
contracting
LIN
feeds
CDK
extending
motion
##ediately
reported
combines
Analyzing
quantify
breast
thinkers
Redis
latency
schools
trainer
NOTE
graphs
fundamental
Twitter
embeddings
Prometheus
Gathers
reduction
Angeles
tradeoffs
calculations
sugges
concurrent
Independently
brightest
##iversities
grooming
incredible
TBD
therapeutic
TMT
Glassdoor
exchanges
Efforts
substituted
ceremonies
aspirations
APP
SEO
VE
Vice
bill
bene
falls
haz
##iabetes
##ces
##uite
##era
##erosp
##isense
compens
adhering
skillsets
unemployment
Unix
evangel
planned
visas
connects
possibility
purch
Discrimination
addresses
consumed
Advance
retros
searching
interpreter
deadline
5000
CVSHealth
fitness
courage
chains
27001
permitted
Superior
Months
correctly
dollar
subsidiaries
conflict
historical
corrective
Valley
Interpret
appointment
Spiral
KNOWLED
fantastic
KNOWLEDGE
52
CN
DMS
HB
Rate
TID
outs
##atically
##pects
##TB
##zona
theories
##ola
conference
Thank
shot
##istry
overcome
differential
players
collateral
utilities
##ordinary
##ISC
covering
Optum
ideation
Content
Gitlab
investigative
vibrant
Association
##CIES
##DAY
Atlanta
Minorities
breakthroughs
semi
tolerate
GraphQL
Authorization
PBM™
Pursu
uncertain
Rockwell
cohes
EQUAL
TIDAL
Banking
Cop
FM
Land
Mill
PER
Penn
SNS
View
Vetting
fle
fans
fee
gl
sle
##lv
##py
##stech
##actual
##plus
##rition
##earhead
##aya
##ady
##aph
##graph
scan
displ
distill
inten
interoper
Commerce
curric
Arti
recognizing
specialist
Generates
stacks
Region
immediately
aspire
forwarded
maximizes
thoughts
functioning
telecommunications
clustering
institutional
taxonomy
Telecomm
Studies
heavy
laboratory
Objects
behalf
paper
navigating
triage
semantic
Startu
Recognized
C2C
CFR
CISSP
Portfolio
##sylv
entertainment
sample
adapting
EMPLOYER
multitask
Spanish
blend
securing
holistic
prevents
Anchored
##erospace
Pennsylv
Pennsylvania
59
77
87
Dall
Fig
HCP
Map
MVP
PP
RM
air
afraid
bol
sa
waste
insur
intim
##icer
reuse
##adoc
recall
##eek
she
learners
optional
worlds
assemb
offs
Enc
Champion
Desk
visually
testable
Prism
##ography
Asset
Mark
##raft
feels
lessons
educating
ADaM
surface
visible
Owners
HIPPA
2013
minorities
summ
unsupervised
provisions
Teladoc
Industrial
resilience
Protected
Delegate
TODAY
Interviews
attendance
migrations
Georg
glossaries
SLAs
linear
diagnose
spglobal
Tomorrow
dbt
Satisfaction
##stechs
Dallas
Georgia
Dj
Holl
Love
Mer
Rad
Sys
Sams
Wisc
bes
sinc
won
##mission
##down
##Pro
##LD
##FOR
##KA
##itely
##repres
##eloc
##ectively
##ude
##iest
sufficient
##grade
employs
employing
intric
##ndering
Scope
unrelated
grown
Conc
Unity
Employers
quota
brain
Tool
aug
autism
Creative
Introduction
Articul
generated
Teamwork
sole
promise
verbally
modernize
patience
Relay
layoff
feeling
##ugging
telework
catalogue
tasked
SSRS
Grade
competitor
##onsin
CPT
##UNC
moderately
questionnaire
fluid
Loan
Explore
Salt
hyper
booster
yrs
Elevance
Django
Wisconsin
sincer
Articulate
43
53
Dom
IQ
List
Limited
Mol
Sens
Video
fell
knit
##blocks
##TY
##Cs
##KPI
##Vita
##ints
##omics
##eta
##qual
usually
##esty
plant
Stories
##ervice
protecting
Prec
advances
Force
##engine
Plus
closure
fundra
Payments
Sheets
contractual
CDEs
Cox
signal
standardize
Crowd
roadblocks
sends
happen
Possession
allowable
debit
SOX
revolutionizing
Quick
2019
Successfully
gradu
adjustments
downstream
supervised
FocusKPI
temporary
popular
pursuant
numerical
DATA
Initiative
Includes
supervisor
##ronic
previously
Audit
CFA
relentlessly
biotech
Lineage
Maximus
hypotheses
Arizona
DaVita
Zillow
##urisd
##elocity
Due
Gloss
JLL
Nondiscrimination
PaaS
Win
vesting
##cl
##buc
##85
##eling
##plit
##isal
##amount
##abric
##ticles
##ystems
disag
shows
spaces
knowledgeable
arch
upcoming
practition
Union
optimizations
##associ
obsess
monitors
Agility
operationalizes
##ultural
Shaping
aligns
premise
2024
addressable
explaining
edu
185
prediction
Strategies
prospects
Coordinates
groundbre
teammate
Capable
Motional
pressing
piec
Insp
pursuit
Starting
Magaya
Weekends
Exhibiting
conflic
glossary
hierarchies
comprised
OOTB
reconcili
incorporating
Mercy
html
stitching
Behaviors™
Startup
sincerely
groundbreaking
Fail
Fana
FUNC
GE
HA
IA
Lia
Mex
Mone
Micro
Seg
Ui
Wal
gaming
jurisd
light
mag
mock
sus
##aks
##mines
##fers
##TH
##UX
##URE
##Fi
##VER
##ilot
acts
Ext
Thri
relate
chem
##ague
qualifying
shots
unf
united
Resorts
outreach
Appro
innovator
thematic
overtime
keyboard
Arine
evaluates
Incre
classroom
Orleans
authoring
presented
notices
utilized
carbon
targeting
Transamerica
Participation
dataset
sending
capitalize
volunte
competence
campus
convert
converting
YOUR
##CRIP
disrupt
Affinity
##Strike
Initial
Middle
888
negotiation
CMDB
showing
bottom
Kanini
##oken
principle
ESOH
interoperability
Glossary
Mexico
Ava
Boot
Call
ESP
Gro
HU
HHS
Jan
Lou
MT
None
SE
SPSS
bold
gaining
pm
vast
word
##ault
##2O
##inely
##itting
##robor
ine
##ationary
##ilig
##otyping
##une
relation
contacts
productstechs
Comput
unisense
remove
directions
automotive
capturing
##eniorassoci
Knowledgeable
Leaders
curations
prescriptive
resulted
Equality
Orgs
noise
aligning
corrobor
edit
interviewing
ownerships
confidently
importantly
layout
capitalizes
attesting
thoughtfulness
Helps
experiment
##urring
Developers
subscription
Biostatistics
rewarded
Factors
Fusion
terminology
enthusiasm
Logistics
macroeconomic
perfectly
pioneer
secondary
suppliers
disrupting
LoS
separation
probability
attracting
extraordinary
genuinely
Occasional
##IMUM
multic
Personnel
Stipend
eliminate
SCADA
Embrace
MINIMUM
intentional
summaries
disagree
Failure
Availity
productstechseniorassoci
corroborate
productstechseniorassociate
Agree
EKS
Holiday
Kee
Olympus
Solve
TRS
UT
UCP
crow
eCommerce
putting
##around
##mired
##net
##benefits
##52
##14
##orn
stable
##eves
images
Influ
solicit
Proactive
##artner
noted
Computing
Analyse
articles
Classi
managerial
decisioning
automatically
##ashion
obst
followed
receiving
Intel
flag
CDISC
##versees
##TIONAL
Interact
Alight
estimating
Therefore
appear
Controls
SMEs
Logic
Simplify
tackling
compilers
swim
aggregate
Modernization
SMBC
historically
administering
renewable
figures
Supervisory
shortc
schemas
Vendor
LINUX
sleeves
bolster
UCPath
97
Det
Frequ
Hack
HED
H2O
ICE
Making
NAS
PMP
Right
Six
Serving
Tas
Tru
Vail
##hire
##PE
##west
##Tr
##FE
##Fund
exha
stead
##ria
##ober
imag
yearly
##ficiencies
chronic
prin
credi
##avorable
functionalities
else
Designer
GoFund
controlled
metaverse
transformer
testers
solutioning
informatics
concisely
##backs
checking
##luep
Contractor
133
credentials
inspires
210
Principles
mitigating
Execution
October
fairness
holding
authentication
PRI
civilian
dimensions
Fluent
indexes
Package
therapy
##ometric
Campaign
Columbia
Embedding
Reliability
curriculum
Figure
Molina
##CRIPTION
HEDIS
GoFundMe
BU
Bey
Count
FOR
GRA
Jam
Kell
NV
Oak
Sense
bat
dilig
fashion
net
psych
sal
velocity
##sman
##bing
##initely
##ority
##alks
##rete
##rog
##ami
##abb
##odies
Extr
Third
Thorough
##ested
##ellar
recre
designation
##veness
transcript
max
Administ
Forec
decade
deploys
realistic
formulate
##ortg
ifsman
PowerAp
recognise
##aliation
Paramount
##bridge
Pricing
brok
1124
ecosystems
harm
sharp
Leidos
Ownership
SOAP
GPS
manipulating
225
Collection
Driving
Inclusive
NYC
vulnerable
indicate
Focused
Broad
scheduled
merch
cultivating
summarising
blockers
##tlement
enrollment
caus
advocacy
briefings
Container
##void
shifting
WFH
DESCRIPTION
reimbursements
safer
Fanatics
Tasks
Country
ifsmanager
PowerApps
11246
62
73
CBA
Gender
Jap
Lumen
MR
NM
Pop
PLC
RW
cities
fertility
old
tele
watch
##aur
##ius
##11
##DM
##ql
##FT
##acles
##throp
wealth
neg
##version
lean
scor
scoring
intake
Store
accident
abuse
##ova
universities
##ounter
aren
operators
persu
Remain
offensive
visionary
presales
complement
Chrom
Demonstrable
publication
factor
concent
Assistant
Room
197
##rict
devise
Space
viol
Humana
donations
promotions
teraby
representation
267
Inclusively
failures
diagnostic
buyers
epidemiology
medicines
Recognition
assumptions
concurrently
hypothesis
exemption
Doctoral
clinicians
##omeland
FUNCTIONS
obstacles
Japan
86
ABILITIES
ECI
IH
IF
Keras
NRO
OPM
Tor
avoid
era
lending
ren
sn
tires
##asive
##feed
##lot
##45
##just
##sitive
##amps
##rie
Threat
resist
suitability
white
truth
scams
intr
timel
spoken
Scikit
##venting
anything
##igible
Rece
expense
Leader
closed
director
Accident
independence
knowing
Builders
Monitors
COMPA
retaliation
redef
cycles
biom
biological
Specialized
structural
welcomes
prospect
Writes
##ensively
Innovative
advantageous
protocol
fueled
Environmental
Include
divisions
ROLE
info
Demand
mandatory
##arkable
resolutions
trending
sensors
seriously
footprint
Prioritize
Helm
Females
cohesive
intimid
##represented
brainst
CH
Duty
DMI
Gain
Nature
Pat
Pag
SCR
Separ
body
diabetes
hards
hacker
mention
##space
##con
##build
##body
##30
##67
##Fs
##VIS
##inks
ing
##icking
##gemin
##echarge
##alyst
Think
clicking
##ystal
##ump
Stakeholder
adept
contex
spectrum
underrepresented
##ovy
Concept
collaborators
remarkable
parent
individually
brid
visits
1000
websites
treated
Imagine
powering
collectively
premises
empowerment
Advise
bug
motivate
majority
attending
discussion
telecomm
2015
Facilitates
Cognitive
Meas
embedding
Requests
Multiple
switch
matrixed
extends
FAIR
PCB
genuine
Empower
Vehic
shopping
journals
abstract
repeatable
manufacturers
SysML
Sensing
CrowdStrike
obsessed
Beyond
hardship
##gemini
98
Browser
Fe
IaaS
Joh
KY
Kib
POS
RT
RS
flex
pitch
war
##ball
##block
##RM
##tible
##atell
##stakeholder
##omings
##urich
##abil
##tician
##oda
##iman
##andom
##izer
alone
imaging
##osaic
Step
##ube
upgrade
payers
original
efficacy
Sug
wrangling
equality
equally
##pectives
descriptions
tasking
Imm
Shar
notify
##PAM
resourceful
increases
involvement
describes
Yearly
trained
##OSE
##DAQ
Medicine
Supplement
retailers
Improving
accomplishments
Twin
clarify
Authored
discounted
aimed
Box
Invoice
affiliates
supplier
Multistakeholder
Swift
highlight
promptly
striving
Exhibit
Crystal
elicitation
Earth
accrued
procedural
Entrepreneur
compassionate
counseling
traceability
agriculture
hazards
Pursuant
uncertainty
fleet
intricate
Groovy
shortcomings
NASDAQ
##luepr
John
47
694
81
CU
Cam
HS
Haw
Hugging
Kot
ND
ON
PS
Pol
QC
Rust
SP
Sound
Sustain
WV
booking
cowork
nets
pages
que
recharge
wear
##iable
##fall
##MAN
##ats
##itz
##antum
##acc
sto
##ocks
incon
Thinking
relative
atl
##umul
mode
##ryption
Resolves
transfers
nationally
Metrics
impacted
Equivalent
Chall
encounter
trees
participant
recognizes
concrete
##TEN
Integrated
seven
Related
demograph
Communicating
influential
SOC2
2017
Epidemiology
contributors
Capgemini
labs
##Leave
dreams
epics
disclosure
Behavioral
Balance
registered
routines
Valo
occupation
Occasionally
procedure
Streaming
##chronous
appealing
persistence
substantial
beneficial
HBase
reconciliation
##ortgage
CBAP
resistance
Kotlin
Aid
Budge
Drug
EPAM
GO
Game
Lau
Mapping
Mosaic
Ra
Rich
Se
Sched
Sports
TI
Tim
eg
furn
nu
pin
por
rare
seen
##bacco
##Py
##ICO
##CC
##L7
##jobs
##View
##reme
inel
tobacco
##anthrop
##entation
##quiring
##owners
oncology
comprom
##ustr
##ival
##izable
indef
parad
maintainability
payors
##ideos
simulations
strongest
Enroll
codebase
recommends
Accur
Accommodation
metro
empha
Import
posters
readily
dynamics
Transport
Maintenance
Customers
preferences
bioinformatics
sustainment
Select
linked
lowest
ISM
loans
Endpoint
##reading
instructional
remains
licensing
Promote
absol
restric
disruptive
Administrative
Major
Interested
Clarity
Coding
CEH
firew
preprocessing
bonding
breastfeed
fellow
Jamison
Pagoda
SCRUM
Hawai
ineligible
breastfeeding
36
74
93
Asi
Avid
DNS
Fire
Ide
IMPA
La
Mechan
O365
Rout
River
SSA
Uta
Wed
WIL
Zurich
gym
omn
ple
pandas
row
ramp
sees
tit
tire
##osis
##dale
##night
##Serve
##For
##ounder
static
assure
ours
Express
##ogic
weigh
deficiencies
committ
commuter
introduc
##asts
customize
deliverable
complexities
decom
electric
##ourced
##lexibly
founders
Argo
distribute
lists
bigger
Operate
geared
Party
revenues
112
runs
portal
##lington
profitable
##oodle
securely
formatting
gathered
earning
versa
substitute
Jackson
Shared
myLeave
MAX
PRO
Practical
Practices
repetitive
philanthrop
Depending
reinvention
Frameworks
fluency
mandated
physician
spreadsheet
surrounding
Slack
undue
Children
exhibit
7287
hubs
ArcGIS
Diagnos
retrospectives
Milliman
Walmart
ineffic
redefining
inconsist
atlassian
emphasi
IMPACT
Route
Utah
WILL
3M
Aust
Aerospace
CSA
Drop
EN
Festo
Gartner
Haves
Homeland
NH
Points
Patient
Section
Vari
brough
late
mol
skin
wind
##yles
##bal
##Os
##GS
##Flex
##enet
##order
##itan
##ecutive
##ouri
compile
##pport
##utrition
Then
clin
reserved
##apol
whom
##ellation
solar
diseases
intens
##000
Answ
identities
Resolve
##inesis
##frame
responsibly
ages
column
Record
joint
continuity
##akers
publicly
Orchest
Experi
floor
Electric
corpor
cars
Participating
biostatistics
Implementing
##ralia
estimation
attack
measurements
##folios
OpenAI
budgeting
Selective
Accountable
commonly
Utilizing
260
Motion
Delta
populations
buying
proposition
administrators
Promo
Starts
CPRA
##issance
Including
entrepreneurship
discussed
urgent
Enablement
19075
Graduate
correspondence
accrue
territory
verticals
effect
Samsara
ESPP
timeliness
Kibana
##atellite
coworkers
Hawaii
AvidX
Australia
brought
78
BR
Billing
EV
FIN
Hon
Joint
JDE
Kinesis
LTD
MB
Migr
OE
Pa
Pi
Potential
SH
STD
Tandem
band
dol
fabric
flexibly
hit
ie
length
mine
pandem
##matic
##ky
##long
##uing
##national
##70
##bot
##OK
##Business
##SO
##Suite
##CU
##Maker
##Fit
##VA
##arts
##icious
ofcc
promin
##urally
orally
repl
##owa
incub
##ighter
interm
designer
anyway
univers
##pra
multinational
lifting
defect
Technic
agend
##ublished
fullest
writes
hardening
prescri
reasoning
differently
##TIA
packaging
conception
##atitude
collects
uniqueness
readable
Mont
##TED
199
motivation
119
democr
profiles
ADDI
proposing
##rollers
containerized
SSCP
Guard
Notebooks
Specifications
##anned
intersects
Included
migrated
migrating
aggregation
Orientation
District
Constellation
Like
occupational
Guiding
diagnostics
Weekly
missing
moral
Emergent
crowe
indefinitely
ISMAP
inefficiencies
pandemic
ofccp
ADDITIONAL
AF
Aur
Bill
Crypto
DIS
DSP
HCA
Its
JA
Just
Sa
Treat
TCP
borrow
gross
io
loved
mass
merg
silicon
tag
videos
zero
##cil
##lim
##pi
##ETEN
##TC
##Build
##Us
##VC
##iters
##rot
##omple
##usting
##ustive
##quick
enforcement
Req
communicated
Ask
marts
##aidra
Metaverse
##gnite
consecutive
Deb
setbacks
firmware
participants
utilizes
129
weekend
2008
Venture
progression
coordinates
Philo
Spe
Possible
pathways
##utsch
Defin
Defender
guaranteed
resiliency
DEMAN
delays
BluePath
culturally
Owned
##COM
##serve
disruptions
appreciation
Balances
programmers
sampling
Containers
SageMaker
Premier
Achieve
COMPETEN
pertaining
Academy
exclusive
Regional
HAVE
UiPath
mockups
Increasing
Computational
exhaustive
Chromium
OEMs
prominent
Aurora
DEMANDS
COMPETENCIES
DH
Dim
Fun
Freen
Hil
HMI
HL7
OC
Pf
RA
Verm
affec
bus
cro
cards
fre
fake
fall
gas
lbs
lunch
mos
pension
rally
vice
##oe
##eploy
##HD
##Pipel
##83
##Deploy
##Search
##VRA
##inating
##alized
##ilon
##ilio
##olved
##ustaining
##ife
Exerc
relies
##apes
##gress
Procurement
Structure
Structured
DataOps
Ancestry
supporters
##enced
Contr
upstream
##ributing
collaborations
item
overview
internals
Devops
execut
Creation
leveraged
serial
Experiences
demonstrable
validity
potentially
specialties
translates
Onsite
Cover
childhood
acceptable
devi
##onto
expanded
CodePipel
CodeDeploy
portfolios
streamlining
Partnering
surf
properties
advising
iteration
mechanical
summer
Persever
stereotyping
##ANA
Ideally
computers
caregiver
exceeding
Council
epidemi
middle
GDIT
negotiate
GenAI
registration
residing
dictionaries
Salaried
Investigate
comprehend
##legal
VEVRA
practitioners
pieces
jurisdictions
Toronto
mentioned
Transportation
Asia
titles
##longed
Hilton
Pfizer
CodePipeline
VEVRAA
67
AV
Ale
DS
FTO
Guild
Hot
Mount
Night
Teach
cut
had
half
judge
nights
sent
##oors
##fiers
##tely
##HI
##NY
##pot
##x7
##Well
##80
##26
##MQ
##arily
##ilst
theory
##amm
##ulated
compos
score
recurring
Their
qualities
spot
regs
opens
##anging
protections
operated
##neys
outl
##brite
payer
Forces
Deutsch
Suitability
regulation
settlement
receives
Discover
Intell
encryption
Amplify
Image
factories
Show
Undergraduate
characterized
Version
Option
consuming
Processes
##VIA
broadly
145
CodeBuild
interprets
commercialization
Automated
claiming
136
Previously
Brand
Brands
structuring
promotional
Carrot
constructing
awesome
##losure
explainable
NetSuite
Leverages
height
Regulations
hospitality
fixing
domestically
Gathering
DAX
disparities
##Sphere
nurturing
Competency
Explor
separated
Miami
Pursues
opinion
Charlot
Independent
RFP
Validation
Handle
##CLU
Licenses
Temporary
orchestrating
proceeding
Conceptual
Frontend
##idden
Horizon
narrative
displaced
Detection
Separation
restricted
philanthropic
Dropbox
Vermont
Charlotte
63
82
Bar
CTO
Catal
Cancer
Deal
Dak
FP
HD
Hart
Iss
KS
Miss
Publish
Renew
SI
Son
Seld
Soci
Speed
TPM
casual
kn
mis
round
square
tic
talking
##maker
##dized
##bl
##OM
##GA
##MM
##erate
##edent
##olly
##plot
##usic
##porting
conform
##adence
##ogen
Ther
traction
Influence
disqual
customization
showcasing
spatial
##ventive
unle
##ittent
arms
For®
Designers
prestig
deserves
descriptive
Phaidra
Cherry
Disco
operationalizing
poster
certificate
familial
achievements
grids
ambition
goods
Alert
Cityblock
obtained
biases
Evangel
manuals
Selected
vaccine
equipped
coaches
Quanti
24x7
Evaluates
launches
Possesses
drafting
Greater
advantages
Discounts
Disclosure
Expect
Twilio
discoveries
Waterfall
affiliated
supervisors
WEKA
academia
dashboarding
Vacc
normalization
Supervise
Member
Minds
icon
resolves
predictable
Evening
attractive
publishing
##URP
uploaded
Laboratory
carrying
diagnosis
sequence
sequencing
dissemination
categorized
annotation
IQVIA
Precision
unfavorable
credibility
recreational
Forecasting
Budget
paradig
decompose
corporations
intermittent
Montana
##omplete
Catalist
Dakota
ticketing
prestigious
Discovery
Afr
DW
EL
Efficient
Fix
FORTUN
GM
Haz
Hamps
Lakes
Length
Makes
Nor
Nas
Notes
OI
ONL
OUR
OPT
Pal
Spre
Silicon
dress
kne
mal
pol
sizes
siemens
##mos
##more
##makers
##heet
##ek
##llegal
##pected
##punk
##patient
##zones
##Up
##GR
##orming
##alog
##iton
inquire
inbound
##anova
##ston
##stad
##stack
##cean
##urd
##actional
##isl
styles
##illance
asyn
##eampunk
bend
weap
suitable
##kee
produced
commands
##igham
Story
covers
##exual
##oval
healthfirst
##ountain
doers
transcripts
Many
benefitsquick
Convers
variance
##bra
decades
successes
expensive
##careers
##careerc
curation
friction
Enter
##trust
deserve
Commuter
Chat
Chem
Intellectual
challenged
governed
Modify
validates
corporation
Once
inspec
establishment
geographically
script
references
Although
virtualization
layouts
predictions
Usually
131
Secure
fitting
Teradata
Brigham
DB2
prohibit
Cares
240
##202
finishing
Utilizes
SFDC
##UITE
Mentors
INCLU
Principle
Industries
THIS
seizes
Protoc
Object
Directory
##Share
Completes
Hardware
Follows
Audio
marginalized
advocating
Positions
corresponding
prosperity
325
Methodology
David
ERGs
Furthermore
Predic
icfcareerc
adequate
Courage
cognizant
Domino
##engineering
conflicts
Frequently
PRIMARY
causal
##rieve
NatureServe
Diagnostics
molec
clinics
AvidXchange
crouch
deviations
Aleto
FORTUNE
Hampshire
benefitsquickstart
icfcareercenter
56
Au
AL
CLI
Dif
Germ
Iowa
LE
Mining
Meeting
Pine
Piv
PMO
PURP
Rapid
SN
Sep
Trib
gues
hor
joy
justice
med
nondiscrimination
vic
vetting
vested
wish
##isi
##oti
##ga
##poke
##RL
##Data
##Jobs
##AB
##erning
##ndry
##inations
##itage
##enton
##acious
revision
rendering
exists
##arett
Exem
Exchange
Thanks
relatable
whilst
wholly
attain
disp
Stewards
Comfort
customizable
##ificance
prep
##ffers
healthiest
learnings
outdoor
##ceptions
species
Admin
consent
conservation
overl
Abs
##TING
openness
charity
personalization
Experts
flight
Elicit
validated
Very
Controllers
Americas
##ampions
Financials
investigating
##SIC
Automotive
165
Strategically
advises
allowed
##opharm
##ropol
Private
212
Bioinformatics
supplying
escalations
harnessing
Material
Obj
Request
semester
honored
exceeds
compilation
drawing
Peer
reinforcement
CSV
wireframes
Recommends
Maven
Fastest
##elfare
Registration
##ometrics
Validate
sensing
orchestrate
racial
listings
Concepts
Dashboards
HERE
Submit
calibr
APPLY
##adyme
bespoke
##bucket
Segment
Thrivent
Kellanova
salaried
##abbit
PLCs
scorec
COMPANY
brainstorming
##building
Jacksonville
inconsistencies
FINRA
Hartford
Missouri
German
PURPOSE
guests
101
Awards
ALL
DM
Give
H1
Led
Lang
Neg
NPS
Ok
Pit
PAR
RI
Secur
Smar
Skin
SPM
Tx
Vets
WIT
diversi
illegal
published
rena
sustaining
##tack
##ung
##via
##Ds
##MC
##49
##tious
##alend
##elity
##iciting
##stone
##issible
##idelity
##tsbur
weight
##ologists
spearhead
underp
toolk
doz
goes
transmission
parsing
variables
Adap
directing
Recovery
crisis
##ernel
Triton
completes
complaint
Period
Accred
Intense
factory
Underwriting
SAL
Optional
##auth
155
significance
CICD
##TECH
Applying
furtherance
later
ANAL
doctors
iterating
SOP
schol
##OSB
traded
subscri
anticipating
alternate
poweredby
treatments
refining
normally
supervise
permissible
Telework
rollout
##daq
Obtain
Observ
tactically
Established
facets
##umbtack
macOS
scenario
Tracking
Initially
migrate
Translates
fearful
conversation
HTTP
##eroes
Distributed
APUS
illness
petaby
figure
territories
Info
Harley
Curiosity
birthday
##insic
EquipmentShare
Panels
suggestions
Louisi
##DMV
concentration
##justment
RTX
Mechanical
intensely
Pione
Perseverance
Seldom
Nasdaq
ONLY
Davidson
victim
##ropolitan
Negoti
Pittsbur
TxDMV
WITH
renaissance
poweredbyDI
Pittsburgh
BPM
Hash
Letter
Lift
PST
Renton
Rabbit
Tango
Upon
Ultimately
War
Yr
bodies
city
docker
nutrition
satellite
tut
tens
uD
words
##iet
##iFi
##sework
##nell
##Wear
##wire
##EW
##Ch
##FL
##rees
##rob
##anagement
##elin
##olutions
##acent
repr
referred
##ammar
stocks
##eva
compati
##ifts
Export
incomplete
##unting
relations
imper
produces
employed
Insi
Insight
Invent
##ignity
##avement
builders
posts
perce
##ouses
preced
modes
prag
Reference
undert
basel
##expected
##viation
Acumen
Conversion
payzones
##athy
finally
assume
USC
looks
planners
Enthusi
##ipled
##ocket
metric
Agent
charitable
notified
##appings
consume
Contributions
##ediat
##ibly
combat
retrieve
Overall
maximizing
extensions
coursework
minimizing
detecting
transferable
Defining
adjacent
representatives
Consultants
227
##boarding
friends
Connecting
holds
articulating
authenticity
actors
aims
serverless
labeling
County
installations
Bitbucket
exercises
FAQ
Maximize
hosted
Interprets
844
surrounded
encompassing
filter
racism
Built
Ethics
Awareness
Awesome
Dashboard
exactly
formulas
diligently
Administer
intimidation
Immigration
Sharing
furnish
Important
firewalls
##Force
universally
democrati
Hazard
TritonWear
Louisiana
RabbitMQ
91
AML
BD
Ber
Bre
Basis
Bio
Cat
Case
CST
Dy
Dedic
FTE
Flow
Friend
Hou
Ignite
Mil
Made
Nur
Ongoing
OWA
Pul
RAG
Sev
Sets
Such
Sina
TFS
bad
casc
hot
homes
lens
ranks
tab
tie
vet
walks
##aver
##cast
##hift
##heets
##lib
##des
##usion
##uary
##bone
##23
##25
##Learn
exceptions
##asury
appra
##itim
reserving
##aches
commuting
pool
##ancers
interd
##ensity
Rein
##ereavement
CompTIA
##rued
Worked
##vion
##neti
responsiveness
practic
variances
stands
expose
seeing
button
frame
boards
##tran
completely
enhances
webinars
Managed
discriminated
##ESS
##quisitions
##posal
grammar
becomes
principled
callers
147
facilitates
eleg
ADP
happiness
accelerated
peace
credited
confidentially
##OUN
adopting
classifiers
##STAR
represented
Written
Innovations
download
Capability
permissions
iSeries
disruption
PinFlex
##Shift
##Star
Marketplace
reusability
FutureFit
supplied
Setup
wireless
##locking
Afterpay
correlation
Holdings
Advisory
Foods
Eventbrite
delightful
Anticipates
allocated
purchasing
Artists
assembly
January
Classification
appearance
telehealth
Suggest
pleased
##apolis
affecting
INCLUSI
Predictive
Tribune
underpin
SALARY
Dyneti
Houston
OWASP
Sinai
3Cloud
54
Afl
During
FO
Hist
Ing
Kali
LMS
Mor
Mem
Move
Nex
OVER
Past
Talend
Vet
YA
ball
bio
ded
dignity
hidden
mist
miles
mappings
random
##onder
##he
##heral
##ean
##HT
##uff
##berg
##RPC
##Dev
##47
##â€
##erance
##aton
##enty
offl
##olerance
stuff
##tsheet
##portion
##ulus
##emble
##lyn
##imble
External
dex
##keep
##ipheral
##ours
left
Pros
peripheral
##entinel
##ialog
Score
Analytica
unexpected
toolsets
Acqu
transactional
ago
Admired
ending
backing
##alse
curate
##rolog
directors
prescription
Committed
Arlington
107
Amgen
legisl
authorities
discriminatory
Paradyme
certificates
excite
informative
##ought
explan
COTS
studios
Consults
Contribution
humanres
2000
Regions
devoted
Alt
Algorith
Bloom
Used
Higher
GitOps
Clearly
Spot
Outc
Outreach
energized
Scale
adaptability
internationally
2010
2018
literacy
##MED
subsystems
Presents
Atlantic
175
synthetic
turnaround
accreditation
Flink
Informed
##ltimate
Brook
Authentic
Lakehouse
seminars
QlikView
CPG
epic
WHO
adheres
Graphics
Auditor
comparison
mixed
relying
cardi
residential
landing
therapies
cooperation
satisfactory
##zzatur
Adaptability
Advisor
slides
Sagemaker
Civilian
consolidate
Treasury
patches
Armed
harmon
bridging
Cambridge
Laundry
Migrate
Renewables
##edentary
Sprezzatur
Smartsheet
Aflac
YAML
##eanor
offline
humanresources
Sprezzatura
Ax
DEC
Escal
JAD
MedIn
Nash
RP
Rules
Ster
SIS
Sprint
Santa
Sexual
Tree
Tables
VT
Xeta
Zero
born
eeop
jus
latitude
mott
ultimate
##rual
##bie
##88
##98
##ION
##SH
##Logic
##API
##VAC
##inal
##inery
infor
rej
workday
##ticians
##tera
Thumbtack
trail
##fications
##rombie
champions
##ansas
interru
Dataflow
modular
creator
positioning
anytime
Respect
##arian
Qualification
Fort
US99
USSO
Management™
consequ
overarch
Enti
boot
destin
Phrees
Chart
specifics
visuals
##person
listener
operationalization
legitim
##berty
##egon
##ercrombie
modernized
homeowners
Road
##ricks
Interf
machinery
##VIEW
Maintaining
Policies
Second
Fridays
166
##aptop
measured
actualization
dealer
timesheets
##CSC
##ILE
2014
Caring
observations
craw
electronics
GPT
172
afforded
Backed
conversions
verifying
temp
temper
rooted
Initiate
genomics
MDM
WHY
forces
tenure
tenant
fluent
precise
Occup
separate
Credentials
Hyper
boarding
STATEMENT
algorithmic
memberships
adaptive
Neo
Sourcegraph
cohort
links
illustr
honesty
embody
ESOP
Civil
yields
Calend
brokerage
compensate
Encour
Holland
fundraising
susp
##aurant
bookings
Enrollment
Accurately
absolute
ENVI
merging
Definitive
Evangelize
asynchronous
Conversational
ANALY
reprisal
perceived
OVERVIEW
mistakes
MedInsight
Nashville
Sterling
eeopost
motto
USSOCOM
overarching
Phreesia
220
34
57
DR
GC
Gre
Low
NAM
OCM
PK
PEC
TRA
Ur
Wiz
brow
fisc
false
kids
moves
oversees
pays
rule
sym
yes
##auty
##ram
##iana
##mond
##haw
##dog
##days
##nam
##gle
##17
##15
##zing
##Graph
##Med
##onn
inj
##ecom
##let
##urners
##acies
##plays
stellar
anti
##etnam
##ultiv
##terity
beach
enfor
rele
##obl
alike
dish
dispro
Stry
adults
roots
Scot
Compile
unlocking
##ruction
##ategy
##pression
Acuity
throughput
outd
outbound
Prevention
##ariate
aggres
ended
Strongly
personas
sexuality
brill
consc
observe
phot
mostly
Provided
Disaster
Displays
distr
distributions
Payment
Shield
Notification
concerning
Operation
Areas
CDW
Verily
Indiana
CORE
necessity
contracted
signals
##PART
expectation
workspace
ambitions
Does
colleges
Interpersonal
devops
returners
searches
construed
handles
broaden
educators
163
drugs
##owned
donation
consultancy
extracts
transferr
Queries
institute
raising
amongst
Utilities
750
responds
auditors
loads
DEPART
CircleCI
##9943
Vietnam
kindly
EDC
synthesizing
CMMI
285
289943
IPO
Authority
Availability
Gradient
accepts
Responds
principal
Fivetran
Empathy
Slicer
flourishes
Veeva
spgbenefits
shifts
Curious
obligations
##plitude
volunteers
Agreement
swimming
battery
IFTECH
renowned
snacks
telecommute
Challenge
baselining
elegant
Occupational
##hawk
Stryker
IFTECH202
06
360
AK
ACA
Ba
Bus
BSA
BFS
Cle
Cos
CRE
CER
Dru
EY
EAR
Fidd
GI
Games
Given
GTM
Hill
KPM
Nu
OTE
PMI
Rip
SV
SEC
SMP
Seph
UM
gate
gRPC
hel
ii
iP
las
pul
rather
said
vectors
##uzz
##yff
##beat
##wau
##Red
##Aler
##onge
##real
##ectious
reply
##etry
##tsdale
##emn
##opes
##ained
##ivable
##iverg
death
neigh
##ients
yours
##ureau
##eeps
Datadog
Scientific
undergraduate
Analytic
Resolution
arising
invo
remediate
Attain
##avor
##tinc
decre
backbone
eliciting
Recent
defend
constitu
##jectory
versions
amend
financially
locally
##eworks
Despite
determines
collections
thereby
CORM
156
Advant
Lifetime
Foundry
508
Alph
##ALTH
144
RECR
1300
earth
wins
winner
telem
classifications
Quest
Carbon
aids
Recruit
Rising
Organize
Organized
Epics
176
Subst
Internship
groundwork
IND
pushes
Discount
Discipl
accrediting
seems
envisioning
trajectory
##CRP
regressions
Hubs
waiting
oneself
Robust
summarizing
Synthes
synthesis
Swyff
losses
Studios
unmanned
residence
hung
probationary
enrichment
wider
SoftPro
Blackpoint
HPCs
hierarchy
Methodologies
cooperating
Codeworks
incredibly
ElasticSearch
pulling
disseminate
heritage
effects
AGILE
cognitive
AutoAler
Markets
Monetization
HUB
MRV
biomedical
contextual
Vehicles
Feature
Times
CSAT
Paul
OCCRP
Sonar
knack
unleash
Quantitative
##aretta
Liftoff
Milwau
dexterity
NAMSA
Scottsdale
DEPARTMENT
Fiddler
Sephora
CORMAC
Alpharetta
Swyfft
AutoAlert
Milwaukee
4B
5pm
Av
DOE
Gra
Hoc
HOW
IR
Iter
Jones
KO
Laun
Mutual
NS
Near
Nov
Ol
Outs
R1
Si
Sn
Sun
Serv
SBA
Sentinel
UP
Vue
Vector
VHA
WS
ath
bit
bear
caste
iq
mortgage
music
pilot
puzz
##sers
##table
##hell
##know
##ltr
##dent
##uge
##bus
##vity
##vans
##vince
##90
##One
##Gen
##48
##400
##An
##Zone
##tial
##onesty
##essibility
##rets
##icrom
provo
replace
##gebra
exception
##rist
asking
acquisitions
Thrive
weather
resourcing
##gression
##ips
plenty
commute
Intr
intolerance
Profit
Stake
##enega
accrual
modification
servicing
learns
##rowd
unp
unknow
##oots
arm
Apple
Unreal
subjects
fintech
Closing
endpoints
brighter
##ributor
ITCA
Deere
Designated
accessing
Cham
Channel
Chenega
Ardent
102
faced
visualizing
##alian
Builder
##iscovery
##appos
matches
extreme
152
191
196
wanted
seniority
Martin
instead
paternity
demeanor
##mark
runtime
TigerGraph
Spy
embraced
inspection
Keeping
Bonuses
269
Annually
INTE
##arship
begins
mastery
Expedia
Assessments
navigation
deeper
teachers
approvals
Worldwide
CPQ
smartest
##COP
infuse
CSF
CISM
seasonal
mandates
touches
Headspace
Hyatt
NodeJS
IoW
resolved
Consistent
PDF
Funding
trying
Campus
Supervisor
routes
Columbus
Academic
catalyst
neurod
NICE
Telecommuting
PPG
RM1
Merch
flagship
Population
Entrepreneurial
window
prescribed
Freenome
Hotels
Teaching
judgement
HDFS
Society
Protocol
##opharma
Observability
Inventory
pragmatic
##portionately
dishonesty
disproportionately
##Reduce
##emnity
provoking
Stakeholders
unknown
610
96
Ave
Bax
Die
File
House
Lu
Meter
Page
RLC
Ranges
Sod
Sept
TA
Tail
UAG
Va
VSP
Xpl
bluepr
dict
et
filing
fidelity
gift
hunting
jug
mouse
sk
session
sizing
##ris
##inds
##sons
##making
##HE
##HIR
##NT
##Watch
##93
##waver
##Center
##Max
##ASE
##alition
##roduce
##aris
prolonged
##size
##abit
##qua
##ulates
conferencing
##odiversity
incomes
Thinks
##ourneys
recip
timing
accol
contests
modifies
timeframes
meticul
showc
spouse
spouses
##rying
##exo
fiber
opt
Accep
Manip
careful
##timore
grows
protects
##flows
Qualities
Unified
Remotely
clouds
##avily
Techniques
overnight
Device
Trad
invested
Applicable
Cloudformation
Modus
Modelling
Parsons
Beka
BIG
matched
Prize
Indic
corner
158
carriers
secret
Along
demo
choosing
numpy
biodiversity
Researches
Blog
Statistician
Clearpay
Summer
500®
contains
attribution
Clients
surv
##armers
Brill
satisfied
adopted
revolutionary
Quarterly
paramount
thoroughly
mitigations
##AMA
Northwest
Capture
funnel
Minority
heavily
Everything
ingesting
Safe
##ictory
alert
fingers
Colleague
indexing
December
reinvent
supplies
Setting
refrain
DOD
derived
moments
granted
surveillance
Baltimore
315
Determines
NextGen
Libr
Blackhawk
Belonging
Edge
SCD
Survey
exhibiting
##aho
333
Motorola
Achiev
camera
neurosc
stressful
suggesting
billable
evangelize
glance
scanning
Telecommuter
HCPCS
augmentation
warf
Raises
Schedul
weighs
Promoter
##liminary
freely
executed
Mindset
horiz
diversified
Friendly
deduc
Neo4
fiscal
Cosmos
KPMG
##ongevity
RECRUITE
athle
iqvia
##icromanagement
Baxter
RLCC
Sodexo
September
UAGC
Xplor
##wavering
Bekaert
Aegon
Bent
CW
CX
EE
Eager
Fly
FICO
FHIR
Gall
HY
HM
Iac
Keen
Luc
Last
Micromanagement
Navig
OCI
POps
PCI
Sk
ST
Sing
Tob
VI
Wage
Wall
Would
Zappos
cott
crypto
fight
gifts
heal
heroes
journeys
ling
mile
nola
rented
sy
soc
snow
split
welfare
##cill
##culus
##fits
##pass
##bench
##214
##OD
##Are
##eny
##itarian
insure
##anel
##ouch
##omo
##omic
##veted
##iser
reverse
stat
stationary
iseatz
consisting
##oding
##echnologies
deems
##appro
attainment
##thernet
impos
intru
##agin
builder
##official
##oretical
coveted
protective
##orders
collaborator
##flare
Adept
evolved
quiet
Plural
crime
##nessee
mature
Peraton
Changing
owns
Ark
CloudWatch
formed
formulating
Incor
Amplitude
passions
dependency
Origin
recorded
Moda
notification
##TLAB
ideate
Generation
partnered
Root
Integrator
Relic
113
redund
CityBusiness
biometric
influences
307
USDC
incremental
secured
##factory
Specialty
court
compete
detections
##atera
HIV
raises
affected
awarded
##itigation
228
stocked
PHA
IBMers
INFOR
##herent
BASIC
pharma
ARM
Specifically
MATLAB
Pinners
transitioning
Simply
##Stack
computation
450
359
negotiating
##ecommunication
280
CISA
Portability
humble
entering
Constantly
substance
Registry
Registered
MetroStar
Earning
groc
Fraudulent
CBRE
WORKING
Mindful
categorize
Embedded
appeals
redesigning
Tennessee
Archive
patching
strictly
SUPER
PERM
augments
graduates
Liaise
Liaison
chemistry
volunteering
multicore
intentionality
Keeper
RWE
terabyte
IHG
encountered
Orchestration
Contracts
outliers
AlertM
Afresh
inquired
cascade
Bloomberg
Outcomes
Brooklyn
epicenter
Entity
Calendly
browsers
outdoors
brilliant
Baer
Intrinsic
accolades
cottage
##cillary
Pluralsight
CityBusinesses
Bain
Cultiv
Dise
Er
ET
Feat
Fertility
Gal
Gas
HANA
Ivans
JJ
Mand
MAP
NVI
NiFi
PLE
RIF
Ship
SPA
Tag
Turing
UCOP
Voted
Wire
blocks
cas
cadence
gannett
keeps
kinds
lad
lies
loves
mn
men
mathematica
sil
tree
vSphere
wages
worth
##aples
##iment
##fire
##town
##kpi
##liant
##uf
##paces
##bps
##Par
##POR
##word
##za
##zes
##zai
##OPS
##Docu
##Br
##CV
##tiful
##estern
##enium
##itas
##ano
##entures
##elt
##oul
##omb
##omed
##olf
reject
##quet
##opy
technic
algebra
Wealth
manus
##aching
##verbal
trig
##tivariate
Propose
##eals
Ste
Staples
##sson
pra
Ref
Rep
##lder
Compar
Compass
bash
unwavering
removing
multitude
focuskpi
##sole
Ads
Advertis
orientations
##tifications
enduring
expects
##ributors
##ichannel
##PIC
franch
regulators
analyzed
00am
Commit
Creativity
differentials
annuity
103
108
nonverbal
Cloudflare
formative
209
storing
itself
Presto
addressed
##autiful
COM
Partnership
ethos
gathers
##argo
maker
Marine
motivates
evening
Transfer
Interacting
secrets
##ENSA
balances
balancers
##ALU
##ontally
profound
Spearhead
Outro
economet
Selenium
IDE
IDS
welcomed
##DIA
Appian
CarMax
minority
242
featured
Biot
Coordinating
loops
Driver
Mentorship
NetDocu
Capacity
failover
NumPy
Often
mediocr
Expand
Motive
Readiness
Vibrant
##offee
kindness
medications
350
drawings
Virtualization
infectious
Recognizes
Magic
AAA
Retriev
farming
TDD
##born
##locity
Portland
Pharma
intellectually
NETWORK
FLSA
nonprofits
prompts
advocates
Funda
PNM
Holders
multivariate
reconcile
Preferably
381
Ethical
Feedback
Stitch
COMPENSA
formulates
##MATION
MapReduce
archive
multicultural
steadily
brokers
merchand
terabytes
ingred
demographic
Richmond
Latin
##enetration
Dimensional
Issue
##plotlib
iconic
kneel
inspections
molecular
Stewardship
Rippling
laser
AttainX
Olsson
unpaid
Chamber
horizontally
RECRUITERS
AlertMedia
Mandatory
PLEASE
NetDocuments
mediocrity
COMPENSATION
Age
Bra
Fre
Fees
Fitch
GEN
GAMA
Hi
Half
ISS
JH
Justice
LOB
MP
Millions
Mix
Named
Ox
OA
Oversees
Pension
QMS
RL
Roch
books
fed
gar
hes
jump
kitch
koch
loving
laptop
names
nimble
tex
utm
wor
##lo
##lain
##NC
##uit
##GPT
##SD
##Str
##Mo
##FI
##erated
##esian
##itate
##inger
##ingly
infer
inizio
##elong
##star
##urs
##pline
reengineering
forens
forming
##etal
##uclear
##ried
workplaces
beauty
##imagin
##anda
Exact
Therm
although
WeAre
producers
sold
##tivities
##ums
Stata
Stays
Steampunk
ads
adm
Dataverse
modal
Anti
Regression
shapes
programmer
unofficial
unimagin
Resil
AIOps
integrator
remaining
Units
Adher
##ique
ende
MLFlow
optimum
automates
Recon
expensively
phased
frames
visions
Alliance
Abercrombie
China
Arrange
Cloudera
204
##abling
transformed
Amb
whenever
generations
physically
##imeo
objectivity
smaller
SAM
Indeed
notebooks
safely
Opens
disciplined
Onboarding
Covid
Offices
grid
Assets
Foundational
Dept
Depth
motivators
coordinated
Joining
Researcher
internship
interpreted
REPOR
robustness
ADO
ADLS
attacks
actually
Selection
Legion
iteratively
shipboard
Architectures
Serverless
##DIC
Really
ministry
observational
Utilization
Delivering
Terms
SFTP
Biogen
Biopharma
NOW
draft
lookups
gains
Innovate
synchron
escalating
Circl
versioning
heights
Flask
GPUs
clarification
PRN
fixed
competitors
upholds
licensed
perfection
Institu
DATE
EDM
foods
Robert
Below
advertised
Synthetic
TEAM
instruments
instrumentation
possibly
retrieving
Maine
Geospatial
Crain
smoothly
Documenting
administer
Handling
appointed
boost
mutually
unders
Everify
abstraction
Mindfulness
Feedzai
##BRID
reproductive
attachments
APPLI
insurer
Money
MicroStr
Keeps
Influences
Extra
violence
IHME
##umulative
nuances
omnichannel
ArgoCD
Experimentation
agenda
##oetis
composed
Germany
petabyte
uD83
Insider
Reinforcement
FOIA
destination
Interfaces
transferrable
HUBZone
Outshift
Brillio
neuroscience
HYBRID
Tobacco
INFORMATION
NVIDIA
Retrieval
Chamberlain
OAuth
kochcareers
unimaginable
Circlers
MicroStrategy
46
775
Bug
BMC
Bureau
CL
Cab
Coin
Du
DBA
EA
Estate
EPIC
FU
Fine
Ferg
Hit
JD
Ll
Lew
Lock
Nove
NOR
Old
OIT
OLT
Oculus
Powers
Rule
Reward
SB
SCO
SVP
TL
Ub
VB
Vault
cumulative
east
eco
elder
fem
founder
gold
hats
ir
lang
mamm
night
punc
rise
senti
sides
sourced
##rady
##cing
##oon
##mber
##fiable
##ls
##xi
##RON
##Ex
##27
##YS
##Sc
##Sense
##Car
##First
##KHealth
##jern
##iner
##enow
##ala
##tionary
##retionary
##roke
##arbon
##ica
prove
rebuilding
staging
stabil
##idental
##uson
beautiful
##untu
Things
reserve
##ipedia
trillion
imposing
introduction
##tiviti
##agher
Theft
interacts
containing
Anton
Repos
##reek
shut
coast
performers
Workflow
##anger
dots
invasive
removal
Unsure
subcon
Forward
quant
quantum
automations
standby
ITOM
experiencing
requi
##reats
verified
realm
wrong
Accessibility
Intake
metropolitan
Supportive
generates
Teamm
Imply
Fullstack
accountabilities
century
Indian
##ecessary
COE
Cotiviti
Corning
Advoc
devising
reflecting
reimag
149
Kube
Clearing
##ORY
inquisitive
Continued
calm
SOA
Bayesian
Quantum
2016
minute
affects
Utility
Collab
Collects
Subs
adjustment
graphical
grounded
downtime
Grant
Discretionary
##amboo
Sojern
##IRD
THIRD
Wikipedia
Motiv
triaging
honorable
frequency
850
tolerance
repeat
restless
Robin
medication
Presentation
9001
sprints
Someone
##ormal
Portal
Competent
BEKHealth
convenience
progressively
eyes
Criteria
Hyd
PoS
Awarded
RFPs
Investigation
Licensed
Advisors
HeartFlow
embar
290
blood
percentage
pertains
adequacy
Madwire
NGS
reproducible
Relationships
narratives
evangelist
Inspires
chemical
broken
switching
##itzer
stooping
portion
committees
MBSE
Savion
tagging
SIEM
Vaccination
Absence
H1B
toolkit
dozens
filtering
interdepend
practiced
##rology
Algorithms
Spotfire
trailbl
Chartbeat
Roadmap
temperature
decrease
INTEGR
Diego
Library
Gallagher
SUPERVIS
JJR
technicians
manuscripts
Comparably
Caboodle
Ferguson
Lewin
November
NORC
OLTP
Powershell
SCOPE
Ubuntu
sentiment
##radyne
92
Aim
ALS
Aviation
Bed
Beam
Bereavement
Cell
Doll
Ele
Eight
Freedom
GH
GRC
Hum
LT
Lines
Moodle
NCSC
OP
Pays
PEO
Rou
RBA
RPL
SCM
Tell
Tests
Vulner
Watch
dat
eb
fasc
jQuery
mart
mesh
nav
nuclear
pill
rati
sen
vR
##sed
##com
##oking
##mes
##most
##fill
##fect
##heed
##Net
##ument
##utives
##power
##ycles
##bu
##18
##89
##wess
##RY
##TaaS
##Tube
##Drive
##Bs
##Gs
##FF
##inn
##iny
##orial
##ato
##icate
##acture
##asant
##quad
young
##owitz
compare
neither
placed
leaps
Proc
Stellar
YouTube
admired
module
##psilon
shelf
servicenow
##overs
optical
doors
transact
Emotional
mainly
##ubs
individuality
considerable
colour
##onda
paying
##entsu
feet
depos
captiv
defenses
##rolled
Tra
lifetime
initiation
marketers
marketplaces
Discharge
104
statisticians
Desirable
engages
topic
Beh
associations
##TLE
Indig
Prax
Prince
Opal
specialization
157
editor
CAN
humanitarian
##aningful
141
SDV
##ERAL
increments
viability
Continuing
Install
budgeted
##INE
404
affairs
NOSQL
Airbus
Executives
Annuity
downtown
Meaningful
Companies™
holders
holdings
diges
accomplishment
MAKE
behave
Confident
administrator
POCs
Dynamic
Promise
Logical
repair
Owns
Sym
evidenced
returns
installing
infograph
Angi
Weekend
Genes
officials
limitless
subsidized
humans
expansive
conceptualize
stipends
Determin
Liberty
enriching
Charitable
heads
Choice
Earn
briefing
AS400
ticket
diagnosing
stopping
LeanTaaS
preparedness
R0180
Estimated
HEALTH
AGEN
caliber
outsourcing
displays
distilling
Desktop
fundraise
GRAIL
TITLE
compromise
Wednes
committee
Various
Answer
DISA
surfacing
paradigms
Fixed
GMCI
ChatGPT
Adapts
scholarship
##keeping
Acquia
injury
##ivergence
puzzle
neurodivergence
61049
##abitat
Accepting
Scheduled
Bentley
healing
impossible
Incorporate
Cultivate
Disease
hesitate
WeAreC
underserved
Coinbase
Llama
Lockheed
langchain
mammalian
Antonio
embarking
RBAC
Praxis
AE
Alex
AOS
BH
Batch
Bluepr
Bamboo
Cause
DP
Dive
Era
ENG
EBS
FIS
HW
Harm
Kod
MM
MES
MHS
NGB
PB
Sector
Saud
Soph
Vill
Zoetis
dou
dialog
gave
griev
ha
hone
hair
lose
linking
litigation
lument
pick
penetration
sender
sedentary
vimeo
##aware
##rate
##ibility
##car
##crowd
##ositions
##ml
##mers
##fast
##tex
##ham
##HER
##group
##yards
##band
##31
##96
##EY
##Tek
##Dicer
##Lens
##Kit
##erber
##orp
##itomo
thr
##elve
##iler
##stars
##plary
stroke
anxi
ascendion
##ears
worker
workaround
##ulatory
acquiring
##imenting
##alytics
##udication
embed
Weights
##key
##oss
##achi
##endit
attor
solves
introduce
##agster
##ealize
contem
spin
Sci
Workbench
experimenting
newest
deliveries
toolset
liability
Actu
Across
Appr
multiface
##onduct
advers
adverse
Adj
Close
quarter
expendit
curated
analytically
Above
Trade
assistant
Providers
investor
109
distributing
openly
classical
Oral
Fintech
Moderate
soil
personality
excites
CDP
Vertex
Oncology
necessarily
154
122
124
CAT
workspaces
##axi
Centric
Transaction
Transparent
Transcripts
Interacts
EEOC
bios
Sumitomo
reaches
checkl
Andre
Bright
dealers
238
earl
##atered
Scaled
##CSP
2011
rapport
versus
Evaluating
observed
countrywide
IICS
Homebot
simplifies
Coordinator
Executes
PHM
refuge
Netradyne
escalated
robotaxi
##ambig
##6545
fairly
captured
Floating
Obvious
Formation
Directly
deleg
exposed
Delaware
Techstars
enthusiasts
reduced
##123
Needs
##boro
##borhood
##banes
highlights
OFC
microservice
Preparing
Transformers
##ITYOne
rotations
rotating
Exhibits
residency
Freeport
MiTek
feasible
Positive
hosts
Michelin
Illness
##arrant
APi
cooperative
MIOS
Aria
Templates
incorporated
ACC
routed
Doctorate
WFM
Prediction
differentiators
rooms
morale
Combination
branching
519
excludes
excluding
Hollstad
Approximately
2676545
CUDA
demographics
omni
Treatment
lunches
Deutsche
Therapeu
Efficiently
Augmented
revisions
Exemption
Objective
compatibility
Break
##castle
Foodsmart
LMS365
Altria
interruptions
consequence
illustrate
suspicious
aggressive
SlicerDicer
SVN
windowLearn
meticulous
showcase
praise
utmost
Duke
Hitachi
shutdown
subcontract
Collabspace
INTEGRITYOne
ebay
vRealize
Princeton
infographics
AGENCIES
AOSP
Kodak
Saudi
Village
anxiety
multifaceted
Hollstadt
267654520
07
44
Ak
APM
BW
Bios
Bargaining
DNI
Draft
Dagster
EC
Ethernet
Fish
Founder
G2
Hired
Headquarters
HVAC
IRS
Jr
JU
Lex
Looks
MC
MOS
Natera
Pass
SEN
STS
UCS
Vist
VALU
WY
ang
auc
border
coffee
dry
dives
favor
kid
kernel
lived
poll
pure
rational
sight
warrant
##aos
##ij
##iors
##cat
##oqua
##mans
##ho
##ein
##eave
##loft
##ds
##House
##NMENT
##upport
##nesty
##grow
##yte
##ygraph
##50
##wid
##Imp
##RP
##UL
##AA
##ores
##eload
profession
prowess
##activity
##plication
##perform
##perva
##essen
##think
##iding
##idence
##abama
##ete
##etters
##quent
##ulator
enrolled
##ifiable
##ander
almost
manuf
##ologic
##ologist
scopes
Progress
Proposal
chap
churn
##agency
indemnity
##ousing
preventing
controll
shine
Complex
Compassion
##aluable
outlining
invited
invaluable
Apex
finances
optimally
elite
standups
ITS
religions
##iones
joins
amnesty
##tra
detailing
##teen
Command
France
Accol
Accumul
Intelligent
Arab
##aki
formulation
206
somebody
Aggreg
playbooks
trendsetters
Finally
FinTech
Imperva
Experian
Assignment
trackers
Prime
Coalition
Contributing
Salesloft
ethically
vegan
Foundations
2009
Maria
Interagency
determinants
182
Alation
Alabama
##ootprint
Engaging
breaches
Highl
entries
ordering
furthering
134
contained
supplement
happier
accelerators
surplus
surrog
Centered
OpenShift
ANS
describing
situational
celebrated
constrained
minor
##DAP
conditioned
simplifying
Prescription
Organizations
proofs
Subsi
BSc
cleanup
DEV
Maternity
Matlab
Considered
Formulate
Directors
terminate
propositions
mediums
POC
Dynamo
merge
label
county
contingency
spiritual
advertisers
##tize
anomaly
Pharmac
calculation
Geo
Attributes
Distribution
##iCorp
intuition
Neural
Gradu
illnesses
Licensure
journalism
CBS
##ennial
OTHER
yielding
Elevate
manufacturer
NASA
coolest
Horowitz
reproducibility
Army
quantifying
Copilot
PERFOR
877
PPO
Meraki
Radar
beside
Winner
conflicting
GEICO
Louis
Agreements
steady
contexts
Vehicle
PSCU
stoop
TIME
earnings
bandwid
fabrication
Speaking
busy
Intelli
disqualify
ELK
Pivot
calibration
PARTY
HashiCorp
Enthusiastic
##ediatric
Nursing
Seven
tabular
Nexus
##â€™
legitimate
released
neighborhood
Advantage
Hubspot
hungry
blueprints
juggle
Indicators
Neo4j
lingu
snowflake
caseload
Advertising
GENERAL
##arbonization
SUPERVISORY
GHX
Vulnerability
captivating
editorial
SDVOSB
digestible
Blueprint
biosecurity
Andreessen
##manship
##Impact
manufacture
bandwidth
39
42
71
AW
C4
D3
Dame
EF
Fan
GG
Gives
Giving
Holder
IO
IIS
IPC
Jac
Kent
Less
Mortgage
Nag
OL
Others
ODS
Pent
PSE
PLA
Ray
Rale
Rails
Sar
Sam
Sitting
TT
Tut
Taking
TSP
TFL
UD
UML
VMs
Wy
Welc
Zy
aes
bid
bever
bind
burd
dipl
jum
longevity
nesting
som
sits
tact
telling
wired
xml
â€
##rations
##cope
##oa
##hive
##ken
##east
##lah
##uel
##gers
##gests
##bush
##37
##35
##Work
##Pay
##wood
##week
##Rel
##Can
##ón
##eration
##alled
thus
##road
inquiring
tow
##anet
##ansitions
##iled
##iconduct
##sitiveness
##plate
##plier
ordinance
comment
##threading
ancillary
##idata
isol
console
##emy
compiling
acute
Thous
restor
relied
##estro
imagine
whit
mantra
Infra
impose
Province
Proliant
preview
preventive
contents
Refine
Reorg
statuses
timeframe
spelling
Compiles
anyways
door
Actim
Acrob
transit
invests
Aptitude
multithreading
Unqual
##avors
subse
optimizes
optimism
architected
phen
Enigma
realized
continents
engineered
keys
initially
Artera
statistician
smoke
activate
##ONUS
##atile
expressions
Imaging
ecommerce
##ESO
contrad
Visionary
association
informs
staffed
Whole
respects
studio
Consolid
privately
Advocate
Contributor
CARE
Communities
establishes
##TER
198
##assively
colleague
##REN
##antir
patents
visitors
##burg
logics
logistic
interns
Spectrum
Postman
137
132
Languages
ADF
inquisitiveness
attribute
Offers
peak
credits
donors
Bigtable
doctor
233
examine
SOW
SOAR
adaptation
##DITIONS
CRH
21st
twelve
Faculty
tradition
Wrangling
anticipation
Atlas
1798
##tinguish
Annot
Northeast
retailer
Discord
convinc
703
SoFi
ARC
crafts
Matters
accomplishing
Establishes
Establishing
clarifies
Notre
buyer
ESRI
NEED
Promotes
Practition
Following
Fluence
pioneered
artists
complying
reinsurance
Mongo
Retention
commissioning
cleanse
Authorized
Explo
grantmaking
SMG
memor
thresholds
acknowledging
Fulfill
Construct
exploitation
19052
##itae
uncomp
Character
PLM
safeguards
Updates
RelationalAI
RFI
##nitude
##IMUS
Clara
Handbook
Medalog
Triage
##uckets
Buy
therapeutics
DESI
differentiated
ArchWell
Madison
Madhive
BOLD
agricultural
courageous
outsourced
Classified
psychometric
intranet
ingests
Sustainable
Schedules
linkedin
Ideology
SSAS
Wedbush
Technician
agendas
Exercise
Exercises
middleware
Palantir
weapon
weapons
disposition
overlap
scorecards
Oklah
Accredited
subscribers
Dedicated
balloon
##ramid
Clean
pulp
Launch
##Analytics
Merchand
athletes
HMIS
PHASTAR
Features
SPAC
##Bridge
Oxley
Rochester
Reconc
REPORTS
Bugcrowd
FULL
Oldcastle
stabilization
requisition
reimagining
Aims
transacted
Behind
Sophos
workarounds
contemporary
ACCOUN
UCSF
Accolade
Jacobs
OLAP
Raleigh
Sarbanes
TSPi
diplom
Actimize
Acrobat
Unqualified
Practitioner
Medalogix
Oklahoma
2nd
61
Apr
BB
Bur
Billion
Cleans
Creek
Domes
EAD
Fle
Fred
Gx
GL
Globe
GCH
Hut
HOU
Ka
Komen
LDAP
MCA
Mesh
Mountain
NW
Nav
Nets
NWS
NLT
Nike
OD
OB
Por
Pig
Pub
Roll
RTO
RAN
Solic
Tester
Wat
airc
aerospace
crypt
cabling
diving
drop
fits
farmers
mountain
massively
pose
pocket
rock
sac
stim
sale
squad
tone
talks
ultr
va
ventures
##aN
##apers
##mail
##pal
##36
##62
##win
##RU
##TES
##B1
##Box
##MAC
##VM
##erting
##inas
##ened
##ensible
##alo
##rover
invi
inventive
##ecycles
##oman
##levi
##sial
##veal
##plan
##ersh
##erson
##igroup
stays
anim
##quid
compiles
acuity
teaming
##otype
##utable
reserv
##osen
applicability
truck
##thern
##rouble
leap
disorders
ProHealth
chaos
chosen
Stage
Comply
##actors
customizing
preliminary
controver
shad
programing
Compos
basics
unigroup
##epro
##epapers
optics
Activities
marrying
Conven
operator
outages
outlines
##fficiency
specs
variant
Attr
Adjustment
usefulness
decide
assort
lifelong
lifecycles
researcher
researches
quest
USGS
##012
offsite
defensive
defensively
Technologists
overhead
##tters
vertically
Enrich
Enforcement
Accenture
106
Produces
2030
Paylocity
##inded
##persed
charting
charged
passionately
activation
greatly
##affe
##EST
Begin
flaw
informational
##ISR
consumable
proudly
##ographic
translated
virtu
Cornell
governmental
Assemble
Roth
carried
motivations
MSc
MSA
installed
187
Relax
Serco
quantity
generalized
Wellbeing
influenc
REI
##ERS
containment
ADHD
Offensive
surpass
viable
discusses
credential
OpenCV
viewing
DBs
Facets
competent
shipped
ORSA
telecom
173
societal
Essentials
flowch
NetApp
275
270
Ecosystem
Meets
permission
CCBA
SoC
Numpy
passing
articulates
clarified
Everyone
Readjustment
diagramming
Improvements
Smoke
Offerings
Involve
651
Seeking
STAFF
Coaching
nursing
negotiable
Decides
CMC
##VEL
##VELY
OSC
Pharmaceutical
aggregates
Membership
pyramid
correlate
VPN
Cardi
##erto
Construction
Pursue
Maximum
Surve
Accepted
Harness
filings
##ucky
route
330
schemes
consolidation
saying
Representative
branches
obligation
obligated
NIKE
excluded
compensated
Copper
glass
Artifactory
graduation
##bucks
Inspire
magazine
Extreme
disruptors
HUD
disagreeing
disagreement
disagreements
printers
Oakland
battle
Extraction
Containerization
Receive
telecommuting
Measurement
SPEC
Sustainability
columnar
Treats
epidemiological
Therap
OIPA
Meetings
scorecard
precedent
Catalent
##desk
History
Escalate
##SHIP
ANALYST
##oblis
telemetry
HouseCan
Lucid
##imentary
ingredients
inferential
Teammates
Indianapolis
fascinated
naval
seniors
##INEER
ENGINEER
thrill
expenditures
refugee
##grown
MariaDB
ANSYS
Kentucky
PLACE
somew
whitepapers
contradictory
ballooning
ACCOUNTA
Domestic
NLTK
aircraft
controversial
STAFFING
HouseCanary
08
2U
560
6s
64
8am
9am
ATO
Aug
Bry
Bricks
C5
Ced
Cutting
CSP
Craft
Dow
DER
FT
FML
GX
Gap
Hol
Ion
ICA
Kore
Kale
KEY
Lt
Lay
Lum
Mom
Million
Normal
Noblis
OM
PE
Pod
Put
PTS
Psych
RN
Rx
RX
RHE
SR
Tun
Turn
Text
Upload
VIS
Wil
Wacker
XHT
YHD
bir
book
cable
counting
casualty
den
eD
fur
fut
gal
heter
males
pager
panel
pediatric
sb
tap
tied
##ajobs
##mouth
##ffer
##H1
##uances
##gien
##belt
##vel
##19
##WT
##Weave
##8s
##western
##Ind
##2C
##Ow
##Dog
##Duel
##Source
##CK
##AAM
##eridge
##onym
##oneridge
##inator
##rect
inability
inauth
##elle
##ilog
##asking
##uctu
dataflow
##evie
##riad
##rific
##pore
##tug
##ticism
##irty
##imball
##otec
##ador
##ains
Thurs
depression
suits
alleg
importing
imperson
wholes
##ipe
##osh
##vertise
scru
distinc
distinguish
buildout
Stoneridge
Stevie
##ofi
##urel
DataDog
Reach
shore
coherent
Compreh
Worker
unite
##eptive
Resumes
##egration
Which
maybe
##iversal
invites
parking
innovatively
##braska
##ounters
Clos
USJobs
exped
Plume
obvious
realizing
##ernate
AllCar
amen
##parently
100M
##alesce
Committ
##TIFI
metal
encounters
205
Income
Powerpoint
##ginx
thank
Shall
##edicine
auditor
notifications
Identification
Bethes
fluctu
herein
tracks
LLS
Price
CODE
159
127
126
Cool
grit
signoff
requestors
CIs
192
##ibernate
motivating
evenings
coordinators
socials
186
starters
reflective
biometrics
##ampa
Researching
##ARN
exceptionally
Summar
##lingual
Spouse
mindful
##ORS
attrition
acceleration
accelerates
Evoqua
CenterWell
manually
##berspace
Brain
viewpoint
sustainably
revise
thoughtfully
Legacy
gatherings
examination
ORG
trains
telecommunication
Dayforce
Bayer
Philips
Quad
2012
versatile
adjusting
adjudication
Evaluated
##unteering
budgetary
extracted
##MEA
Writer
Biology
CoreWeave
Amazing
messy
171
socio
turned
answered
graphic
convictions
nearest
Nationals
myriad
Matrix
Matplotlib
Examine
##anna
Volunteering
##ANs
liaise
##Stream
EDW
EDX
Midwestern
Syria
dreamers
academics
summarizes
35012
adhered
negotiations
Linked
driverless
conveying
GA4
##isphere
Swag
Pathward
acknowledge
instrument
Staffing
SMBs
schematic
314
FAW
##semble
Nebraska
##remio
##level
hierarchical
Methods
hyd
Guidelines
415
EverCommerce
Adopt
Buffers
WIAAM
CONDITIONS
routers
eliminating
Tomcat
Estimating
persistent
greenfield
##idoscope
catering
cameras
##aturally
Advancement
retrospective
##plusplus
insurers
Concent
Precise
practitioner
piece
magnitude
Thrives
True
imagery
negative
negatively
bridges
switches
RSUs
InvoiceCloud
Challeng
pinterest
compromising
##ivalency
Laurel
MAXIMUS
JAVA
Debug
Conceptualize
Expectations
paradigm
bending
Differ
Difference
Okta
Accreditation
Pioneering
BPMN
Warning
undertaken
Pulitzer
INCLUSION
INCLUSIVELY
excitement
explanation
Authentication
XetaAnalytics
ENVIRON
Wizeline
distraction
CERTIFI
Druid
helpline
amendments
Discipline
Synthesize
Siri
replacement
ski
Eagerness
synd
focuskpijobs
Dollar
LTV
meshplusplus
lumentechnologies
OFCCP
warranty
Accumulo
Subsidized
PERFORMED
FanDuel
PSEG
Wyoming
craftsmanship
Portug
ACCOUNTABILITIES
C5ISR
FMLA
Kaleidoscope
Ltd
PTSD
XHTML
YHDP
birthing
eDiscovery
inauthentic
Bethesda
ENVIRONMENT
05
69
9th
CJ
CG
Celebr
CTS
Codes
Caffe
Dur
Done
Dream
DHA
DTC
Dremio
EDA
EHS
Epsilon
Footprint
Gene
GCI
Her
Hibernate
Ir
IRC
J2
July
Kn
KSA
KIN
Kernel
Kansas
Lar
Mach
Mathematical
NP
OW
Round
RNA
Spar
SEM
Satur
Tampa
Vital
Varies
Wo
Wear
bou
bul
catch
dv
dual
dog
fana
holder
masters
om
oh
ops
siting
sport
ties
wik
##comp
##oS
##oes
##func
##tures
##tegration
##hat
##Hat
##Ns
##bi
##vue
##PLE
##IPS
##Op
##OP
##Gate
##CF
##Cogn
##LM
##QA
##Man
##42
##FM
##ernal
##estion
##inge
inferences
inacc
##anz
##entra
##arro
##arker
##eli
theft
##ectives
##letters
proxim
##siveness
##uru
##acenter
##aconda
##isation
reveal
forest
##astically
station
analog
##ritis
ont
##oders
##adian
incomp
technique
##uters
##utter
Thought
deferred
resc
resh
resides
relax
suit
suited
##osc
commutable
Inqui
Investing
##eller
dispersed
chef
indices
recover
poised
##acking
admin
DataB
Anaconda
prices
##istat
Workato
##ommender
unpre
liquid
Acentra
transamerica
Ascend
protein
outline
Prep
##ubes
##ario
Qualifying
remot
specify
payor
decarbonization
plane
Recently
##ieties
Plot
##iche
ITC
visionaries
realization
Allow
organizes
lifeat
selective
preserving
preservation
matric
##teg
AzD
French
webp
packaged
meta
encoding
distric
authors
Seniority
equivalents
##atible
##cedented
Shows
Shiny
notion
LIMS
Assign
##aires
Sanofi
validations
SANS
##augh
121
virus
Advises
standardizing
1999
##assians
childcare
2003
##CARE
Canadian
skillfully
Regards
Interactive
emergent
emergencies
503
111
DFPS
cyberspace
immun
##BIL
##SAP
Fairness
Spain
enjoyable
Outcome
RedHat
##putes
certainty
creditable
Branch
RESIDE
revising
Owens
Owning
iterations
IDB
Certain
entirely
enabler
ORC
celebration
appeti
Carenet
affinity
trades
##DBC
Message
Bias
Persons
Atlassians
Complaint
copying
IBMer
Placement
NetImpact
INC
Trusted
Grand
Sharecare
Connected
Maturity
Protect
Protective
selectee
clarifying
discovering
discovered
Educates
Vibr
tailoring
TOP
propensity
semiconduct
honors
Prompt
pursuits
##Integration
LOOK
DAS
Marketo
urban
##thetical
compiler
midst
Colleagues
Coaches
##Quest
tenants
pioneers
Needed
advertiser
limitation
reinventing
normalized
Signing
Signature
referring
conversational
Recommendations
OFFER
appreciating
lakehouse
concurrency
hypothetical
FBIN
CSSP
probably
adapts
Greenville
PLUS
therapists
Electronics
renewals
walkthrough
multim
R017
Adaptable
encompasses
embodies
Decisions
Tria
disseminating
ACF
Premium
Anticipate
Anticipated
newsletters
repeated
Entry
suggested
Vendors
Attendance
drama
Female
Radi
hyperscal
Domo
intentionally
##Trac
##FEREN
printer
diligence
psychology
merchant
older
##aurants
negl
1973
intimidating
parenthood
Feel
ONE
Selectees
emphasize
BRING
Billtrust
FPGA
Publishing
Materials
Objectives
tutoring
appraisal
underpinning
legislation
Axon
rejected
Hyperion
enforcing
GICSP
constituents
Servers
SpyCloud
Tailor
deductible
Arkansas
Earnings
garner
worry
APPLICATION
punctual
Motivated
interdependencies
ratio
LlamaInd
SciPy
delegation
pureIntegration
Graduation
Nagarro
Welcome
â€œ
diplomacy
Kaiser
assortment
6sense
##onymous
wholesale
Committee
CTSH
J2EE
KIND
Laravel
boutiqu
##functional
proximity
incompatible
unprecedented
Ascenders
districts
##FERENCE
LlamaIndex
04
340
465
5B
89
Aven
ASP
AKS
Bld
CPA
Der
Dir
Dex
DSS
Draf
DIT
Diabetes
Evid
EOD
FE
Fis
FIT
FSP
Fabric
FDIC
GW
GR
Hyp
Jas
Jul
Kustom
Kerber
Kimball
Living
Laud
Little
M3
MF
Mate
Might
Nginx
Omn
Ple
Pediat
Recur
Ranking
RIA
STI
Sourcing
SHA
Tire
Tub
Tires
Uber
Wine
Ways
Wide
WMS
X12
Zeal
Zep
Zotec
affirm
bare
cata
cargo
duration
favorable
gates
him
heat
kf
kub
ly
lots
lighting
mill
nine
none
pod
perv
sever
sky
trouble
woman
##ael
##rs
##ii
##spark
##ocean
##fake
##fically
##tled
##ea
##lass
##lbs
##life
##dy
##den
##ding
##Hear
##NX
##uana
##nate
##part
##wift
##water
##RB
##Ed
##TPS
##BOK
##Life
##Qube
##Factors
##ertion
##erdale
##onary
##alle
##ality
##atr
invention
##edy
##eless
##icorn
theoretical
##sta
##station
##strop
proc
prov
##urIPS
##veta
react
refact
reactive
rework
fores
forem
##thinking
##aba
datast
##ulin
conce
onto
##otors
##itime
##andor
usual
usajobs
##utely
manpower
productively
tracing
impar
scans
intel
##umber
recommender
advertise
technologist
helpdesk
sheets
spark
Workflows
unn
unambig
transparently
Asure
marij
AIML
AIDS
##framing
Developed
mainstream
upper
Pyspark
approve
variations
agilon
##avita
subordin
Forest
useable
disconn
assemble
StrongHear
automatic
elastic
constitute
joined
Supers
guest
Enterprises
##afe
wrang
federally
augment
networked
##TIVE
deepfake
##ientious
distributors
203
Newsw
transforms
playbook
Among
Careg
CareFirst
listens
Minimums
legible
authorize
powerhouse
Programmers
ModMed
Shape
Parquet
##ynamics
noting
##ressed
readers
Beach
policyholders
objectively
##ISTA
CDHS
coverages
SAAS
Verilog
scientifically
Statements
1500
128
Virta
Conservation
Exciting
CAPA
insertion
Excels
Integra
Integrators
Canv
Canopy
sections
instance
Alaris
retro
retread
117
Engages
##ENT
##TOR
Accelerate
logically
provenance
influenced
##ERT
Philosophy
CareersNA
increment
##SION
##lowly
cleared
economies
tuned
Specialization
strengthening
consultations
dealmakers
ANY
403
vaccinations
interpretations
entirety
minimally
DeepRL
Scalable
CRFs
mineral
SuccessFactors
Cypress
catalogs
Travels
Biases
226
simplification
ERM
Coordination
##IFT
SSO
affords
Backlog
treats
guarantees
CADENCE
EXCE
Mineral
Soil
Schol
Economic
continuum
retained
fueling
DCF
FirstSource
BlueOw
paired
NEAR
simultaneous
honor
Tracks
Throughout
excels
restaurants
genomic
parallelize
B2C
Personalized
midpoint
climbing
benchmark
1959
##boxes
nurse
Recognize
remediations
Genoa
Vacancy
boxes
CFO
swear
TDL
Querying
HTTPS
believers
Operationalization
mandate
conventions
radi
Squaremouth
samples
correction
NeurIPS
publishes
Michael
Rockstar
alienage
Edits
DD214
Investigations
Temp
EMPLOYMENT
safeguarding
ingested
Ethisphere
Calc
consolidated
685
Spirits
Combinator
Emerging
Representatives
993
LAW
##WARE
hazard
CNBC
RMF
Samsung
Quickly
unfamiliar
boldly
21020
scores
Poland
Season
Accuracy
absolutely
introducing
emphasizing
emphasizes
Variety
MBE
epidemiologic
Exploration
malicious
Chemours
Securities
Securian
##author
InfoSec
Prospective
Encourage
conscious
gateway
iPad
invoices
Substance
Grainger
dictated
Navigate
econometric
Biotech
Braz
federated
Thermo
Adheres
Arrangement
TLFs
female
Kubeflow
AbsenceSoft
OPEN
PEOPLE
pillars
Genesys
WeAreCisco
BHN
Appriss
JUnit
favorite
Pentaho
burden
April
GxP
GCHP
RANGE
##eproof
Convenient
Cedars
GXO
RHEL
##giene
USJobsCogn
amenities
Quadr
Linkedin
Machines
rescinded
DataBricks
remotel
Avenue
Bldg
DITMAC
Hypeproof
Kustomize
Lauderdale
Pleasant
Pediatrics
Recurr
foremost
unambiguous
marijuana
StrongHearts
Superset
CareersNA2
BlueOwl
USJobsCognizant
01
5G
810
Aet
AMS
AAP
Bend
BONUS
Cable
Cases
CGS
Cadence
DT
DV
Dead
Down
EB
EIS
EOS
FB
Fore
GCS
Griev
Gym
Hur
HRA
HAM
Hanna
IBR
JT
JM
JDA
KL
Kin
Keny
Lilt
MX
Mart
Mits
Nel
Oaks
PW
Pull
Press
Row
Sil
Sem
Sud
Sav
SMS
T3
Tele
TISTA
Vien
Vanc
cig
cold
came
dose
dentsu
fif
finess
hurd
ib
luc
mov
mort
na
nom
pump
seat
sought
tend
ven
wine
yester
##atical
##apore
##ión
##ck
##camp
##oLens
##mbps
##fair
##test
##hs
##hy
##hone
##NESS
##ui
##nose
##giv
##gmentation
##gie
##yder
##yusion
##x365
##63
##WAR
##Picks
##wr
##walk
##words
##Re
##Bank
##JEC
##GH
##GO
##GRA
##GHT
##YNC
##Sight
##CG
##LF
##44
##Am
##Kn
##K1
##justice
##VS
##orti
##itec
threading
##roVIS
inequ
toll
##antive
##antification
##enth
##entry
##icap
##sip
##mentals
##oless
##urch
##gex
forged
stats
steampunk
##abase
##abits
##etrics
##illy
##quest
##irus
##ocal
##odus
entr
ensemble
##ader
##ading
##ifting
##andstad
Exodus
##chasing
emissions
Those
clock
relatively
##apsh
suffer
whe
##ipy
##osity
plants
trusting
transitions
leagues
##romising
Prolonged
chip
Stored
Compon
Reuters
Regex
meant
covid
##ruption
WorkForce
abroad
locate
equivalency
unsure
##vie
Whit
Ash
Manufactur
arena
Conver
##away
##aways
##kshire
outlook
outpatient
prime
Qualtr
para
leveling
approves
Universities
##strap
Adequ
##athaway
Forgiv
Clust
decline
##diabetes
Metabase
backups
quantification
elect
elabor
##assador
Technically
phones
curve
Sund
verifiable
realities
whichever
hardest
##segmentation
00pm
financials
preserve
accessories
Frank
locality
Accord
Arg
##priate
officer
takeaways
Amira
clearing
generic
##artmental
##utings
informatively
coronary
ETLs
12th
edits
Certificates
instill
Assemb
mothers
ambassador
cereal
2006
2002
Office365
Marl
Century
Intervention
MSSQL
Alp
Always
114
##ENS
Customize
handicap
Acceler
breed
breath
Actionable
##ART
Purchasing
##SAC
investigators
RedShift
Redwood
ADV
##RATION
strengthens
Events
sustained
revised
Reviewing
Upgrad
entitled
Priority
USAID
celebrating
ISE
breakdown
213
ICH
ICML
erg
constructively
campground
Consultative
Collins
scrappy
synchronous
achieves
convince
mailing
##ludes
##LTURE
pharmac
Specified
seated
Prototyping
instructors
trait
Superb
scenes
steer
Assesses
Warehouses
forecasted
trips
transitioned
ReactJS
Starbucks
##Store
##theon
climb
STATA
privileged
nurses
tenets
uncovering
artifact
insider
Demos
swift
wireframing
calculated
calculator
conceptualization
Mediaocean
memos
shells
Docs
ratings
attracts
corrections
blockchains
Enhancement
Autonomy
##vault
principals
Eden
compression
cooperatively
administered
Clarify
Arista
Stores
##oinformatic
Finding
Surface
Infin
837
Harry
embark
filters
diagnosed
LGBTQIA
resonates
##ascular
##payment
blue
Estimate
UKG
##omeless
Emergency
Wayfair
greenhouse
NAV
cataly
drill
expressly
Macros
Alignment
Diagnose
purchases
purchased
fleets
assembled
assembling
teleworking
Listen
jurisdiction
suspect
Extremely
Bootstrap
Rightway
imagination
##abbatical
Administers
Forecast
persuasive
COMPASS
biomarker
brainstorm
Measure
highlighted
CULTURE
Polygraph
WVU
queues
queue
queuing
Laundering
egoless
Ideas
Riverside
Answers
columns
incubation
surfaces
opensource
24x7x365
malware
Chemical
Autism
Pioneer
Negotiate
compatible
Catalyst
downloaded
Morris
Memorial
explanations
crawl
crawling
Urban
conscientious
distractions
CREA
iii
iPhone
invoicing
Gravie
armed
PrizePicks
survivable
Singapore
societies
insured
Wireless
ladder
Fundamentals
texture
forensic
HydroVIS
deposit
Wednesday
double
dialogue
grievances
hairst
VALUES
aesthetic
jumping
Thousands
subsequent
uncompromising
DESIRED
HOURS
Solicit
inviting
reservists
Enrichment
influencer
flowcharts
HoloLens
Psychology
Swagger
Plotly
appetite
LOOKING
hyperscale
Dexcom
Mateo
Zealand
provinc
EOSH
Huron
Kenya
Mitsui
Vienna
finesse
hurdles
ibm
yesterday
suffering
Manufacturers
Qualtrics
Forgiveness
03
4M
512
724
866
ATS
AAM
Away
AEs
Bic
Bath
BMO
Britis
Cay
Crum
Catered
DQ
Dee
DTI
DTS
DVC
EU
Eag
Etc
ECR
FI
FD
Fee
Facts
Fakes
Flock
FED
Gear
GSA
Grum
GUI
GKE
IK
IAC
J5
JB
Jun
Jose
James
June
J52
Kr
Kle
Lond
Lending
Mu
Mine
Minim
MIT
MCS
MNL
NU
Nob
Necessary
OBI
Oma
Ping
Puts
Pulum
PURE
QRI
QTC
RV
Render
Rift
Ranch
Sach
Sift
Sensor
Samb
SLO
TY
Tap
Tant
TBM
Tek
UH
UW
VCS
Wis
Zap
aviation
bur
counts
caching
di
durable
davita
fan
fab
gg
hap
holl
habits
jury
la
lender
lets
lenders
meter
nd
naturally
oil
olympus
outings
pair
san
sort
sql
tips
##aBA
##afraid
##iT
##count
##falls
##team
##hoc
##ku
##doc
##NP
##ND
##uine
##bank
##vd
##13
##Wise
##WIS
##Pl
##PO
##97
##wind
##IQ
##Ran
##Rec
##28
##Bio
##BER
##qlik
##qeta
##SC
##Core
##Camp
##Ls
##Ass
##FO
##jerry
##tially
##tibles
##eri
##erKn
##ontin
##enous
##orting
##atter
##itud
##itone
##roit
inventing
##anini
##anford
##entral
##ilizes
##staurant
##omin
proactivity
##olith
##nga
##plift
##istical
##isite
req
rethinking
##ersed
stating
##abad
##usal
assur
asyle
worksite
##iry
##irical
##opping
##owing
onsites
compared
acqu
##ustod
enl
##adge
##ectal
##ogg
##ogene
##utory
##utral
cls
degrad
resorts
relay
allevi
trg
Inference
Inoval
distinguished
disorder
Proced
Proprietary
charters
##ighten
indications
receptive
pools
Comcast
##ews
accidental
roster
Dataik
DataSt
allocate
Anom
Compute
##ruiters
##exus
newer
modeled
unappro
unbi
unicorn
unauthor
Resp
##ounty
organic
organisms
##derabad
Activity
##cribe
arrive
arises
Converse
Conteg
improper
upfront
upstart
Appoint
Appreci
parity
Uns
Universal
Forms
Forster
OneDrive
Clim
Club
directives
Metropolitan
USB
##ishing
##gnia
brave
##assed
Death
closes
deployable
conditional
amassed
writer
writers
monolith
Devise
Abuse
Trino
Collaboratively
##pecting
presently
##mington
Creatively
Perkins
Church
Disney
Distill
getjerry
localities
currency
firmly
Arts
metab
##aked
faces
empirical
Incumbent
Idaho
greatness
dependable
Fulltime
Microservice
##affing
positives
##aliQ
audacious
promising
LIFE
##titudes
assessed
Sanborn
Verbal
corp
translational
translator
Ont
OnTrac
COMM
necessit
##posely
Excited
insulin
Assure
##pted
Founders
measur
193
2007
Marqeta
bund
Transcar
Professionals
patented
Releases
116
Oversight
##bursed
##fineon
broadband
predicting
Blvd
troubleshoots
143
148
progressing
REG
30pm
RevOps
Contractors
claimants
coders
estimations
138
##ORNMENT
typography
attempt
Specialists
Publications
OpenAPI
Strategists
##atalake
debate
Linear
##INC
Leap
40X
4043
239
winter
Cerner
Visas
enablers
Architectural
##DIDA
speaks
CRS
ISR
breakers
##ILS
218
##OSURE
twice
##anaher
Detailed
microsegmentation
CySA
copper
parameter
Messaging
Biometrics
simpler
CoreLogic
anticipates
Collecting
##efanini
SSMS
agreeing
264
Supplier
maximums
Togetherwork
Complies
turnover
LocaliQ
Northrop
effortlessly
frontline
cleaner
Grid
Principals
CCO
harnesses
Schools
ARKit
indicates
indicator
DEG
Standing
articulation
Flag
continuation
retains
digging
Impala
Considerable
Obsess
MADS
Twitch
speeding
delegate
tablets
Confidence
competitively
aiming
incorporation
honour
Matched
Annualized
onboarded
Logik
Logging
8570
restaurant
Initiatives
EDR
conclusion
UnitedHealthcare
Translating
Colleges
Fluor
McMo
Recogni
Genuine
fingerpr
CSM
seller
BCaBA
Swim
comfortably
Recommendation
PharmD
BET
Moderna
deriving
registries
NCQA
Headway
Distance
Pacvue
Hyderabad
Springbu
Newsquest
Hearing
Script
Scripts
Alternate
BenefitHub
substantive
Upstarters
Packer
Packback
publisher
headcount
Denmark
##rypted
hygiene
blogging
surroundings
ASRC
##CLOSURE
Veho
tandemdiabetes
Infobl
Medidata
Reston
exemplary
Personally
Guidance
MEAL
racist
Streamline
championing
##attelle
##ascent
indirectly
Prioritization
Loss
consolidating
Premises
SWIFT
Trend
comprehensible
Reliable
exclusively
Estimates
Combat
Zilliant
annotate
Course
LAMP
Panel
expressing
Golden
Goldman
Goldbelt
NIH
NGO
##onyx
benefic
MillerKn
fellows
ForcePoint
magic
Approach
Janus
Detroit
Truveta
printed
Kellogg
persua
complementary
Paternity
9812
Earthjustice
Johnson
##accommodation
##accommodations
Raise
introduced
MAXIS
##kyo
Technica
AFC
DISCLOSURE
DHCS
Freenom
Contracting
Explorer
Vaccine
Northern
kneeling
Intellectually
inspecting
crouching
SNAP
attained
DMV
Ledger
Langchain
toolkits
dozen
imperative
imperfect
FAQs
democratize
Dedication
Ingestion
legislative
Authenticity
cardiology
justification
ENVIORNMENT
DRG
ACAS
Drupal
UMD
UMSI
SonarQube
KOA
Novity
bearing
Varo
recipient
Manipulation
Traditional
Skype
VIVE
statutory
redundancy
grocery
trigger
franchise
merchandise
merchandising
Freel
kitchen
Resilience
endeavors
Ambulatory
Repository
Robinhood
trailblazing
datacenter
CANDIDA
earlier
Biosecurity
Vista
pollination
controlling
Arabia
Highlights
##â€™re
Sample
UDig
beverages
##kenization
Reconcile
Burlington
sacrific
##aNova
Composer
Attractive
Involvement
SPECIFI
IonQ
Podium
Wilmington
heterogene
Comprehension
Braintrust
Sirius
KSAs
Vitalief
##elihood
lifeatqlik
##aught
Axonius
TailorCare
punctuality
Evidence
Jasper
catastrop
kubernetes
impartial
subordinates
Newsweek
Canvs
Foreign
Nelnet
Sudan
Whitney
Adequate
Accordingly
Marlboro
7247
AAMC
Bicep
British
Cayuse
Eagle
Fakespot
Grumman
IKC
Kleiner
London
Muon
Omaha
Pulumi
RVCM
Sachs
SambaNova
Tantus
ggplot
holland
olympusamerica
##itudinal
##entralized
asylee
Inovalon
Dataiku
unapproved
unbiased
unauthorized
Contegix
Appreciation
Transcarent
McMoRan
Springbuk
Infoblox
MillerKnoll
heterogeneous
76
AU
AX
ACE
ACR
Ble
Blob
Book
BSP
Battelle
C1
Cuc
CES
CLE
CKA
Dou
Dog
DIF
Diagram
Dialog
Danaher
Ey
E2
EPM
Fa
FR
FF
Fil
Fill
Ford
Facing
FRO
Fox
Fyusion
Gift
Gmail
HO
HAL
HMO
Harr
Habitat
Hathaway
Je
JP
JAN
Koot
KLD
Ly
Liqu
Lind
LAN
Mir
NR
NON
OPI
ORE
OCR
Pie
RR
Rim
RCM
Random
SES
SER
Sedentary
Sentry
Tab
Tower
TEC
Trial
Task
Touch
Ud
Voice
WOSB
Xen
Yonder
bereavement
canc
did
est
fro
gear
hat
hack
lit
pub
pets
pending
rental
rows
taught
vCenter
vitae
wild
wall
wonder
##script
##cam
##oE
##member
##fox
##eo
##ezz
##lar
##draw
##NO
##uities
##nets
##naires
##gu
##gning
##yx
##bases
##xy
##xis
##39
##360
##100
##PH
##86
##84
##with
##world
##IZ
##IOR
##Rx
##Rob
##zen
##zed
##zym
##Dynamics
##BLE
##GL
##CB
##Coders
##LU
##Xi
##Mon
##46
##tile
##tips
##erver
##information
##eside
##enza
##itus
##itos
thru
thinks
##rep
inappro
toil
##arc
##eled
##ilots
##ece
##strike
##olv
forty
foreg
fortune
forums
expon
##amai
##igid
##ider
##ided
##used
##forge
##poral
asc
assis
##tube
workstation
##ula
actu
##adv
##ivo
##izza
resort
##aped
manif
producer
commod
commence
truc
Inside
Infineon
imped
##ello
##ellers
##ellect
solved
scam
intense
intellect
##umor
##agon
##astore
indoor
processors
##0000
Stat
Stability
Stanford
##tunately
##entist
Theoretical
strug
allies
pret
shaped
performances
Compose
Workers
##aborn
##allon
##ovascular
##epartmental
maritime
strategist
##neapolis
mainframe
upward
##arius
invoice
partially
multilingual
Unlock
finest
discontin
Metastore
simulate
originate
default
Deferred
criticism
verifies
regulate
amended
setups
4011
codebases
Phot
Commvault
Goal
Goals
Fresh
Perficient
Accompl
##iaries
deepen
Productivity
officers
transformers
longitudinal
charter
Amend
Amwell
testability
Orders
authoritative
recording
Parts
Parallon
topology
LIC
policymakers
CDA
SAC
Lifestyle
notebook
Pratt
Coalesce
CASP
CIO
CIEE
##axE
DoiT
MarTech
##ricted
Integrations
Centennial
Depot
combinations
Transit
Transcript
determinations
Professionalism
patent
Communicator
##ENTS
Solar
biased
immense
Architecting
255
REVIS
USDA
commercially
investigates
possessing
##SINESS
Revolution
profits
Spin
coded
educated
161
HRSD
Workspace
confirms
BigData
allowances
ANSI
##OUD
Laws
##INTS
SAST
235
236
Accountabilities
150k
NetworkLife
HIve
Defined
AppDynamics
602
breakfast
centricity
constructs
representations
observation
Facility
cyberatt
Risks
Messages
Organizes
Crime
Greatness
SSD
SSL
lookout
lookup
6000
Backup
GovCloud
Internews
explains
Netezz
effortless
Grants
Minneapolis
achievable
CCB
Telecom
Discus
rollouts
Schema
pharmacies
Sharepoint
indicated
Flutter
CyberCoders
REQUIREMENT
Wiki
Expense
Funds
##omenal
delve
Reasoning
Requsition
incorrect
12080
ESXi
POD
POINTS
traditionally
Instill
LOINC
Simple
divisional
Presentations
announced
draws
##omposition
tenacity
tenacious
configured
Believe
Audits
disclosures
comparative
fingertips
##ACT
##enai
circuit
upsell
OSCP
questionnaires
eagerness
calculate
calculating
Standardization
appreciated
aggregating
reputable
DOI
moms
##uryGate
schematics
Balancing
USAJobs
Upholds
chatbot
boardroom
Construc
SoftBank
Postings
Autonom
cellular
reconst
CROs
likes
TNC
comprises
##phones
839
MedTech
Harbor
Mobilizes
gitlab
filed
MEDI
slate
##titioning
Civic
Hospitals
shoreside
292
Minded
ATG
UCC
6885
differentiator
Runway
MercuryGate
Combined
Classy
traceable
attached
evangelizing
intricacies
archives
Segmentation
Middleware
MTV
SEI
Influenza
solicitations
exhaust
imagining
PRIVAC
BUSINESS
##rogation
merchants
persuade
Receiving
manufacturersbank
KYC
Suggests
wearing
firewall
Firew
Firefox
weighing
windows
Orchestrate
replication
Technicians
DSPs
JAX
borrowers
Dealer
rounded
iconography
DWH
ELB
frictionless
Entertainment
ALM
Pivotal
overlapping
LangCh
subscribe
petabytes
##Charts
undertake
democratizing
Berkshire
##OUND
Histor
Ingen
Prospect
legitimacy
TRAVEL
Urg
##onnect
enforces
Disciplines
Nearly
accruals
Tailwind
survival
intrusion
intrusive
Err
Fundamental
kitchens
admitted
synchronization
eastern
Advocates
Indigenous
scholarships
attorneys
checklists
Therapeutics
subcontractors
Akamai
Fisher
SENIOR
angle
kidney
rationale
surrogacy
AWESO
TTPs
Zynga
restoration
doctoral
Merchandise
FULLY
Netsuite
RTOS
stimulating
animal
Relaxation
Therapy
OMNI
expedite
Celebrate
fanatical
wikimedia
semiconductors
repeatedly
Fisker
Kerberos
Omni
STIG
Zepz
pervasive
Caregiver
Recurrent
Silver
venues
##America
Sunday
Assembly
swiftly
CREATING
provincial
OBIEE
SLOs
assuring
Climate
Ontario
beneficiaries
fellowship
persuasively
SPECIFIC
Cucumber
CLEAR
Kootenai
OPIS
Rimini
TECH
frozen
##memberment
inappropriate
foregoing
exponential
assistive
REVISION
cyberattacks
Netezza
PRIVACY
LangChain
AWESOME
320
467
720
926
ASS
ACS
ACI
ASIC
Bot
Birst
Baker
BERT
Coc
Cinc
Capt
CRED
Dyn
EI
Fal
FMEA
Gam
Gev
Gum
GPA
Hr
HF
Hop
HIT
Hosting
HAS
Housing
Ia
IEC
IPS
IRI
Ju
JNI
Kud
Kyte
Karius
L3
LM
Lot
Lown
LORS
MG
MQ
Mel
Mule
Medi
MBI
Meat
Maps
MNS
MMM
Nick
NCA
NAC
Oil
Osc
OIS
Ocean
PT
Pare
Pati
QI
Rating
RSI
Ranked
S4
Sor
Sou
Sag
Sail
SIL
SSP
TP
Tac
Tana
TAC
URL
Ultr
Ven
Vial
VCP
Vontier
Varis
Vander
Wid
Worth
WAN
Welfare
WWT
Yum
YARN
Zerto
aven
buckets
cs
cure
cues
cater
candor
du
dam
dated
dirty
fath
ftc
gle
github
hob
hos
hall
hang
hass
habitat
ign
jav
mv
meals
ok
ride
rough
rhy
sabbatical
tapping
wast
warm
walls
xen
##atin
##ritos
##isive
##iances
##iPar
##sets
##cp
##cent
##oop
##oos
##media
##tower
##tory
##haps
##data
##utional
##giving
##glass
##pa
##po
##px
##yc
##yb
##ysi
##yâ€
##bro
##bors
##vest
##53
##Ware
##Pal
##En
##ET
##2c
##TRA
##Oak
##DR
##DO
##UP
##Js
##JFS
##Gum
##SUITE
##Server
##Met
##41
##AZ
##ATE
##Vel
##Voy
##tio
##inar
##inting
##incess
##inite
##esher
##atories
##itably
inqu
inhib
inpatient
##entech
##aria
##arket
##arader
##icip
##icits
##lets
progn
##uristics
##acities
##acell
##acart
##accept
##iswift
##peron
exports
##amatic
##thm
##igil
##abner
##rind
##fortunately
##irr
##oped
##opus
##owner
##ineyards
##ayment
compose
beat
##oder
##odal
##imient
##alysis
##ively
##chart
emerge
usast
##unking
clubs
ali
##ipfl
##ipse
##osely
productization
productize
plain
commonal
atten
trillions
trails
Intu
impair
lease
Prote
cher
##umps
##ageny
##astX
indeed
Station
Strive
Steward
Stefanini
##warehouse
adult
adhoc
technologically
Comments
##anctions
customizations
print
Repayment
shoes
Work®
communicators
##ommission
equitably
unafraid
unaccept
##oost
Reserves
##itty
environmentally
Acquire
##uese
##fraud
##neider
##ksoft
outperform
valuing
##olding
Aptiv
##ulties
multiplay
Strength
Unless
Unfortunately
payable
Adjust
OneStream
Clock
Clark
declining
decomposition
decommission
##lla
lawful
evolves
simulated
captures
capacities
testim
owe
Plant
Plays
Learns
physi
critiqu
crimes
possession
marketer
ampl
pipelining
boast
##param
100k
Devices
Truly
whereby
beloved
maturing
assistants
Perception
Christ
##TICS
annivers
10X
nonex
bringup
Descriptions
formally
208
Newport
Agil
Payer
##bots
smoking
emailing
Amperon
assignee
monitored
Immediate
productionization
statistically
personalize
Paris
audited
Identifiable
promises
promoted
Undert
Calix
Princess
Modeler
ideology
nexus
configurable
153
CoC
grace
Excludes
Cortica
##ptom
##PAL
superb
Roku
##TERA
##REE
March
##riculum
combus
coordinator
Interaction
Intermedia
roads
50k
socialize
1801
Alto
Relent
reimbursed
Engines
Sequence
BlastX
##ARD
REF
RELA
Automating
reached
Column
meaningfully
extensively
volunt
Reduce
Redux
Secrec
ADAS
happening
##terson
168
162
sponsorships
Evolve
courts
Instacart
Openings
RESID
Links
WebAI
Webstaurant
shipyards
layered
occurr
occurring
entitlement
interpretability
SOQL
equipping
HIRE
##works
ICON
Carley
aiding
248
terminal
##undai
QAD
Evaluations
Effectiveness
cataloging
copies
studying
75M
Goods
subscriptions
Homegrown
simplified
Generally
##MOs
##ushing
Amaze
Collective
Beck
Drivers
177
Endpoints
Complimentary
Octopus
Announ
274
Grabner
achievers
CC1
CCSS
##lude
Schneider
Companies®
seize
Deploying
instructor
laboratories
fulfills
Formal
Formed
delighting
Authoring
finalized
Assessing
BlueVoy
##ANCE
##ANIZ
civic
displaying
courseware
ERPs
belongs
Both
repayment
Involved
LOCAL
affiliate
DAST
DAGs
EMA
Midwest
dimension
ABB
reassign
VMWare
##ompan
eventually
Genentech
Crossover
Auditing
CTC
CMR
comparing
CSG
BCBS
Swed
##LOOK
Retreats
TDP
fluently
##matically
precisely
Standardize
humor
pharmaceuticals
touchpoints
entered
registry
Hireups
Attack
Attribution
Instructional
PacBio
##nergies
acknowledgment
Hyundai
PCs
Alternatively
Letters
enriched
Connectivity
Packsize
Neigh
Charts
CogitoSQL
PLG
existence
difficulties
847
comprise
Investments
blogs
renewal
110k
OOP
Slides
TSG
momentum
Chefs
##okeo
Everest
CONS
CONSI
shorter
ACTION
##ochem
OTSI
944
grasping
Predict
Trees
differentiation
##insically
Player
clinician
Combine
multitasking
Submission
Embraces
Trains
camarader
allocations
Journalism
LandSUITE
PERKS
Tooling
reconciliations
InteliPar
Frequency
Truist
GRAAS
625
intrinsically
directorate
Patterson
Measures
RSU
pitches
NDK
Polish
wearable
GOAT
Gameplay
portions
introductory
electricity
CSAA
Honest
Speech
Definition
Increasingly
executable
DSL
Intelliswift
Palo
polished
medal
Thanksgiving
Periodic
Insignia
preceding
Enthusiasm
##Learning
interdepartmental
bioengine
Altus
cardiac
harmonize
RPO
TreeHouse
##882
Secondary
PKI
PECO
TRANS
symptom
releasing
helm
telemedicine
NSX
NSF
Snapsh
Spyglass
recipients
Trading
SurveyMon
Achievers
warfare
warfighter
Arkestro
ladders
econometrics
Biotechnology
Resilient
uD83D
##Science
trailblaz
##innati
Indigo
auction
##eteenth
chapter
Raytheon
TFLs
phenomenal
CAREER
convincing
Fulfillment
Characteristics
Cleansing
Hutch
ODJFS
##RUST
flaws
Surveillance
August
Bryan
Luminas
Tuning
futures
allegiance
##oshop
ORGANIZ
socioeconomic
Portuguese
Irving
Sparksoft
Woven
dv01
matrices
Assignments
multimodal
â€œOak
boutique
Derive
Julia
Tubular
##atrace
foresee
unnecessary
226882
Brazil
remotelife
Aetna
Semantic
Franklin
Upgrades
catalyze
Deeply
TYPE
Unsupervised
necessitates
measurably
FROM
Harris
JANUS
Lyft
Miranda
SESYNC
##Robot
##zymes
##advant
Photoshop
LICENS
CivicScience
Cincinnati
Dynatrace
Gevo
GumGum
Kudu
Oscar
Tanaq
avenues
fathers
hostile
rhythm
usastaffing
##ipfli
Protein
##agenyx
unacceptable
multiplayer
Clocktower
Columnar
voluntarily
Secrecy
WebstaurantStore
BlueVoyant
camaraderie
LandSUITE®
InteliParent
SurveyMonkey
ORGANIZA
â€œOakyâ€
425
5M
8a
820
966
ASI
ACO
ACL
BY
Biz
Bold
Benchmar
Body
Brief
Badge
CQ
CK
CRA
CLA
Coul
Custod
Delivers
DBMS
EBA
EUR
E15
Fro
Farm
FTP
FWA
FSO
Farmers
GFE
Guru
GMOs
H4
Hud
Houd
HSI
Heroes
ISA
Iron
Jur
Jury
Jump
KB
Kit
Kind
Kforce
KRI
LP
Las
LaS
LMI
LVC
Mis
Mav
Mode
MON
Motors
Nut
NBA
Niche
OHS
Olymp
PV
PPA
PPC
Peek
Ql
RSM
Racks
Sac
Sap
Save
Saw
Saint
Satellite
Sanctions
T4
Try
TSS
TTS
Tai
UDC
VLOOK
Walking
Wipfli
XR
aside
bot
benef
cures
cubes
eCor
eoe
fru
gig
gink
hunt
housing
iv
iQ
kit
k8s
lf
luck
mus
meld
mirr
noun
ore
pot
poli
pilots
rub
rival
rocket
stic
sne
te
tx
tar
trib
tumor
um
voc
vail
wat
ΓÇ
##ament
##rick
##ront
##inder
##ioworks
##ibra
##sar
##code
##celer
##otion
##mc
##mt
##mas
##fly
##fax
##fix
##hi
##ki
##light
##d8
##dim
##NF
##nl
##nacle
##gal
##gob
##gence
##gery
##gmt
##powers
##yms
##bite
##bara
##bbing
##300
##57
##WE
##Pass
##PTO
##95
##wh
##wer
##wan
##watch
##zy
##zall
##OPs
##DER
##Bi
##BE
##Gu
##GU
##GY
##STI
##Lang
##Question
##Fl
##Face
##VES
##tiPath
##onav
##inence
##inancing
##enh
##enney
##aleg
##atures
##atology
##itel
therm
##roots
infl
inner
inher
##ani
##elony
##ilers
##ouver
##sted
##stbite
##cement
##lement
##leaf
##mento
withdraw
##acific
##plicity
##planned
##isations
##perate
reti
reap
exls
##aso
##asure
##asound
stem
stations
stakes
stoch
anonymous
##abul
##ette
##uction
databricks
##evers
island
contig
confront
onshore
acous
began
##iff
##itively
##andria
Expr
Existing
Exceed
##oga
clo
resizes
neutral
##obile
##apture
sufficiency
alt
alight
imply
whopping
##ostics
##verus
impr
##igna
leak
disputes
Prod
##agora
indisp
indoors
##007
rectify
Theano
##oree
##ewsw
accompan
interrelated
##ensable
contributed
contacting
modem
pric
prun
Reengineering
Replication
Rethink
##sissip
spam
coali
theirs
crew
Screen
underperform
abund
communicative
modelers
##igion
unity
unifying
unblock
liberty
Manual
##ileo
##uestions
argu
Convince
##profit
Preliminary
upside
upkeep
Qualitative
Appra
removed
##irects
partial
multidim
Uncover
##bris
adventure
##tinct
AdTech
nationalities
finished
discard
discern
decks
decided
everybody
directs
personable
backs
quite
planog
elections
relevancy
Platin
colorectal
ITFM
methodical
phishing
overach
##enerative
stars
fringe
meetups
Enverus
Allied
fulltime
ample
amplify
boosting
boasts
foundry
Devises
##learning
maturation
assisted
receivable
Created
GoLang
Frontier
Checks
Dissem
##TIZ
limiting
distributor
Agero
##botic
##coast
manageable
opened
charging
PowerBi
dependability
Ord
Orkin
Fullscript
productionized
Programmatic
Sher
Shop
Shown
nothing
topical
shareholder
BIT
characterization
Ind123
corruption
dynamically
Opening
15B
15th
123
viral
##posing
recruited
Coronav
Advising
CAR
CIP
CITIZ
##CAD
##ramento
Deputy
Transmission
MSI
MSK
183
184
virtualized
Religion
laying
DFS
biostatis
bioinformatic
login
logistical
generalization
259
Users
142
enters
entail
Purple
CVPR
30m
##SITY
Fairfax
Spokeo
Posters
##ospice
Redirects
thirds
SecOps
Maya
formatted
##TAIN
##TANT
164
mobil
donor
Brid
Britel
##folk
Lawson
##INT
adoptive
extractions
extrapol
Accountant
singular
CertiPath
##roller
particulars
Privile
classify
CRF
succeeds
908
Succeed
247
Deliverables
##ilingual
IIBA
GPO
Biom
debugs
Presenting
Organizing
Organisms
Physically
Collectively
##resorts
179
174
Executing
Inclusiveness
3000
provisioned
refuse
taxes
grounds
INDI
INGO
802
Caption
branding
Telecommunication
Improper
ClickHouse
heighten
Focuses
Econometrics
password
articulated
traine
fulfilled
Former
delay
delete
Visualize
##CRF
PROUD
##umbents
competitions
terminologies
triple
RESPONSIBIL
Smith
ES6
enthusiastically
Boards
Blockchain
landscapes
855
Completing
repairs
Involves
LOVE
restore
Clinicians
exceeded
##ettlement
Configures
##gressive
##theast
counties
easiest
##LAS
summarization
VMD
drawn
##Quote
Peak
infinitely
boundary
Crosswalk
seconds
Brokerage
ambitiously
backlogs
household
##lookup
restrict
FSAs
OSHA
Overseeing
Competence
Administrators
aggregated
Operationalize
TEX
tells
DOT
Nonprofit
grantee
Provisioning
entertain
registrations
318
Maver
##Clo
Distributors
PAY
##WORKS
advisement
##arkers
explosive
correcting
corrects
SoftDev
Gradle
cells
Donation
Blackstone
Funded
SAFE
Editing
EnergyHub
uploading
##ometry
##TIONSHI
CloudFront
APE
SmartAss
Clarification
Handles
sixteen
Jupiter
Licensing
unlike
DIVER
Medal
exemplify
exemptions
TriCare
##regular
slight
Indexing
Mindbody
ATT
categorization
Calm
Calif
comprehension
differentiating
Anticipating
exclusion
exclusions
morning
Archer
Arcus
satisfying
Submitting
adequately
cooling
Panagora
camps
drinks
Armature
37214
compensating
528
OptumCare
cohesively
ViewQuestion
blended
HCPs
airflow
insurances
hyperparam
Listed
Quicksight
archiving
crowd
##Trust
##Trak
credible
recreation
MRP
violations
renov
intrinsic
CHC
Pattern
HuggingFace
SPD
Sportsbook
nuanced
SelectQuote
PROJEC
Promotion
BRDs
SHOP
1990
massage
judgements
##263
outlier
Barbara
Dealers
misrepres
misinformation
conformance
disqualification
unleashing
Africa
Norfolk
OIG
Protocols
horizon
##fferson
Absor
scholarly
victims
tutors
BDD
Berk
Berlin
Pulsar
hotel
hotels
underpinned
Acquires
Algorithm
harmonization
RPDE
Treez
rejection
Greens
Greece
aggressively
photoc
pulse
Avro
Launched
TAKE
Vapor
dictate
ColleagueRel
Achieves
Lastly
GalaxE
Galileo
menu
silos
##oula
RepTrak
Commitments
Mixed
Adherence
synchronize
PRNewsw
foodservice
irregular
Humility
Humble
Routing
Traffic
OpalForce
Alexandria
Harmony
attorney
spinouts
Actuaries
adversity
Adjusting
checklist
Therapeutic
subcontractor
ebayinc
auctions
chapters
IntelliBridge
linguistics
C4I
isolation
Refinement
Annotator
Watts
somewhere
furthers
Thursday
scrubbing
fluctuate
Summarize
Concentric
Different
syndicated
Donegal
Knime
inaccurate
ontologies
Inquiries
Allowance
Vibronyx
dramatically
FPGAs
garnered
Drafting
severity
refactoring
datastores
disconnected
EXCEL
Deadline
Vancouver
movies
Accelerating
ADVANA
##omelessness
Minimal
Tapestry
Appointment
Freenomer
Freelancer
sacrificing
catastrophe
DIFFERENCE
Faith
Jefferson
Udemy
commodity
Revolutionize
Ingenuity
MuleSoft
Sagitec
roughly
commonalities
Christmas
Undertake
RESIDENTS
Beckman
Announcement
Sweden
CONSUL
bioengineers
symptoms
##advantaged
Coulter
Frostbite
FSOC
Houdini
Juristat
LaSalle
Mississip
OHSU
Rackspace
Sacramento
Sawzall
Taiwan
eCornell
ginkgob
melding
politics
tariff
vocabul
vailresorts
##alegal
exlservice
contiguous
indispensable
coalitions
arguments
multidimensional
Platinum
Coronavirus
Britelings
##TIONSHIPS
SmartAsset
DIVERSITY
ViewQuestionnaire
ColleagueRelations
PRNewswire
Mississippi
ginkgobioworks
vailresortscareers
02
080
3m
3DS
475
6C
767
860
922
9pm
911
Ader
Aha
ASE
ASAP
Bat
Ban
Bever
BGIS
BVA
Buckets
Bilingual
CY
Coo
Cards
Cath
CCI
CHS
Cody
Dig
Dentsu
Datalake
EW
Either
EJS
EFT
ECC
Efficiency
F1
Farg
Fidelity
Fargo
Focal
Gard
Ground
GRE
Gifts
GANs
Host
Hue
Happ
Hires
Hana
HK1
IG
IM
JO
Jest
JSP
JPS
JQuery
Jude
KH
Kun
Kag
Kong
KCL
Lim
Ligh
Lime
Lives
Lane
LDC
Loved
Latitude
Longevity
Men
Mati
MMP
MPP
M365
MCC
MTIA
NIS
NLU
Ouro
ODBC
Pages
PMs
PBA
PPM
Political
Pops
PAC
PBC
Qine
QPS
Questions
Rot
Rever
Rigor
Ridge
Racker
RCU
SL
Sand
SSS
SBI
SOU
Sale
SEE
Sisense
SLD
Sky
Sears
Slowly
T2
Tro
TSQL
Town
TLS
Taste
TTY
Taked
UTA
UTM
VL
VER
VPs
Vineyards
WCA
Wars
WEST
XJ
Xact
Xceler
Yale
aversion
bab
bench
bounty
cou
cart
catered
dad
daun
dhs
eC
eam
ego
egress
geek
ignite
je
kan
kick
lights
levers
mun
mPar
nar
nico
oak
overs
paving
pix
rank
ruth
racks
sun
sorting
ts
tensor
vess
wal
wis
wake
wines
zip
##rck
##iat
##ibr
##iever
##saba
##cs
##oV
##oed
##oting
##mil
##hun
##hos
##kip
##eased
##eAmerica
##None
##uits
##nor
##gial
##pol
##pill
##pts
##people
##ying
##yers
##ba
##xel
##vis
##54
##07
##09
##64
##PEC
##Plot
##we
##wear
##Road
##Ease
##2P
##zation
##zone
##zak
##BO
##BU
##Book
##BRA
##GN
##G1
##GP
##Send
##Skip
##Co
##CCE
##LR
##Lib
##4W
##FX
##ja
##VO
##tiQ
##erts
##inson
##ennes
##organ
##orado
##aling
##itab
##reLT
##rezz
inject
inbox
inherent
innate
##elode
##icorp
thework
##ecs
##econd
##ecadem
##omas
##sives
##sized
##olutional
##uries
##acquisition
##ación
##plications
##isa
##isee
##isput
##isolutions
render
reengine
exerting
##aml
##thealth
##thouse
##igo
##asy
stealth
ansys
##idential
##etric
##illium
##eville
##que
##riage
##rists
##tuga
workweek
##ulous
##teries
compass
enorm
##echnical
Exception
Expression
##udicate
##uneration
##utation
relief
alter
Weâ€™re
analyse
##achisolutions
trav
Inte
imputation
##elled
leaving
distinct
intra
intention
Prop
chunking
##agn
##agen
##008
recurr
##entina
##urea
Young
Youth
Comedy
stry
string
acclim
interference
interpol
DataCamp
Datawarehouse
preex
ReUp
supportable
##ister
spur
sprezz
cooking
serviced
Scen
Scan
Scrib
Scipy
undergoing
##exis
unin
unve
Reserve
##anged
##prise
Acting
transm
transferred
transcription
Asana
##timate
arc
outfit
Pregnancy
Empl
##oney
Apart
approving
Unique
Remix
##avis
assimil
##tinely
orientated
Forres
decentralized
declar
##llo
##llion
Stronger
lifted
Metal
optimistic
automobile
owed
standup
expiration
Computerworld
origination
defending
consorti
colorful
issuances
Technerge
Technologist
statewide
LeadStack
##nessPal
Envision
Enzymes
##afé
AllCloud
conduit
harden
hardwork
Devising
Trillium
Designation
Toast
Tokyo
matplotlib
maternal
baseball
Perforce
Percent
Chile
Chair
Changes
Changed
similarly
differing
webAI
webinar
funders
encrypted
treating
nonlin
district
ServiceCore
visualisation
shouldn
playful
CareMet
Powered
operationally
##berry
##ierge
productionize
recordkeeping
thanks
Parents
Parallel
flood
BIDS
tracked
##ISE
characterize
esoph
CDD
CDS
SAML
Veritone
Lifting
Indemnity
Conda
geo
##iterion
##mson
Generating
Generosity
explicit
Coe
CoE
editors
gran
Cornel
CorVel
##haul
foundingteam
CAE
##talem
insecurity
mentored
Assoc
Assumes
##PAS
Item
motions
became
##TEK
19th
collegial
200K
##CAS
##iband
reportfraud
Depop
Depos
Departments
buffers
predomin
determinable
MSP
MSF
Altera
travelers
demography
Engaged
##END
Customs
DFM
bike
biBER
Platform™
Eligibles
253
entails
##SIM
Fairfield
Spirit
Outdoor
Outlet
Anderson
attest
##TAILS
grouping
Continue
Mondays
Termin
HRC
OpenX
advised
shortfalls
dealership
LinQuest
##INING
Leigh
Upwork
Upgrade
pursues
Funciones
Websites
WebSphere
##elcke
shipments
SOF
SOFT
Cerritos
##green
Scaling
Snowpoint
Dayton
AppSec
Quote
Implemented
##ILD
Carry
Realize
twe
##Applications
crisp
copay
threatened
229
Collibra
SSBI
265
sociology
##AMF
Subversion
Subpart
Innovecture
GovEase
loaded
Located
flowing
276
INDE
escalates
EXCI
EXLS
Circ
##loader
supervising
Minitab
CCH
Telem
convergence
BASH
BACK
SoCs
inventories
Factor
Connection
heated
Bankers
DETAILS
masking
passport
crafted
MyFit
MatPlot
instruct
DCSA
template
Kingstone
Notation
faceted
##SEA
terminating
##ictures
honed
liaising
enthusiast
Offered
Logs
Login
Completion
650
PIV
CPU
UIs
Midsize
attends
Syri
returned
457
456
MDG
Seeks
midsize
STAT
##ronos
drawbacks
Insurity
negotiated
infusion
##INGS
remediated
Vacancies
centralize
reinfor
synthesizes
assuming
correctness
northwest
normalizing
Swarm
milestone
enrolling
Retros
disruptor
barcode
Recommended
Postgresql
Springs
LoB
Explain
Modernizing
DOC
DOMA
exercising
conventional
Transformer
SMART
unmet
##naissance
anomalous
Pacaso
FastAPI
Miro
Crave
##byte
Cardinal
upgrading
predictability
exploiting
enriches
width
Packages
Packaging
PDM
PDFs
WAF
publishers
waterfall
Interpreting
header
Illustr
Register
likelihood
Methodist
Validates
##ISTRATION
illum
briefs
SmartRec
renewables
Codecadem
ASR
AS2
Profound
stratification
shopper
journalists
CEU
Restful
Restricted
exempl
orchestrates
undisput
film
exhibits
HTML5
slice
Streams
incorporates
Seekers
CONTA
CONOPS
abstracts
Civitas
Hospitality
championed
shorten
Locality
ConnectWise
293
Mindoula
EHRs
scheme
VPCs
Achiever
Trello
percentages
Transitioning
stitchfix
WayUp
NACI
Helix
Macro
MacOS
MacBook
NGHS
substantially
SUBM
SUPP
VETERA
Interpretation
CNN
Pursuing
Copenh
curricula
insurtech
Championing
Radnor
Concord
Concora
QuickSight
##cloud
##clays
Extend
Bootloader
SEL
Influential
BUs
GRASP
Extracts
sharpest
RWD
Remains
complemented
Tortuga
avoidable
Receives
Demandbase
Thinker
Empowering
ONNX
Sea
Seaborn
pinners
pinpoint
3637
7427
Ideation
assured
intensity
Answering
EVO
Honoree
SH2
hitachisolutions
replacing
replicate
incubating
prescriber
1995
democracy
merger
tags
Debian
Debugging
DHCP
Dimension
RAApplications
Coveros
DSDI
composure
Issuances
Sonos
DWP
Lakeside
malaria
##trusted
LEAP
Rapidly
Exemplary
##opharmaceutical
Adaptive
Negotiation
USCIS
vetted
appraised
cardiovascular
justify
modularity
consequences
bootcamp
symb
photo
CERTAIN
neighbors
Advantages
hunger
Iteris
KOLs
##risten
Manipulate
SafeSend
FlyM
Flywire
statutes
redundancies
Bainbridge
MAPE
Partnerships
Expanding
HiRoad
forensics
Thermacell
Institution
Institutes
advertisedBusiness
females
golden
Clearinghouse
Elemental
Routinely
Procter
Traits
Symbotic
Wednesdays
earliest
shutdowns
ECreLT
Lexis
professions
surrogate
IntelliScript
IOT
Tutors
##weekly
SOWs
Fleet
Navitus
rockwell
virtuous
Cardiac
Lucidchart
somewhat
Korea
Moment
RxN
VISA
denial
sba
Stevie®
Challenges
Challenging
BPMN2
CERTIFICATION
PSEGLI
CJIS
Durham
DreamBox
Saturday
omics
ohana
##Manager
ThoughtSpot
chefs
neglect
MFIP
kfsaba
millennial
procure
advertisements
wrangler
incrementally
Seasonal
Quadrant
PWCC
Savvy
Telehealth
wheel
Components
Convert
Argentina
Interventionists
breathe
Infiniband
FEDRAMP
JBoss
Rancher
haptics
metering
##Plan
monolithic
metabolic
Obsessed
fingerprinting
KLDiscovery
commencement
pretty
Accomplish
SACWIS
reconstruction
MEDICAL
Firewalls
Historical
Urgency
Falcon
Gamble
HopSkip
Nickelode
Southeast
SailPoint
Ultragenyx
inquiry
##icipal
##imientos
alias
Intuitive
testimony
KRIs
Mavrck
stick
stochastic
clothing
trainees
TEXAS
Greensboro
Aderas
Catholic
Fargate
Kunz
Kaggle
Lighthouse
Matillion
QinetiQ
Reverb
Troy
Takeda
UTMB
WCAG
Warsaw
XJ6
Xactus
Xcelerate
daunting
eamwork
municipal
mParticle
nicotine
ruthlessly
tensorflow
vessel
##pillar
preexisting
sprezzmc
ScribeAmerica
Forrester
Technergetics
hardworking
nonlinear
CareMetx
Cornelis
foundingteams
biBERK
MyFitnessPal
MatPlotLib
DOMAIN
SmartRecruiters
Codecademy
undisputed
Copenhagen
RAApplicationsupport
CERTAINTY
HopSkipDrive
Nickelodeon
085
2B
399
312
393
4x
520
570
787
8D
920
Ay
Agr
Afford
ACH
AH1
BM
Bid
Brow
BRA
Citi
Chip
Cru
Cari
Could
Crop
Cater
CPC
Clevel
Cigna
Dat
Dar
Daw
Dash
D365
Dicer
Ell
Fib
FAR
Files
GQ
GMP
Gilly
Homes
Hicks
Heat
HDI
Hung
IB
Ice
IRA
IAT
JR
JCP
Jabil
JDBC
JAMF
KP
Knight
K8s
KLAS
LF
Lands
Listing
LES
Lik
Later
LAI
Lunch
Laptop
MV
Mul
Mant
Mov
MPI
Merg
MER
MTA
MRO
MFT
MCSC
Mbps
Meals
Ni
NT
NCI
NAT
Neph
NRC
NFL
OPE
Pu
Pex
Paired
PPT
Published
PESO
Pizza
RC
Rom
Riv
Rose
RSP
R22
Rico
Ranger
Randstad
RSAC
SRA
Sessions
SPON
Sql
SVC
Seller
Tues
Talking
Tatt
Touri
Tips
UG
Vo
Wash
WOW
WiFi
Western
Wolf
XDR
Yo
YES
YCharts
Zim
Zack
Zoo
Zeta
avid
a16
bay
bud
boring
blow
binary
borders
cad
cruise
density
eeo
fish
filling
felony
grind
gyms
hous
hitting
homeland
houses
hii
homelessness
ix
iC
jarg
liv
loud
ml
misc
mapped
moved
mgmt
nations
nos
nuts
naming
pn
pal
pave
pys
pacing
pench
ray
rail
raster
sand
ske
sizable
sporting
td
tent
tur
trip
tired
tiger
uple
uDC
voted
wet
wolf
wrists
€39
##aj
##ait
##aLens
##systems
##c3
##cer
##comm
##cont
##ciences
##cons
##casts
##oH
##mo
##files
##technology
##tnight
##technical
##hol
##heric
##hatt
##kind
##ebo
##la
##lit
##dm
##HP
##NTS
##Nexis
##ny
##nance
##gical
##gum
##generative
##pable
##plex
##poin
##putting
##ywhere
##ylla
##79
##bies
##bell
##bbe
##3A
##vari
##vals
##56
##500
##02
##W1
##WO
##WAP
##Pat
##wiz
##IBLE
##RING
##2F
##2000
##Team
##Time
##TAL
##TRP
##That
##zar
##Ocean
##OMED
##J1
##Y1
##SOR
##Smart
##CES
##Lift
##XC
##Market
##Aide
##ATIONS
##Kites
##Vry
##tifies
##erical
##erimientos
##inner
##inalysis
##itro
##iture
##ingles
##ingalls
throw
##rett
ink
inners
ingress
##anticip
##anently
##arn
##arment
##arus
##arming
##eley
##icode
##stash
##olorado
##acct
##isals
##isites
##istically
ord
##perity
reass
reorgan
forum
fortnight
##ersson
exit
##americ
##igami
ant
##evision
##rives
##rification
youth
asks
##tudi
##ulk
conti
##eman
##forms
acre
appare
##odles
##andum
##oyce
##ches
incarc
weighting
clicks
reliance
##apon
##grunt
Weight
Weapon
analysing
productional
##achments
attitudes
##ourse
InB
Inpatient
InMarket
impedi
leases
leanta
scatter
scoped
##rome
intents
##tivo
Progressive
##umina
##agroup
systematically
##astering
induce
recyc
##ollo
Stop
Staf
Structures
Strives
perhaps
Theory
##eneg
##ewater
##eez
preem
prevail
##enson
Ancillary
designate
timekeeping
meg
shel
shep
shooting
spaC
covari
##ffalo
envel
Scylla
underground
Compressed
##rupted
Work™
abide
abercrombie
##allion
unple
unlocks
unforge
##vium
##viPay
##eption
drift
##angle
##prints
organisations
Aceler
Asks
Manif
Manhatt
marks
fuzz
arb
##erally
##atching
Conting
##negie
Prefect
##nova
Apollo
Capitalists
remuneration
partitioning
Attract
subj
paylocity
assigning
##athons
HealthCare
Clubs
deciding
decisive
deception
##celling
persona
##die
MLflow
optimists
quar
SQLServer
USWAP
##010
talentacquisition
bricks
originally
##assroots
DeVry
##ttable
Suites
Enforce
Enson
poses
##ernels
##after
Allstate
Alliant
Equally
harder
##training
Travis
##ievement
keyword
00AM
accessed
complimentary
##teous
Persist
Cheez
reasonabl
Disposal
Disadvantaged
getter
Accidental
webcam
Intacct
##TIVI
Arity
Arbor
Demonstration
nonfunctional
nontechnical
CloudTr
Cloudwatch
sometime
Payable
##boards
approachable
##degenerative
Systematic
##inding
longest
charities
playmakers
PowerCenter
Orland
Origami
authorizations
FinOps
Imperson
productionizing
postdoc
Module
ecological
personalities
She
Parity
Parking
##ESRB
noodles
topologies
LIKE
Beware
purposeful
Nothing
##ISSION
##ematics
servant
##egas
connector
SAR
SACM
Vertical
cores
Pride
Pringles
thereafter
geometry
Optics
ModelOp
Without
stacking
documentations
COGS
vacations
Official
Consent
gritty
grassroots
Correl
homegrown
CAL
CALI
Asser
Veterinary
Italy
CIA
ambulatory
194
1991
1975
1994
queried
Mars
##ibson
##raform
Integrates
##antial
CentOS
Interchange
5090
189
paternal
retreading
##toningalls
##azz
Departmental
##ximate
handover
biweekly
immerse
immersed
quantifiable
predicated
##BIE
Purposely
##ERCR
##ERSHIP
305
30th
##SINT
definitely
Spill
Spatial
Spinn
enjoying
coder
checked
checkout
PostGIS
496
respectfully
mindfulness
Redpoint
RedCloud
##ORA
typing
ADM
attacker
certainly
Offsites
Possibility
vii
viii
Terr
courteous
Instead
OpenGL
Strategist
Strategize
viewed
advisories
revolves
ANR
Troubleshoots
Keyfacts
KeyClo
##OUs
##OULD
debarment
##INST
Terragrunt
adopter
Owl
Selecting
competently
winners
IDIQ
examining
practicality
practically
##iliation
##MPS
celebrations
trainers
television
linkages
Appeals
Apptio
CRMs
ICCV
90k
Carnegie
##intelligence
router
246
terraform
##undo
Recruiters
microsc
copied
GPP
221
22008
##VIDUAL
NOAA
responders
Airbyte
Greatest
SSHA
##LEX
GovSt
turns
adjuster
Gurob
refinancing
Jenius
27th
##herding
8020
EXPEC
Notebook
permit
permanently
Teleph
Telarus
Improves
mailboxes
nearing
##requent
##request
##PCo
Bank®
DEVE
THAT
Species
passed
passwords
Documented
Flight
Floor
authenticated
MatLab
Prototype
##ketball
Observe
Expan
Expires
judic
Formulates
hospitalizations
speeds
Confirm
##CRs
discoverable
Fostering
##anny
5566
finalist
finalists
Volt
##9947
Requerimientos
Questionnaire
pairing
Visibility
ledger
teacher
concerned
120M
TOTAL
NEPA
Commissioning
SkillBridge
committing
frequentist
Insperity
Logistic
Logstash
thrivent
Worldly
CPO
DAY
Similar
UXD
Families
Problems
Environments
genome
Heath
urinalysis
reductions
Personalization
medicare
MDR
ISO27
ABERCR
ROL
1955
Flux
Talented
EMRs
Belt
spring
Chainbridge
CTH
CTP
CTD
GAAP
MultiPlan
discussing
Sometimes
##NIA
##NICAL
normalize
urged
mixture
##LOPER
##LOGY
circuits
screenings
OSWE
precond
suggests
B2B2C
Explains
conceptualizing
Supervised
SMPA
SMMP
Credential
memories
FLG
radar
radius
programmes
Attachments
##elsen
chatbots
dimensionality
Hybris
Nextflow
Maximo
widest
substation
Searches
unclear
Charl
Charles
landowners
landintelligence
therapist
Rockville
prosperous
Illumina
Edison
refreshed
849
Causal
forget
APO
SCCM
sensed
sensory
4836
DDoS
honestly
richest
accruing
Investigator
FedEx
##TDO
appointments
Profiler
Southcoast
EST2000
terror
Surround
Surplus
##phis
834
EMPLOYEE
Supervisors
Evergreen
Trials
footprints
Carolinas
MEL
slide
sequences
Buffalo
CB1
CONMED
diagnoses
##ahealth
ACTIVI
336
EHRM
Equipped
Prioritizing
Curriculum
AngularJS
AMCB
missile
TreviPay
blank
blazing
comprehensively
##idding
Players
FourKites
Classes
Submissions
annotations
Trainer
Parkway
Attends
Panama
dramatic
##40263
neurodegenerative
routings
NGOs
allocates
allocating
substantiated
CNO
CNGB
blending
7709
PPDS
Encryption
Prisma
Markham
Hollister
##FORNIA
##KAGE
Sensors
Quickbase
graduating
Winning
GET
Segundo
magical
##VERNMENT
Extended
MTSI
swimmer
##PEG
steadfast
BUT
salient
sharpen
causaLens
Chrome
Rooms
violate
snacking
biomarkers
Gainwell
Separated
ImagineThat
Empowerment
obsessedwith
warning
Shares
PSLF
GOTS
GOOD
GOVERNMENT
egos
furniture
741
Firebase
Mechanicode
Expresses
PROC
PROGRA
inconsistent
Experiment
BRD
SHOULD
incubate
incubator
AFF
JASINT
affectional
freel
epidemiologists
Barclays
Barrett
HDHP
SIG
##OMBIE
MindsDB
poly
polka
##GROUND
molecules
Rapids
SNF
SNOMED
wishing
##arettes
attaining
dispute
prepaid
calibrate
calibrated
diversify
Negotiates
Hashicorp
Wartime
Hazardous
Nurse
badge
practicing
Morning
Memc
Memphis
Movement
NexHealth
peripherals
##rological
Escalates
Interfacing
571
TRAINING
BusPat
Clement
Hiller
constituency
Substantial
IND123
Synthesis
Nearest
Sunnova
WSESRB
##Anywhere
##rowdStrike
seasonality
Luigi
TA2
huntingtoningalls
juggling
##HEALTH
cornerstone
deductions
Neo4J
OCIO
Single
synergies
grocers
MAPP
siloed
Wealth®
ingredient
Bravium
admissions
Arrangements
20420
internships
Institutional
Extraordinary
uD83C
punctu
Advocacy
Subsystem
pillar
deposits
Angi®
Determined
Determination
headsets
HEALTHCARE
WeAreCrowdStrike
AEP
doub
grievance
haven
Actuary
Adjudicate
Complexity
Arabic
Highlight
labeled
Pharmacist
Zylo
##Works
town
Explosive
Explosives
memorandum
Merchandising
Fleets
NavAide
cryptography
ultrasound
shaders
shadowing
1871
surpassing
Cardiology
Surveys
Copperleaf
battlefield
thrilled
Moments
denied
galax
impersonating
impersonator
scrutin
distinctive
syndrome
CGM
Heritage
Saturdays
Wearable
reshape
liquidity
webpages
walkthroughs
340B
FITCH
affirmatively
podcasts
conceiving
Scholar
Grievance
JM1
Rowe
cigarettes
Clustering
electrification
elaborate
NAVSEA
hairstyle
Junit
MCSCO
alleviate
Procedure
CANDIDATES
ggplot2
hollandameric
Blender
Diagrams
E2E
Filter
HOPCo
Liquide
SERVI
literally
ascertain
Amendments
CLEARANCE
TECHNICAL
Boto
Coco
HFHI
HITRUST
Lotus
Parexel
SSPP
TPMs
##brook
attentive
impairments
decommissioning
anniversary
REF40263
RELATIONSHIPS
##ochemistry
PredictX
Custodian
ISACA
Qlarant
VLOOKUP
fruit
ΓÇô
reapply
acoustic
Expressions
overachievement
Dissemination
Ordnance
bioinformaticians
Privileges
Biomedical
INDIVIDUAL
Maveris
APEX
crowdstrike
renovations
SPDY
PROJECT
horizontal
Absorb
Berkeley
photocop
PACKAGE
SSSTRP
SBIR
dads
tsd
wallet
wisdom
Integer
stryker
assimilate
declarative
Percentage
Itemize
SOFTWARE
BACKGROUND
LexisNexis
Momentum
Ayar
Caribbe
Caterpillar
Cleveland
Darwin
Dawn
JCPenney
Moventi
Nielsen
NTT
Nephrology
Puerto
PESOH
Romania
SPONSOR
Tattoos
Tourist
Wolfe
YoY
a16z
fisheries
jargon
pnnl
pyspark
penchant
tentatively
##controller
innersource
##anticipated
reassess
reorganizing
fortnightly
##tudio
apparel
incarcerated
impediments
leantaas
recycling
Stafford
shepherding
spaCy
unpleasant
unforgettable
Acelero
Manhattan
USWAPTDO
Ensono
reasonableness
CloudTrail
Orlando
Impersonation
Correlate
CALIFORNIA
Spinnaker
KeyCloak
GovStrive
Gurobi
DEVELOPER
ABERCROMBIE
obsessedwithlearning
BusPatrol
NAVSEAINST
hollandamericagroup
REF40263L
INDIVIDUALS
Caribbean
SPONSORSHIP
2K
2px
322
4th
440
5b
7th
801
894
960
Aper
Aure
Arib
ACP
ASA
AMP
AMI
Average
BN
BL
Bear
Bould
BTA
Bending
BRI
Cit
Cou
Cas
CTI
CEN
Craf
Casting
CPS
Costing
Café
Cronos
Di
DX
Did
Dear
Dass
Dress
DMP
DML
DOS
Eg
Ess
EAM
ELA
EMEA
Ft
FS
FC
Fant
FIR
FAC
Figma
Fault
FNF
FCAS
G5
Gem
Gage
GWS
GHR
Geek
Gerber
Gibson
HC
Hat
HQL
Hollow
HAP
Hypo
HCL
Honda
Hello
IPs
IRT
IEE
Jel
Jord
JRI
JBS
Juris
JWT
Jazz
Kid
Kust
LS
Late
Liter
Lovel
Limble
LSAC
Mp
Mild
Mell
Mile
Moving
MMO
MAT
MGB
MCU
Music
NX
Ness
Nem
NPI
Never
NDA
Nascent
OU
Omission
PY
Pot
Pend
Pens
Pry
Pep
PSS
PBI
PAM
Pomel
PTC
Pocket
Pictures
QU
QM
RH
Race
Ride
Rally
Rice
RTS
RLO
Roots
Rica
Ross
Ryder
Sq
Som
Send
Sure
Sees
Size
Side
Sier
Seen
Sarg
SRS
Tur
Trip
TER
TDS
TAT
Turning
Tarts
Tanz
Uplift
VO
VD
Velocity
Vulk
Wish
Wonder
WCG
WGU
Xac
Yah
Yoh
Zabl
az
aka
bog
bids
baby
beds
beta
bureau
burea
bidding
citation
cancers
c2c
dur
dest
dating
divid
duck
danger
eG
esc
ethernet
epsilon
fda
fighting
fico
gre
gartner
hust
hive
hospice
iR
iBusiness
lect
lag
lux
lamb
lovers
mic
migh
meal
miter
movers
mastering
ner
nam
nut
natera
niche
nascent
pen
pant
pouch
pacific
rid
renting
randstad
son
spl
sap
saw
sau
slowly
tu
tist
tistat
uc
uDE
uplift
wo
wand
warg
wisely
xpl
yell
yoh
yoga
yaml
zill
zoom
##aum
##aight
##asions
##rp
##ring
##rata
##rated
##rative
##rams
##iber
##iHealth
##suite
##sql
##support
##ca
##cy
##cel
##cents
##crum
##corp
##oT
##oM
##oal
##oge
##oid
##oLogic
##men
##masters
##mutual
##fs
##free
##fusion
##tops
##help
##home
##eps
##lation
##lies
##list
##loom
##das
##HC
##Hours
##NLP
##NHC
##ugin
##ufficient
##urology
##nb
##gering
##groups
##pe
##pp
##pas
##pack
##post
##pulated
##ya
##year
##78
##bb
##bard
##bour
##boost
##33
##val
##vare
##viving
##55
##World
##Pled
##Pros
##Panel
##Prep
##81
##wy
##IC
##Res
##RAL
##EK
##End
##21
##230
##Tact
##Texas
##Titan
##ToM
##zer
##DD
##DU
##Un
##USE
##JB
##JOR
##GK
##Gres
##Graw
##SG
##Stic
##Security
##SIS
##Solv
##City
##Cell
##Cross
##Code
##CEO
##COR
##LX
##QP
##Xpress
##MD
##MK
##As
##AK
##AMS
##Axis
##Fe
##FY
##Fres
##ías
##Kard
##jo
##j1
##jors
##Vs
##Ver
##erth
##erang
##ndon
##ono
##onf
##inform
##inish
##inancial
##esk
##esys
##esystems
##enostics
##orius
##alab
##atre
##ateness
##role
##rocess
inflows
tour
told
tokenization
##angh
##edge
##entCare
##arting
##iltin
##icating
##ecedent
##ectibles
##sters
##states
##steps
##omac
##olent
##ura
##urial
##veys
##acier
##plic
rebuild
##esso
forever
excess
exacting
##amios
##thy
##threats
##igent
##asa
stre
stature
stairs
stuck
##idian
##abis
##user
##using
dataide
##rion
##rium
ascend
workgroups
conferred
##empts
##irk
##irits
##ownership
##ineplex
##formity
##lyvision
compound
compress
acres
##ocurr
beer
beating
behold
apartment
##odo
teamibr
##otans
##itious
##ageal
##charg
##changes
Thus
Though
respecting
resellers
reloc
##ostic
##osys
##osett
plc
plenti
plug
plugin
##arding
commencing
attire
trap
trench
Inn
Innate
Inalab
impres
##ells
##ellations
scul
disasters
disposal
disambig
dismemberment
disarming
##tivation
Propos
Proposes
cheneg
##uming
##artz
##artorius
recapture
Static
Stars
##ponian
Youtube
ComKard
##ewire
##ewhere
##antec
interfer
intervals
DataS
Datasets
DataRobot
preform
##ensated
controllers
Anne
Anhe
prere
notable
leadstack
Reform
Refl
shower
##standard
spect
spirits
coinc
coalition
creations
creatives
Scam
undergo
underway
Compare
Competi
Workload
WorkIn
experienti
basketball
##tisan
##ommon
##iaCell
unifies
unplanned
identifiers
##vive
##epati
ResMed
##angered
Wherever
Acquiring
Aspi
carefirst
marriage
AIM
AIA
##cribing
arteries
Conce
Conflu
##proof
##ks®
outage
Emids
Embody
##uberi
##osts
prim
prize
##ffice
specifying
multiply
fielding
Straight
majors
PyR
PyCh
Pytest
focussed
variation
Unpos
Remedi
##brate
subrogation
roberth
##tinity
Adm
Adverse
Adhering
Adtalem
Forens
Healthy
Healthiest
deceased
assing
assay
endangered
lifts
MLlib
SQLite
Servicing
planting
captive
tester
##isha
Recipe
expands
brick
##ighters
origins
defenders
##thods
theme
requisite
##ermatology
fray
framing
Sufficient
inclusiveness
guess
guys
realms
posing
AllCare
boiler
##rologic
recruitingaccommodations
##elligently
settle
100K
Abstr
##learn
Trails
Tok
Tokenization
desires
desperate
initiating
##ocki
compliment
differs
GoToM
Chron
similarities
Disp
Disputes
localization
AccentCare
Intro
10mbps
governs
noncon
distancing
Describe
specificity
207
Incred
Incub
Incumbents
ServiceTitan
##orton
##ortechnologies
##cohol
System®
encouragement
charism
firstam
Amica
Amyx
testament
activating
##ONE
##ONG
Org
Orph
##atiable
appropriateness
TeamCity
##affia
ecology
Shine
Parent
noSQL
Visions
LIS
LIPA
##houses
readability
Bean
Beauty
##titution
##olescents
##airy
BIO
informatic
hiringaccommodation
WorkingHours
Verge
Verified
Veracity
Verifies
Verifiable
Print
Optical
Statewide
##toral
Onboard
Monte
Monetary
COS
151
edges
Consul
Cores
homebot
homeownership
CAP
CARs
instinc
insufficient
insatiable
CIRC
CIOs
mozilla
Actalent
1910
##CAUSE
##RET
##RENT
##ra7
##rael
Planet
Planner
reporters
wouldn
##antine
Centene
CEOs
motivational
Transact
Regulation
roadways
MSFT
Professional®
socially
188
1889
Alaffia
retreats
Relies
Relativity
##lund
Overland
Overhead
dedicate
dedicating
countless
discrete
Solace
Solves
DFWS
obtains
spends
binds
quantities
brewer
Bluberi
Architected
generalist
Usage
146
Highland
CodeFres
progresses
CVs
REFER
REDC
REWAR
SDC
Summ
SumoLogic
aspx
##ika
facilitated
streamlit
lesson
##SIT
RevaC
definite
capitalizing
maximus
Colab
Spine
##BAs
##BASE
Outpatient
Outliant
PostGres
139
1366
eleven
Andersson
ADD
Mayfield
attempts
accelerator
Resourceful
tunity
ClientSolv
Otherwise
SparkSQL
OpenCL
satisfies
pathway
pathogen
##INI
##INCI
prohibiting
proposes
##CED
competences
Webinars
occasions
150K
situated
Labware
examiner
seeker
unites
Individualized
ORDs
coached
stipulated
DigitalOcean
HIE
HIM
HIRING
Scalability
SnowFl
linkage
clustered
Daycare
Defect
CRC
Implementations
ICs
Caritas
Carlo
Carenostics
##LIC
Facilities
cracking
Consultation
Cycles
Israel
cyberthreats
##MEM
75k
75mbps
Writers
224
ERD
CoreTrust
NOC
Crimson
##ompliance
responded
Airtable
SSH
SSC
looked
##thesis
178
6005
##LEMENT
Engagements
EngageSmart
unsafe
GovTact
GovSG
storylines
##1099
##ATM
Anyone
Guice
Guarant
refined
Annuities
friendship
explainability
CommonSp
272
INFO
Meticul
Grange
sensitivities
CCNA
Emails
faq
faults
BASE
BABOK
rollback
##IFICATION
Schaum
##logic
ARR
##IRMA
Connections
Connexus
heuristics
indicating
THINGS
Regulated
sea
seizing
QUALIFIED
Glacier
GliaCell
desktops
digest
Examines
MAJOR
Expenses
Twist
Fuel
Moore
facebook
Everywhere
Visualizations
VisualForce
Confidential
solidify
formalized
550
Reading
BlueSh
BlueCross
competitiveness
##ANG
TechFlow
##ottom
Smok
TOGA
propag
propelled
Hubbard
gameplay
85k
85K
Completed
Completely
Invitae
StarLearning
LOCA
LOCATIONS
Worlds
130k
PyTest
Corrective
calendars
computations
##UNI
genres
Synerg
Heating
proficiently
smartphones
philadelphia
philosoph
FamilySearch
455
Properly
summarized
liaisons
absences
installs
Internally
succinct
ActivePros
VMC
Permitted
scrums
Firmware
McGraw
##CHED
##abinoid
rigorously
tenet
Genomics
Vacasa
Permanente
CMBS
CMMC
BCT
Switch
Switzer
##PERS
Impactful
286
CFE
Signant
swag
sweet
SKILL
OSCT
fewer
cardholders
calculus
preventative
OFR
appreciates
aggregations
uniformity
BECAUSE
speakers
Orion
Spresso
Loosely
TEAMS
refresher
cannabis
cannabinoid
DOING
deriv
derives
sooner
separately
Shift4
SM1
memorable
Addresses
NCX
sportsbook
pytorch
FAF
Lineup
breadcrum
MiMo
PASS
chats
correlated
NodeJs
intends
explosion
Minnesotans
95k
950
Cogita
intuitively
probabil
AmeriHealth
Autosys
uncommon
##ENTIST
Grads
reconnaissance
##URES
##URITY
Counseling
correspondences
headhun
328
Invests
Updating
cohorts
Registrations
EdTech
##labs
8456
RFA
##602
comprising
DDL
FiveTr
SmartCEO
Holds
Empowers
##CLES
Profiling
flourishing
ABAP
Esri
MOTOR
Surviving
8337
Restaurant
Temporal
Guided
Guideline
Guidewire
##relationship
Childcare
EverHealth
Everhealth
Triaging
Trianz
reconciling
Loading
Sponsor
Sponsored
7210
298
AZURE
OTT
388
3800
Ethos
UC4
commanding
Feeding
SCIENTIST
Zoomies
Represents
940
AMAZ
TVs
missed
black
differentiate
R01801
R01824
R01823
R01825
residenthome
Playwr
Reliably
Returns
redesigned
Tenant
Clario
Archiving
certifying
FlexJobs
##6670
exchanging
Spanner
CruiseFlex
Effort
rankings
annotated
stretching
Court
Courses
Satisfactory
SPICE
Trained
holistically
##Methods
AutoSc
BOM
BOMs
Costa
Helpline
SUCC
SUCCE
bonds
exclude
occurred
Diagnostic
california
motorc
VEHI
Pursuit
Copies
intentions
771
airport
offset
Radial
augmenting
SaltStack
IQOS
Listening
graduated
archived
Inspection
Microcontroller
##aksware
Approaches
Increase
classrooms
Middleton
Grove
Janover
SETS
inefficient
Computers
Computersh
solicitation
flags
swimmers
shortcuts
imagined
210k
NVivo
psychiat
transcriptomics
628
NMCRs
persuades
concentrate
concentrated
timeless
Gains
##conn
Measuring
FAIRHEALTH
wartime
Sharp
Boxes
4747
Camoin
NDUS
Poly
CBAP®
SeK
pinnacle
compromises
Importantly
tirelessly
Diagnoses
Variable
molyb
clinically
Orchestr
Experiments
Experimental
AvidXers
EVRY
Honor
Honorable
PaLM
Piper
SHM
universal
1993
AFSIM
Saas
Saebo
massages
##limit
RATE
Covered
##ammers
spotting
Explores
Exploratory
Publisher
polygraph
LEVEL
LEARN
medidata
##ABLE
Elicitation
Materialize
racialized
DMD
RIGHT
weighted
##eliners
Insightful
Friends
Nurture
cascading
Reinsurance
##START
##STARSIT
##DevOps
Axcess
justifications
tempo
Encourages
Encouraging
Wizeliners
sympo
transferring
ACAMS
Busch
NuAxis
SECRET
Substation
CodeworksIT
SonarCloud
Avat
Iteration
Snacks
SentinelOne
puzzles
##484
Headspace®
meticulously
Achieving
warfighters
athlete
Navigator
Skoal
STAR
soccer
insureds
Featuring
Shipbuilding
worthy
##Parental
Refinish
Spearheading
LOBs
MPH
MixPanel
textual
modalities
endeavor
Ambitious
uD83E
FOIAXpress
DBAs
TLF
ecoATM
##Cares
KubeFlow
Hydrologic
Elements
ratios
Installation
Genesis
Earnest
Alexa
BHDIC
FISMA
Harmon
PBX
Fisheries
Passport
VALUE
angles
Aggregation
neighborhoods
Tutor
beverage
binders
Consolidate
Annotation
memoranda
OBHS
RTOG
cryptographic
squads
##ershey
flawless
credentialing
Smokefree
glassdoor
Therapists
Augmentation
Bryce
Layer
VISION
furry
Thursdays
allegations
distinction
CODEWORKS
hydro
Concentrix
Differenti
CERTIFICATIONS
Portugal
Herndon
OWN
OWP
bulk
bullet
omissions
inaccur
revealing
Inquisitive
immuno
##BILITY
Grandmasters
Vibrent
GROW
pods
##denum
wrangle
retroactively
Scholarship
hazardous
Quadrus
Download
EBNHC
Grievances
Pulling
cigars
fifteen
##Referral
inequality
entrants
Ashfield
NAVWAR
hairstyles
NUE
Nobel
UHC
Wisk
Zapponian
buried
acquires
degraded
DataStage
DataStax
COMMUNI
bundled
REGISTRATION
Swimming
SampleManager
lifeatqliklund
EagleX
Eye
FRD
NONMEM
Tabular
cancellations
manifests
trucks
strugg
CASPs
Autonomously
Mindedness
Error
ASSU
Captures
IaaC
Juul
Melbour
MNSs
Patience
Sorenson
damage
glean
hobbies
hassle
java
wastewater
warmth
inhibits
prognostic
##igilance
cherish
physiological
nonexempt
Agilist
combustibles
Relentless
occurrence
94420
Snapsheet
trailblazers
LICENSURE
ORGANIZATIONAL
CQI
CLASS
Hudson
Sapio
muscles
mirroring
sneaker
txdm
tribes
##Guide
inherently
retired
altria
impression
accompanying
priced
prunes
underperforming
libertymutual
Appraisal
Sherpas
CITIZEN
biostatisticians
mobilize
heightened
SmithRx
Patterns
misrepresent
HarmonyCares
Beverage
Cooper
CCIDS
FocalOS
Menlo
VLANs
pixels
Propensity
esophageal
granular
Deposit
predominantly
EXCITED
Telemetry
Syrian
Retrospective
Illustrator
illuminate
CONTACT
SUBMISSION
SUPPLEMENT
VETERANS
EVOTEK
78731
Affordability
Ellipse
HeatStic
OPEX
housed
skep
uplevel
antecedent
productionalizing
InBev
scattered
preeminence
prevailing
covariates
Manifesto
fuzzing
Contingency
subjected
quarantine
ParityPled
CALSTART
Assertions
EXPECTED
judicial
ROLES
AFFIRMA
punctuation
Boto3
5b6670
Aperia
Ariba
Boulder
Citrix
Dassault
Essbase
Gemini
Hypothesis
Jellyvision
Jordan
JRIMS
Kusto
Lovelace
Mpbs
Potomac
Pryon
Pomelo
RTSM
Sqoop
SurePrep
Sierra7
Turkey
Tripoint
TERM
TurningPoint
VDRS
Vulkan
Xactimate
Yahoo
Zablocki
azure
lectures
luxury
mighty
miterlimit
pouches
sauce
tista
tistatech
wandb
xplortechnologies
yellow
zillow
##roleum
dataideology
beholden
##osetta
plentiful
trenches
impressive
disambigu
Proposals
chenegamios
ComKardia
Anheuser
prerequ
leadstackinc
coinciding
WorkInTexas
##epatitis
Aspirion
Confluent
Straightforward
PyCharm
Unposting
roberthalf
boilerplate
GoToMeeting
Chrono
nonconformity
Orphan
instincts
CIRCOR
CodeFresh
REFERRAL
REDCap
REWARDS
RevaComm
136665
SnowFlake
CommonSpirit
Schaumburg
BlueShield
Smokeless
TOGAF
ActiveProspect
Switzerland
breadcrumbs
Cogitativo
probabilistic
FiveTran
AMAZING
Playwright
AutoScaling
SUCCESS
SUCCEED
VEHICLES
Computershare
molybdenum
symposi
Melbourne
txdmv
libertymutualgroup
HeatSticks®
ParityPledge
AFFIRMATIVE
065
099
017
2S
216
375
4H
5th
567
6B
601
765
999
Aware
Around
AVP
Auction
Avive
BP
Bow
Bard
Bell
Bene
BGE
BBC
BRO
Bomb
BPO
BGP
Bottom
Cary
Citiz
Cough
CCS
CPM
Casual
CUS
Caching
Coffee
CCSP
Cubes
Dual
DON
DaaS
DCI
DPL
DSM
Duck
DISC
DNP
E1
EO
EG
EH1
EJB
F5
Far
Fri
Fut
FME
Falls
Feet
FREE
Gul
GPI
Getting
Gaming
Hal
Hay
Hall
Hang
Hav
HAN
HUM
HHA
Huck
HCC
Hunting
Hershey
IE
JE
JF
JMP
Jane
JVM
JEST
Josh
JPEG
Kal
Kom
Kand
Kum
Koch
KBR
KB1
L2
Lact
Loyal
Mal
Moc
Mull
Mirth
MAR
Much
Mother
Morse
MEM
MVC
MGA
Multiv
Masking
MVS
Nom
Nest
NER
NBC
NDC
Nutrition
ODI
OSP
OID
Pard
PWS
PES
Pair
Pix
PCS
PID
Pitch
PFS
PTP
Pilot
Pushing
QE
QBR
Rational
Rite
Rise
REO
RIM
R0000
Sus
Soc
Syst
Sex
Sia
Saving
Sites
Sounds
SLT
SUN
Still
Sustaining
SGA
Sartorius
SCHED
TR
Tid
TTE
Talk
TMS
THS
TAS
TRI
TABLE
UN
UF
Ups
VX
Vers
Viv
Vast
VTO
Vectron
Vnets
Vivo
WM
WSAP
WISE
Yip
Zen
Zend
aegon
aCRF
bet
bld
bluep
bacc
cbre
dice
dele
diverg
dermatology
eat
eCO
fer
fir
foss
gum
golf
gifting
hash
hood
jb
king
kea
kernels
lp
lou
lid
lost
lau
md
mortg
motors
nin
nested
osc
overse
ocean
ping
pan
pip
pong
pensions
rans
racing
rounds
rides
ranch
ripe
rigid
says
slow
soul
tanks
upl
ustechs
u007
victory
w2
wit
xls
##airm
##aplan
##rm
##ray
##right
##racy
##iy
##iary
##sm
##sil
##sewhere
##cor
##cale
##commerce
##camps
##ooping
##my
##mod
##frog
##tw
##tz
##telling
##hr
##hV
##har
##hare
##hot
##human
##hrs
##kes
##kos
##eX
##lr
##dies
##dmin
##dvis
##Hou
##HSA
##HPS
##HRS
##No
##uk
##uent
##uplication
##nt
##nold
##normal
##nexus
##gments
##gyn
##pg
##pact
##yer
##yourc
##yield
##years
##77
##7A
##bh
##bri
##bial
##bees
##bilit
##boring
##bilt
##borough
##boch
##bidden
##bulous
##xr
##32
##van
##116
##68
##600
##Wind
##WER
##Words
##Person
##92
##967
##wen
##It
##ICA
##IAL
##RH
##R7
##Rad
##RES
##Rct
##Ruth
##EES
##ERE
##201
##TW
##TR
##TX
##Table
##Test
##Type
##zos
##zeman
##On
##OO
##OX
##DP
##DK
##DLE
##DNA
##Back
##Bomb
##UD
##UB
##UME
##ULE
##Ya
##Your
##Systems
##Sql
##Cad
##LLC
##Qq
##QC
##Mind
##Advis
##Fed
##FTech
##FACT
##ía
##Ksystems
##Zett
##js
##Vant
##Vets
##èmes
##onoun
##inos
##esen
##esaving
##enity
##entically
##oritiz
##alis
##atom
##atalyst
##atris
##itData
##ington
##ingtech
thirst
##relev
inputting
inches
token
##anes
##arti
##elon
##ician
##iciones
##oux
##sto
##stree
##struct
##omware
##ompose
##leberry
proficiencies
##acular
##acola
##plating
##plicate
##isees
##perienced
reall
repri
rethink
##gend
forex
forced
forbidden
exporting
##amos
##amarts
##atability
##thest
##thora
##igurations
##asures
street
anc
anch
anatom
##idat
##idable
##idency
##ucracy
##usa
##quer
##quently
##query
##queries
##rim
##river
##rival
youtube
workable
##uling
##ularly
##ticultural
##opic
compressed
##areer
##adle
##ados
##aditional
##ifi
##ifai
##ifecs
##itives
##itivel
##andbenefits
##izen
##izzes
Exelon
##chester
##chools
##chemy
##uda
##ectl
technoph
##ogging
emission
emotion
ushering
Thor
Thing
Thomas
clerical
deferral
reskill
resettlement
nebulous
##apper
##grid
##grant
WeWork
##esta
##eston
##estar
imbal
##ipp
plastic
##ached
##verty
trunk
Intune
impatient
legend
sci
scipy
scammers
diss
discharg
intang
intelligently
##tivos
Progyn
chase
chair
chief
chops
buildyourc
recroom
recomb
Strike
Stooping
poise
poverty
##tuned
perpet
##ureate
addi
adolescents
ComEd
##ongo
accum
interrog
interchanges
interconn
Datasite
Datawiz
allied
##ensed
modahealth
Anaplan
Refact
References
timezone
supportability
shy
shoot
sheet
spati
coher
coalesce
programmatically
underwr
Compelling
Worksite
abused
toolings
toolchain
##extual
##vency
lock
uniting
unanticipated
unyield
unrival
identifiable
##ooter
##gano
Residence
Residency
Whatever
Acute
Acorn
Acquisitions
Activation
transcribing
cared
arts
Conform
Confl
Consc
Convey
strategize
outward
outlets
Prevent
Emb
##arios
##fless
Qualify
responsibilit
Apartment
Apoge
##sured
##irect
park
multilevel
multifunctional
JobType
##fying
Until
Unstructured
Universe
aging
colors
subqueries
adventures
##strategy
Adam
Adult
AdWords
##athlabs
Fortify
lifesty
lifesaving
Metric
quote
quotes
quizzes
USG
USPTO
elsewhere
culmin
##gnant
brt
originating
regarded
defuse
defensible
consults
Degrees
jointly
overlook
overcoming
curating
hasn
insightsoftware
Eno
Enact
Enables
Enabling
police
polices
amp
amid
amaz
Abenity
##traditional
Trillion
Traces
Trane
Transitions
Designed
##icket
selects
selfless
##grounds
wherein
belt
reviewer
reviewers
purposely
Phase
Commensurate
GoAnywhere
Fresen
Chanc
Chronic
Chris
Chairm
similarity
Disorder
Dismemberment
Introduce
packet
Arva
Arnold
Argano
10x
##ync
Producing
treasure
authentically
Cloudbees
Descript
formidable
NewRel
Payors
##inders
daycare
CareQuest
clearances
##criminate
generators
generosity
##onomies
authored
Financing
storms
Modules
Showc
Experienc
Param
Buildings
demonstrably
Visionaries
reader
Before
BeiG
Bezos
##ordinarily
policymaking
featuring
geneticists
concert
Elicits
Operates
salesforce
CDOs
SA1
Verana
Indirect
dynamical
Condiciones
##auge
COR
COO
configur
Cohere
edX
Consorti
grave
Correct
signing
Contextual
homebu
CAS
CAHPS
LifeSt
SalesForce
Assume
superpowers
Items
Italian
1911
Baseline
2005
20000
carries
##CATech
##RECT
imported
Marts
Margin
##ibus
Centos
Centrete
severe
buys
Transactions
Interdisciplinary
Interstate
Interventions
Provenance
Alleg
Altinity
##lusion
travels
traveling
Seramount
Overflow
placements
Customization
Customized
handled
##marva
##TORS
##TORY
biologists
biopharmaceutical
runway
Acceleration
broadest
breaks
Sequencing
predictor
##BIT
Wells
WellSp
WellSense
25lbs
SDoH
303
3099
commercializing
streamed
investigated
definitivel
deadly
mindsets
robustly
##oods
capitalized
Colomb
Spend
enjoyment
500K
Outside
13th
Redan
Redmond
##shine
##sheets
##ORITY
ADAM
happily
happiest
Maybe
##RAC
16th
energize
Continu
Continues
Continuity
HRSA
HRMS
donate
Whenever
Instru
Publication
Publicis
Openness
OpenFlow
OpenSearch
confirmed
RESUME
##ITES
##ITAL
revises
Keyboarding
Keywords
##OUP
DBX
League
234
##CETS
Legisl
WebEx
SOL
Ceridian
mechanism
HIDS
HIGH
Accesses
Quant
Quite
ISC2
60m
60k
breakroom
IC4
Carrie
Carrying
erad
Certified™
twin
literate
observance
observable
observances
crh
crunch
cradle
microbial
250K
took
prospecting
Homeowners
ERwin
thoroughness
CoreNLP
Presidents
grads
Critically
Crimes
Physician
AirMed
mitigated
SSN
SS1
Suppl
proofreading
PHAR
Innovator
monetize
Optimizes
##105
Anything
refusal
Cognito
taxation
taxonomies
grounding
INNO
INCATech
805
immersion
EXACT
Grit
Gramm
permitting
convolutional
70k
704
rollover
Schw
fails
orgs
AR1
ART
##aneous
indication
Moreover
Stocked
Economist
Banker
StandUp
Specification
passes
Flows
seas
Glance
Protecting
DCRI
Epicor
MAS
MANA
explores
explorations
Twice
judgments
Format
DirectX
Notar
delta
deliber
tableau
Confers
PRINCI
remained
5500
Deleg
Delmarva
steering
Reasons
Volume
Extensively
connectedness
terminated
Viatris
Takeoff
TOAD
propelling
elevated
Lambdas
EDIFACT
LivePerson
Bozeman
volunteerism
##habet
8583
tolerated
Invicro
soundness
Divisions
PIs
RecruitingAccessibility
implies
implied
genotype
Sybase
##unkbenefits
Heavy
880
Counties
##measures
reduces
Personality
MDP
Translation
STAND
WHERE
evercommerce
perksandbenefits
ROTH
privilege
Peaksware
Firms
Dependable
initializing
digitizes
digitization
Genworth
Bellev
Specifics
Decompose
Audigent
disclosing
subsidies
Multilingual
Swingtech
##LOW
farthest
accessibilityrequest
CISO
sweep
MUMPS
questioning
Recommending
calculates
speaker
Loki
losing
prompted
TEKsystems
Retailer
DOM
##airie
Transforming
Visiting
PMA
caution
Journeyman
HireVets
radical
FAA
FAST
FACETS
Instructor
chatroom
Crunch
Criterion
Hygie
501c3
##okes
upgraded
3Ds
NextJS
Weston
predictors
exploits
955
probable
190k
EvenUp
##DERED
attraction
Packaged
Neuro
PoCs
Greenhouse
PDN
Charity
PLSQL
landed
HubSpotters
Salty
Rocket
heading
323
3285
Denodo
UnitTest
Edwards
Edifecs
##RIVE
##RIBU
840
846
8463
linux
ADAAA
480
MIPS
hyperv
Smartwy
Investigating
##242
Clarifai
110K
Emphasis
shoppers
098
DIRECT
storytellers
bottleneck
##phet
835
Restlessly
EMPLOYEES
4186
Harassment
Mobility
TriZett
Adopts
Loader
CBP
DEIB
CONUS
CONTRA
countermeasures
3314
OTBI
Disclaimers
Prioritizes
categorizing
##ADERSHIP
680
##chronously
MaryRuth
blast
comprehending
##877
syncing
Estimation
##unches
newslet
repeatability
ClassPass
weakness
Submits
Wayne
Courts
DNAnexus
NAE
OHI
securities
drastically
expressed
518
BODS
allocable
Aligns
attachment
occurs
trafficking
LINK
compensable
CNE
CNC
CNNs
scanner
scanners
paperwork
Figures
airports
sao
intimately
Concierge
UnityPoint
431
432
4346
Listens
fundraiser
DATABASE
Zillow®
Inspired
Microstrategy
Walter
lightning
suspend
Approved
Increment
SET
##526
flagging
Frequent
Truth
printing
credibly
Campaigns
Thoroughly
leaner
1976
truthful
intrig
Received
Receivable
EarthOp
Entrepreneurs
NDR
PSC
Sustainment
AidKit
GameLift
Timeline
nuance
937
plethora
Route53
attackers
781
EVCM
Honesty
Migrations
##704
Guardian
ofccpost
SaFe
Achievement
Dimensions
OCONUS
surfaced
Perseveres
Hotel
Teaches
CTOs
Deals
Publishes
##MMERS
##ogenous
disqualifying
Evangelists
Palm
asynchronously
##keeper
Storytelling
Chemistry
molecule
LEADERSHIP
meditation
dispatch
DMBOK
spearheaded
Teleworking
Pioneers
Warf
imperiled
BuiltIn
democratization
Breath
appraisals
pooled
##vionics
deduplication
Bloomerang
harmonious
interrupted
Chartboost
Hyperproof
Calendar
DefinitiveLogic
ANALYTICS
ANALYSIS
Greif
##1520
broadened
CMMI®
GIAC
Nuvia
SVM
SECURITY
deaths
decreasing
Discounted
Aviv
IRR
Sunshine
Servant
bearings
musicians
neurodiversity
Merchants
Lukos
Vagrant
blueprint
Accepts
Manipulating
STRON
Originate
Originally
redundant
groceries
Shipping
Shipped
SPAR
Tags
triggers
Republic
franchisees
Freestar
JH1
Roche
endeav
SAMHSA
REPORTING
EDMCS
Moneythink
CLOSE
CLINI
SB1
irrelev
##alaureate
Teammate
Subscription
interdependent
Bedford
Dollars
engagesmart
AnswerNet
adversaries
Brightway
ECBA
Lexington
VistA
supplementary
DEVOPS
Louisville
##â€™s
linguists
C4C
aesthe
towers
Thousand
subsequently
phenotype
Consolidated
1981
uncompensated
BBOX
Watson
dropdown
stimulates
##levio
virtues
surpassed
telecoms
CSPs
Layout
PEPI
PEAK
Tunnell
galvan
sb19
Closed
Closely
Summarizes
Caffe2
NPV
reshaping
matriculation
webpage
Branching
tradespeople
Radiology
boutiques
severely
refactor
datastore
advertisement
EXCELL
Tempus
Calculate
DTjobs
HRAdmin
JMeter
Martech
lucid
mortar
nomad
nominate
inequities
statsmod
wheels
Component
paragraph
Argos
Alphabet
ergonomic
Infinidat
drilldown
Juneteenth
NUnit
PingWind
Rendering
RenderMan
reqGK
enlisting
alleviating
Procedural
COMMIT
Assured
bundling
CANDIDATE
hollandamerica
Double
FFRct
Filled
RRD
hackathons
actuaries
trucking
discontinue
CDAO
patentable
SSDLC
Discuss
Constructs
Autonomous
Errors
fellowships
exponentially
NACES
VanderHou
Vanderbilt
csv
hallmark
##ARDING
CONSIDER
CONSIDERED
ASICs
LPLA
lfinancial
withdrawn
Exceeds
Prodigo
RethinkEd
abundance
planograms
Bridging
extrapolation
delayed
SAFETY
slightly
ATTRIBU
hyperparameter
CONSULTANT
vocabularies
Banner
GREAT
JOIN
Rigorous
jeid
kanban
oakstree
enormously
travelling
recurrent
stringent
interpolation
spurious
Scenarios
uninsured
unveiled
explicitly
tweaking
2769947
Seaport
symbol
FlyMates
RxNorm
Accomplishes
3990
BMTX
BRAVO
LFG
Listings
Multicultural
cadences
grinding
iCi
livest
nosql
rasterization
turboch
##pointing
ordinary
microscopy
precondition
Charleston
terrorism
ACTIVITY
PROCESS
Memcached
doubling
galaxy
reassessments
Dearborn
Eggo
GeekSI
IEEE
Kidney
Mellon
Nemours
Pendrick
Pensacola
Pepco
Wonderware
eGift
escrow
lagging
lambda
splunkbenefits
ucop
##Assist
##informatics
compounding
compressing
sculpt
recaptured
interfere
Reflect
spectacular
Workloads
Remediation
Forensics
guesswork
Tokio
charismatic
friendships
LOCATED
PASSION
##relationships
Effortless
Avatars
Harmonia
inaccuracies
COMMUNICATION
struggles
skepticism
zillowgroup
4HANA
BombBomb
Citizant
Coughlin
Futures
GPIO
Havarti
HANDLE
HHAeX
Huckleberry
Lactalis
Loyalty
Mullen
Nomad
OIDC
Pardot
Pixel
PTPJobs
REOFTech
Systèmes
SCHEDULE
TTEC
TASKS
Versant
Vivox
Vectrona
VivoSense
YipitData
bldr
bluepathlabs
baccalaureate
eCOA
firsts
fossil
gumgum
lidar
mortgages
nineteenth
oscill
overseas
ransomware
uplifting
ustechsolutions
u007C
witness
##Advisor
##Vantage
reprioritiz
technophiles
Progyny
buildyourcareer
additions
unyielding
unrivaled
Preventative
responsibilites
Apogee
lifestyles
overlooked
Fresenius
Chairman
NewRelic
Showcase
BeiGene
Consortium
homebuyers
LifeStance
Centretek
WellSpan
definitivelogic
Colombia
Legislative
INNOVA
Grammarly
PRINCIPAL
Bellevue
Hygieia
hypervis
Smartwyre
TriZetto
newsletter
EarthOptics
STRONG
CLINICAL
irrelevant
galvanizing
statsmodels
VanderHouwen
CONSIDERATIONS
ATTRIBUTES
oakstreethealth
27699478
turbocharge
HHAeXchange
025
291
2ba
3p
310
3PL
422
5p
543
6pm
666
640
611
645
6years
740
896
AJ
Aru
AAR
ALP
ABM
AME
Ahead
APR
Aero
Aqua
Bing
Bound
Bals
Berg
BPA
BSI
BOB
BOE
BRM
Border
Baires
Binding
Cel
Cong
Crib
Cys
Cade
CMs
CCA
Curation
Carm
CCE
Coupl
Coupled
CLO
Census
CUR
Crypt
Cultural
Candor
Cineplex
Ded
Dam
Dice
Diction
DOB
DME
DSE
Diver
DLA
Dai
DPAS
Ein
Eve
Edition
Eric
ESI
EPPA
FY
Fif
Foll
Fake
Fier
FPC
FCO
Firc
Fros
FRM
FRL
Frist
FSC
FPAS
FLEX
GN
GB
Gil
Gant
Gross
GES
GSQL
Gher
GID
GMI
Ham
Hun
Hail
Hero
Homeless
Honey
IMP
Jm
Jay
Joy
Jos
Jason
Junction
JB1
Ky
KV
Kro
Kar
Kill
Kail
Kep
Kne
Kapp
Kamp
KMS
KDC
Khos
Kristen
Kirk
LD
Ling
Lov
Lak
Larg
LBM
Lund
LED
Loves
Litigation
LNC
LRP
LVM
Lisa
LXC
LOUs
Langh
MH
MJ
Mock
Mural
MCP
MPM
MCO
MPL
MIP
MHA
Merge
MITS
MW1
Na
NF
NEO
Nati
NSA
NCR
Nomo
Naturally
N4W
Oo
Overn
OCS
OPS
OAS
Ozar
OPERS
Pd
P1
PJ
Pic
Pill
Pip
Peter
Pne
Paced
PCA
Putting
Pager
PPP
Penetration
P2P
Qw
Que
QGIS
QNX
Rd
Rn
R2
Rid
Rand
Rental
Rund
RAM
RPC
Rather
R23
Rmark
Rigid
Royce
Riy
SG
SX
Sit
Sid
Siting
Sau
SCP
Selling
Slow
Sensi
Seamless
SIA
SLED
Sporting
SYS
Squad
Svel
TW
Tin
Tit
Tess
Tuc
Toy
Tiv
Teal
Tack
Tys
TDA
Tiet
Tolerance
Tizen
Utica
VH
VS
Vin
Viz
VDI
VBMS
Vested
V11
Videos
VHD
Veeps
Victory
VSC
Versed
VEND
Vegas
VITAL
Wi
Wc
WB
Wired
Walk
Walth
WTW
X2
XS
XA
XGB
YO
Yello
Zuc
ZER
Zones
Zai
af
afor
alex
bS
bed
bent
bag
bacter
bird
bored
buses
baked
bono
cf
cu
cB
cess
cog
cree
cisco
casting
cele
crop
costing
cafe
cbh
dm
dar
dust
dditional
dgo
dark
datalake
dentist
danny
eti
eating
eSt
etiqu
eCRF
fal
fic
fired
felt
folding
gam
gob
gamb
gears
guru
gcp
hom
humb
hugging
iG
iDO
iRobot
jr
jer
jan
jps
jfs
kios
kpm
krob
kristen
loft
lumen
lane
lisa
lanes
mash
merc
male
mogging
ny
nim
ol
od
och
pit
pine
pane
ports
pSD
pizza
psil
ppg
rus
rack
rose
ramps
rsm
seal
sss
sew
sail
saves
south
satell
ti
tear
tif
tink
tiss
ui
uag
v3
vor
vatic
vouch
valo
vlookup
vitro
wides
watched
zeal
##a8
##aven
##autions
##aque
##rk
##rable
##rest
##rant
##rame
##racker
##i®
##sa
##sen
##selling
##scripts
##sexual
##cn
##c2
##cus
##cart
##call
##cape
##cquisition
##curring
##cyte
##otic
##oples
##mu
##mon
##med
##match
##matis
##meat
##manned
##medicine
##fo
##fg
##find
##fined
##tro
##tax
##tatively
##trix
##hil
##hilar
##hooks
##hika
##kq
##kar
##kits
##e0
##eer
##eier
##eemed
##eomics
##eSense
##lon
##liness
##loud
##law
##lands
##lipse
##lchemy
##dem
##dney
##HM
##HF
##HEs
##NN
##Nar
##New
##Navy
##ua
##uven
##nst
##ntial
##gq
##gon
##gar
##gate
##gun
##gater
##p8
##pcus
##y9
##yV
##yrs
##73
##74
##bk
##bane
##366
##vu
##vine
##51
##0M
##61
##6Z
##WB
##WRT
##W22
##Winner
##Pi
##Paid
##Position
##PEND
##8e
##82
##wine
##wpm
##wesome
##IE
##IBI
##ICE
##RN
##RG
##RCE
##Em
##2V
##200
##210
##Ts
##Ty
##TU
##TV
##THS
##The
##Tangle
##zill
##zie
##OH
##OT
##OFT
##OOSE
##Db
##DF
##Dem
##Design
##Down
##Duty
##B7
##Base
##BAR
##Bachelor
##BORA
##UIS
##UITY
##J3
##Go
##Global
##GES
##GAR
##GER
##Green
##YT
##S7
##SW
##Senior
##Schools
##SYT
##Cont
##Connect
##Compliance
##LEN
##LING
##QN
##QM
##XX
##XING
##M1
##Mag
##Music
##Matter
##4b
##445
##AE
##AY
##ATION
##AMP
##Acquisition
##Alchemy
##Awesome
##F3
##FR
##FA
##Feed
##Footprint
##ís
##KH
##KD
##Knowledge
##Zu
##job
##VN
##V8
##VD
##VRY
##átic
##titi
##tian
##titious
##eract
##erick
##erfield
##oning
##onics
##inent
##inates
##infrastructure
##enbur
##enutrition
##alara
##itc
thumbtack
thirty
##rey
##rosis
##rock
ingr
tos
tox
##antics
##artis
##arsh
##aritas
##elations
##eland
##elight
##eletal
##ila
##ils
##icop
##econ
##ecard
##stein
##omi
##omfort
##omfortable
prol
propon
props
proportion
proxy
##sities
##sified
##sión
##olul
##urates
##ngs
##acode
##plifying
##plifies
##isk
##isers
##isure
orthod
##pert
##perium
reev
refor
reps
retin
retraining
##gends
forests
forging
excelling
exhilar
##thur
##them
##thop
##assive
stad
stone
stennes
stagn
ansible
##idity
##idad
##etus
##etack
##uccess
##evere
##rived
##rizona
##forces
workbooks
##ulators
congr
confer
##emer
##emic
##emake
##emention
##emanagement
##iratory
##owed
##inetics
ons
onion
##aying
composition
compounds
##ocenti
##ocking
##ocyb
##occurring
##echco
apolog
aptitudes
##odge
##ustration
##ima
##imm
##imal
##imLX
##sionary
##otr
ens
enterpr
enacts
enemy
entrusted
##adh
##adia
##ifs
##ifiers
##ando
##ainst
##ivables
##izers
##ching
##ogue
##ogram
##ogmeat
usgs
##evelopment
##utch
weâ€™re
neur
neph
##obb
##obuf
alcohol
##grp
Weka
##estors
##estamp
##ipient
##osoft
mangers
plot
plum
##achute
commens
atyp
attuned
trumps
Inj
InV
Invi
impart
impost
impetus
##ellor
solo
soluc
solicits
leaning
##ervancy
##erville
intensi
Proxy
Prophet
##avett
[...]
